#version: 0.2
Ġ t
Ġ a
h e
i n
r e
o n
Ġt he
Ġ s
e r
Ġ w
a t
Ġ o
i t
Ġ c
n d
Ġ b
o u
in g
i s
Ġ f
o r
e n
e s
Ġ p
Ġ m
e d
Ġt o
a n
a l
a r
Ġ d
Ġ in
Ġ h
Ġo f
Ġt h
Ġa nd
a s
l e
i c
â Ģ
o m
Ġ I
i on
Ġ l
l l
Ġ n
v e
Ġ g
Ġ e
l y
s t
Ġ re
en t
Ġb e
Ġ y
o t
Ġ T
u t
i d
o w
Ġth at
Ġ on
a c
Ġ is
e t
a y
č Ċ
Ġy ou
Ġf or
r o
s e
Ġ S
i m
Ġ it
Ġ A
a d
âĢ Ļ
v er
i g
l d
Ġ u
a m
Ġs t
u r
c t
Ġ he
Ġ C
it h
Ġw h
Ġw e
i r
Ġw ith
k e
c e
Ġ M
Ġa n
Ġh a
t er
at ion
Ġa s
c h
o l
Ġ B
i l
i ll
i f
Ġ r
ĠT he
Ġw as
Ġ W
Ġ P
Ġ âĢ
he r
Ġa re
er s
Ġs e
Ġa t
Ġd e
Ġc on
o re
at e
o o
g e
Ġ H
Ġha ve
es t
p e
ou ld
Ġf r
Ġc om
Ġ 1
ig h
u l
Ġn ot
Ġn e
t h
Ġ D
Ġ (
u s
a in
u n
Ġp ro
o p
m ent
Ġo r
Ġ F
Ġ R
Ġe x
' s
Ġ 2
is t
es s
u st
r i
Ġd o
an t
p p
a b
Ġth is
Ġs u
al ly
Ġa l
Ġs h
Ġ N
re s
Ġ v
n t
a nd
i ve
ar t
ou t
Ġb ut
or t
Ġa b
Ġ j
om e
u m
igh t
e m
it y
Ġfr om
o s
Ġ G
q u
e l
Ġ L
Ġ le
Ġb y
i e
Ġt r
o c
Ġw or
ĠâĢ ľ
Ġc an
âĢ Ŀ
Ġ E
g h
Ġl i
Ġc h
Ġ O
ac k
Ġm y
o st
i es
Ġthe y
Ġm e
0 0
Ġ "
Ġp l
Ġ k
al l
ar d
re d
Ġs a
as t
Ġyou r
Ġw he
a k
Ġg o
Ġh as
a p
on e
Ġw ill
ou gh
ou r
Ġs o
Ġo ut
Ġ J
Ġa ll
e ar
a g
Ġu p
id e
u d
Ġin t
Ġm ore
o d
i v
Ġab out
Ġh is
Ġli ke
on g
ĠT h
Ġ U
f e
Ġw ould
' t
ic h
t her
ou nd
Ġwh o
ic e
a ke
ver y
am e
im e
k s
Ġthe ir
in d
Ġa d
p t
a ge
Ġon e
Ġsa id
ac t
in e
p l
i al
u re
ou s
Ġj ust
Ġg et
an s
Ġs ome
ion s
Ġu s
Ġf e
Ġ if
a re
oo d
a u
Ġp e
s o
p er
Ġa r
Ġh ad
Ġy ear
k ing
u e
Ġp r
ĠI n
Ġt e
ĠI t
Ġcom p
at ed
Ġwh at
Ġ im
v en
Ġc l
op le
c c
Ġ en
Ġwe re
e p
Ġan y
b er
Ġ Y
Ġthe m
r a
ay s
Ġbe en
i z
Ġa g
it e
ac e
Ġu n
Ġwh ich
Ġthe re
Ġcon t
Ġ K
Ġof f
ow n
Ġo ther
Ġpe ople
Ġt ime
Ġbe c
Ġ2 0
Ġk n
Ġth an
i p
Ġm an
o g
Ġwhe n
ab le
ĠS t
f f
i a
r y
u b
o se
Ġin c
Ġg r
Ġp er
Ġo ver
i le
ig n
res s
Ġal so
h ing
Ġ qu
i re
ar y
Ġre s
. .
Ġ 3
an ce
in k
as s
ou nt
Ġ -
b le
in t
au se
ing s
en ce
re e
f ter
Ġn o
ation s
ul t
Ġp art
a il
Ġd on
Ġd is
Ġs p
as e
re at
on d
or d
or m
Ġne w
Ġhe r
oo k
Ġh ow
Ġint o
Ġs c
u c
ic al
Ġw ant
Ġwor k
o ve
Ġre c
ct ion
a v
n e
Ġp re
m er
ir st
n ing
en s
ĠH e
p ort
Ġc ould
Ġ20 1
ic k
Ġs pe
Ġ V
o b
nd er
Ġa m
ac h
ĠC h
Ġkn ow
Ġs he
Ġt w
Ġo ur
ve l
r u
Ġon ly
Ġne ed
it t
Ġit s
Ġd id
Ġbe t
it ion
Ġbec ause
ar k
am p
Ġa fter
u ch
se l
ad e
or s
Ġf irst
an g
Ġb ack
re n
Ġa ct
Ġe very
or y
Ġp o
i ous
ĠB ut
Ġa cc
Ġa pp
Ġth ink
Ġr un
i an
Ġc o
Ġb r
Ġm ake
Ġ 4
Ġn ow
ĠW e
Ġ $
ic t
i ld
Ġb u
Ġm ost
Ġe ven
Ġ ro
Ġ 5
at es
w e
Ġm uch
he d
re nt
Ġin v
Ġse e
. âĢĿ
ver s
Ġthe n
v ing
Ġyear s
Ġh im
id ent
ĠW h
Ġde c
on s
Ġpl ay
t e
Ġtw o
om et
Ġto o
is h
a w
o y
Ġg ood
Ġw ay
ĠA nd
Ġb l
ĠTh is
Ġst art
u ll
l ic
t ing
e ct
f orm
Ġs er
e w
Ġth r
Ġu nder
Ġcon s
Ġcom m
f ore
Ġp ol
v ed
w n
is e
ĠY ou
Ġsh ould
at er
Ġ1 9
Ġwhe re
f t
Ġ [
Ġm ay
u al
ĠI f
Ġre ally
) .
Ġ very
Ġdo es
Ġd if
l i
an c
Ġag ain
l p
Ġs ay
d ay
Ġbe ing
Ġc r
ot her
, âĢĿ
i ly
Ġad d
Ġgo ing
Ġl ong
Ġd es
Ġat t
T he
t y
Ġr ight
u ally
Ġin d
Ġhe lp
ur n
at ing
Ġthe se
e c
ak ing
Ġd own
ment s
' m
Ġwe e
o ld
Ġe m
pe ct
Ġs omet
. "
Ġ ke
Ġwe ll
x t
Ġm on
if e
sel f
Ġu se
os s
Ġw r
Ġin ter
ent s
is s
d u
Ġg u
g r
l es
Ġse c
l ud
Ġfe el
Ġth ose
Ġman y
ĠA s
Ġre m
Ġsu pp
Ġbe fore
oc k
Ġth ough
nd s
ĠâĢ ĵ
ers on
Ġthr ough
ot h
at h
ou p
en c
Ġf l
Ġst ill
Ġp h
i b
Ġo wn
ow er
Ġl ast
o ll
Ġd ay
Ġim p
if ic
g et
Ġe v
in ce
as on
ĠâĢ Ķ
Ġre l
m an
Ġre g
ub lic
an ge
Ġc all
v es
ĠU n
Ġas s
Ġs m
al s
Ġt ake
u p
as ed
Ġl ot
he n
f ul
e re
Ġe nd
j ect
a x
ie w
Ġf in
b e
ur ing
' re
fe ct
ĠT r
Ġdif fe
Ġs ame
um p
i ble
ar ly
Ġ 6
Ġbe l
it ies
w ard
at ive
on t
, "
Ġsomet hing
Ġpo int
le ct
it ed
Ġtr y
Ġs et
re ad
Ġm in
Ġinc lud
Ġf ind
Ġs y
Ġsu b
Ġm ade
Ġsh ow
t s
ar s
ation al
- -
im es
Ġa c
ver n
it s
ic s
ĠA n
Ġwh ile
en er
y s
ot e
th ing
Ġs im
Ġth ings
Ġst r
) ,
Ġc ount
Ġhe re
Ġg reat
Ġ1 0
Ġmon th
Ġar ound
Ġre al
u es
e ll
Ġst ate
ĠA l
g g
Ġp res
il ity
u nd
ĠR e
mer ic
Ġha pp
i ed
c i
Ġh igh
Ġl ook
Ġre ad
t ain
m s
w ay
00 0
ĠS o
Ġp erson
a h
ter s
Ġg ot
Ġst ud
Ġ ent
ĠThe y
Ġde f
ol og
Ġc he
ĠTh at
Ġcomp an
one y
Ġsu ch
c ess
a ve
Ġin st
Ġfe w
m e
an k
Ġc ol
i o
n er
a ir
i x
o ol
Ġinv est
Ġo p
Ġre t
Ġin s
Ġwor ld
ĠA meric
Ġs ur
ak es
Ġc ur
ĠN ew
Ġex per
e ver
we en
Ġt er
ri b
Ġl ife
h ip
Ġus ed
ou n
at ch
Ġb ig
Ġpl an
Ġs l
ar ch
Ġp ut
al th
Ġo b
Ġbet ter
he s
Ġgo vern
Ġre port
Ġl oo
Ġc ar
' ve
ou se
Ġte am
ic ally
Ġ2 00
a z
Ġm ark
ce pt
Ġbet ween
Ġ 7
ist s
ter n
Ġa p
Ġex p
at her
ĠF or
ĠThe re
oll ow
Ġn um
g an
Ġne ver
Ġ i
Ġf am
st em
Ġs ince
al e
.. .
Ġm ight
Ġf ound
Ġspe c
in ess
Ġm oney
or k
T h
Ġb us
Ġdiffe rent
Ġm ed
Ġs ign
Ġagain st
ab ly
Ġp ay
ro s
u res
Ġad v
Ġle ad
Ġp ost
Ġdis c
Ġch ar
od y
Ġb oth
Ġg ame
k ed
Ġ 8
ere st
Ġwee k
en se
Ġke ep
ill ion
l ed
is m
w ays
Ġt al
Ġh ard
ĠB r
Ġb est
e f
p r
Ġs ays
o ot
Ġtr ans
c om
Ġpro v
Ġc our
Ġ ide
Ġ ed
Ġdo ing
ut ion
us s
ar n
ut e
Ġse em
i et
as h
Ġis s
vel op
âĢ Ķ
Ġm od
itt le
ic es
uc k
ĠI s
i ence
ĠF r
ĠS e
l and
Ġf act
Ġl aw
n g
o v
Ġre p
c es
f fect
ĠA r
ĠS h
Ġqu est
am es
Ġh ome
Ġth ing
Ġfr ie
iz e
Ġg ener
Ġd uring
Ġm em
ul ar
Ġgr oup
Ġ 9
Ġsupp ort
Ġan other
in s
Ġc ap
ĠH ow
l ess
Ġdid n
c ent
Ġe as
Ġsy stem
Ġj ob
Ġne xt
Ġth ree
Ġpro du
Ġcon f
ch ool
Ġmark et
ĠC om
Ġe l
ent ion
Ġgovern ment
Ġc le
Ġl ittle
c on
Ġex t
c k
Ġd et
Ġint erest
ĠL e
Ġl ess
Ġ '
er n
Ġf ollow
Ġf ar
Ġw om
Ġcom e
Ġe ach
Ġbel ie
Ġc re
Ġp oss
in es
Ġsu re
Ġwith out
Ġoff ic
ire ct
Ġa ut
Ġl ar
Ġm ar
ĠC l
Ġal ways
a red
Ġs oc
Ġpro ble
p h
Ġc are
ĠO n
Ġde velop
i er
g er
Ġp ublic
Ġto ld
t en
Ġc or
Ġg iv
Ġre qu
Ġdoes n
n ess
Ġle g
Ġ 0
Ġt ri
ag es
Ġex pl
e x
re t
Ġl oc
d er
Ġres p
m in
m ed
Ġm et
Ġbus iness
iz ed
Ġle t
t he
Ġd r
o h
Ġv al
is ion
ĠD e
ĠTr ump
a j
i ent
Ġo pp
Ġre f
Ġwh y
Ġ *
ĠWh at
Ġbu ild
Ġhe ad
Ġp ass
Ġha nd
Ġm il
Ġpl ace
Ġcomp le
i vers
Ġsec ond
t on
Ġcont in
ate ly
Ġsm all
b ers
ros s
Ġin f
at a
Ġar t
at s
ĠU S
Ġop en
v iew
Ġim port
Ġinc re
Ġd ist
read y
ĠA t
ĠA d
Ġen ough
Ġact ually
l ine
2 0
Ġa v
Ġf ull
Ġre st
Ġc ent
r ic
. [
Ġf un
Ġto p
Ġall ow
c ed
Ġab le
o x
id er
b s
Ġd ays
Ġcomm un
i red
I t
Ġcompan y
Ġch ild
gr am
et s
Ġrun ning
Ġ &
Ġal ready
st and
Ġ .
ain ing
Ġp ower
Ġget ting
' ll
l ing
it ing
Ġl ist
ord ing
ie ld
Ġg l
ant s
Ġp ri
Ġk ind
Ġp os
Ġu nt
it al
o pe
Ġus ing
g y
Ġm ove
ĠS he
Ġb it
at t
Ġpol it
Ġcur rent
Ġcon c
Ġf il
Ġm ain
Ġs chool
Ġte ll
Ġl ove
Ġpro b
r act
Ġt y
or n
Ġap pe
Ġhe alth
Ġres ult
Ġre le
ĠW hen
Ġg ive
Ġt ax
Ġb re
Ġcont ro
Ġo ld
Ġst and
Ġt urn
Ġha ving
e e
ĠM y
Ġf ree
ĠâĢ ĺ
Ġch ange
Ġde m
ro p
Ġc ase
er tain
u g
Ġin form
e ad
Ġw ar
he re
Ġh um
Ġte ch
os ed
Ġrec ent
Ġd irect
Ġc ost
Ġh our
Ġm at
Ġnum ber
Ġwor king
o k
v ious
Ġa way
Ġle ast
Ġbu y
Ġs k
Ġbe h
nd ing
Ġc amp
Ġme an
r ap
Ġpro f
Ġs it
Ġunt il
b r
Ġle vel
Ġpro gram
er v
Ġm aking
Ġle ft
Ġs ol
d uc
Ġfam ily
Ġsome one
Ġpart ic
u ff
Ġser v
Ġd one
Ġfor m
Ġhapp en
W e
al f
Ġp op
is hed
ren ce
Ġo pt
Ġe ffect
Ġper cent
Ġex pect
Ġan n
Ġb as
Ġpr ot
Ġany thing
con om
ĠR ep
ain s
ĠB l
is ed
Ġgr ow
Ġcount ry
g ed
enc y
Ġcall ed
pl oy
Ġmonth s
Ġp ur
1 0
aj or
Ġt est
Ġm illion
Ġloo king
Ġinclud ing
Ġpro cess
ĠB e
ot t
Ġd ri
Ġimport ant
us h
Ġprob ably
a im
it her
Ġp ast
ir d
id ed
are nt
ed d
Ġ Z
Ġt imes
Ġtry ing
an n
Ġpre t
r al
Ġw on
Ġch ang
ĠP ro
Ġ Q
ĠI nd
em ber
Ġl o
Ġre se
amp le
g in
Ġstart ed
Ġ1 5
Ġl ater
Ġsim p
id es
Ġ ve
olog y
i ke
Ġe ver
Ġide a
Ġm o
s on
Ġf our
Ġde p
Ġ es
Ġpret ty
us ed
Ġd ata
od e
in ed
am a
Ġis n
Ġm akes
Ġcl ass
Ġw in
Ġthough t
Ġb ook
m ost
ar ing
Ġunder stand
ĠP h
t o
Ġb ad
Ġst op
c o
a id
Ġse ason
Ġde al
' d
ĠO r
Ġ1 2
ĠA ll
w h
at ure
al ity
Ġ :
s ide
Ġe conom
er ing
in a
Ġw ent
Ġre ason
Ġ est
an ks
ard s
Ġprodu ct
Ġacc ount
Ġb en
Ġwom en
r ation
Ġpr om
e red
Ġm ajor
ĠM ay
ion al
Ġdes ign
or ies
Ġsh ort
Ġtech n
_ _
Ġr is
a pp
t ed
Ġpro ject
at ic
Ġon ce
Ġapp ro
Ġ1 8
ru ct
ough t
Ġv ide
ĠN o
ĠC an
Ġatt ack
Ġnew s
Ġh ist
cc ess
at ur
e nd
iv es
l f
re en
Ġv ar
Ġe t
Ġquest ion
Ġinform ation
in al
Ġproble m
Ġst ory
u red
Ġof ten
ĠAmeric an
Ġre ce
ĠO ne
Ġret urn
oc r
ĠCh r
i or
u ro
gg est
âĢ ¦
ow s
c l
Ġlar ge
Ġ =
Ġtoo k
Ġs ide
Ġc ity
5 0
Ġv is
Ġh old
w it
Ġexper ience
Ġor gan
ĠM ar
ĠP l
Ġc ame
Ġ- -
ut ure
as es
h or
Ġcon st
ur y
Ġsu ggest
Ġm ust
Ġe ff
Ġl ow
Ġp ar
Ġw ater
Ġel se
Ġb ro
Ġlike ly
Ġp at
Ġm ind
i k
Ġn ight
Ġb ody
Ġpol ice
Ġm us
or th
Ġtr a
Ġm iss
Ġl ive
ap s
i ally
au gh
at or
Ġ3 0
Ġe le
Ġother s
w are
Ġm en
ain ed
ne y
Ġde b
Ġto day
Ġe qu
if y
ound s
Ġcl aim
Ġbec ome
ort un
re am
Ġag o
Ġn on
Ġf ood
Ġc ertain
Ġm om
Ġs ing
i ans
Ġl ine
Ġcour se
Ġinter n
ĠM an
Ġn ame
Ġp ot
Ġe arly
Ġsoc ial
Ġfrie nds
Ġposs ible
it er
el s
Ġh alf
ivers ity
Ġse en
Ġk ill
Ġex ample
Ġwor d
Ġf ore
ĠP r
Ġor der
Ġv iew
on y
b y
ĠO b
ou th
ĠT o
Ġf oc
Ġme et
-- --
il ar
pe nd
oh n
Ġev ent
g ress
and s
ĠS p
ĠUn ited
Ġo per
Ġevery thing
Ġf uture
Ġme ans
Ġen g
ĠG r
if ied
o int
Ġpres ident
le t
an e
c hed
Ġbelie ve
ur ity
ĠD o
Ġd i
Ġoffic ial
Ġy et
ri es
ac y
E R
Ġ /
ĠJ ust
it ive
ĠN ot
Ġsu ccess
Ġh ouse
id d
in king
g u
Ġper form
a ign
Ġc ut
Ġyou ng
ac es
is ter
Ġe lect
Ġw al
Ġrec ord
ver age
Ġwant ed
Ġpro per
ar r
ĠS c
ut es
Ġse ver
ĠC on
Ġse ll
Ġal most
Ġevery one
Ġcl ose
Ġh ig
ĠM r
ĠW ith
Ġ ,
Ġcontro l
Ġa ir
Ġ1 1
Ġf und
Ġs al
Y ou
Ġse x
w ork
Ġb o
ĠJ ohn
Ġcons ider
Ġpol ic
Ġc a
r or
Ġle arn
Ġwhe ther
ent ial
Ġto t
Ġcomple te
ĠHow ever
Ġb ased
le y
Ġstr ong
ot s
g es
Ġp ress
i um
ic le
id ence
ĠP res
ens ive
Ġseem s
Ġhum an
Ġe ither
Ġl im
Ġsay ing
3 0
Ġe ar
en n
Ġal ong
Ġsever al
n ot
ail s
Ġnot hing
ĠA fter
s h
ak en
Ġwith in
s y
ci ally
c u
Ġcamp aign
Ġiss ue
Ġhour s
Ġimp ro
Ġed it
Ġ vers
em pt
Ġde v
iz ation
Ġloc al
Ġ #
is ing
er al
Ġw edd
Ġto get
Ġtoget her
on es
as ter
ag ed
ĠCom m
Ġmed ia
Ġg ames
Ġcol le
Ġcom es
un ch
Ġsim ilar
Ġdef in
Ġinv ol
id s
Ġmy self
W h
Ġo cc
Ġtr ad
ĠD on
Ġchar ac
ver t
c ri
l o
iet y
Ġph ot
Ġpolit ical
Ġyour self
Ġas ked
ĠE x
ĠM c
Ġsu per
Ġare a
y ear
Ġl ight
Ġr a
ĠRep ublic
Ġem ploy
Ġam ount
is on
anc es
ust om
b ack
i ol
Ġt aking
Ġwho le
pe cially
me nd
Ġ |
Ġchild ren
qu e
Ġw a
Ġbre ak
ur s
Ġh ope
Ġacc ording
Ġav ail
Ġ1 00
re w
Th is
Ġact iv
ĠE uro
ĠA m
Ġvide o
el t
Ġet c
ap er
Ġgiv en
Ġr ather
Ġany one
art ment
Ġfor mer
Ġ z
Ġwee ks
ward s
f or
ĠI m
ĠR uss
ĠS y
iv id
Ġwor th
ul ation
in c
ĠD em
ar m
Ġpro p
Ġqu ick
r on
Ġstud y
u ge
Ġm or
Ġf ig
p or
Ġf ail
im ate
Ġpr act
ition al
ĠT e
c le
Ġv ot
m ber
ri ed
u ation
! !
Ġn et
st er
Ġan t
Ġpri v
Ġcon d
Ġ1 6
ĠC ol
Ġeas y
s w
Ġpart y
v ent
Ġse lf
Ġor ig
Ġtr aining
Ġben ef
sel ves
Ġc al
Ġmem bers
Ġ19 9
g le
Ġac ross
Ġf ive
Ġl a
Ġc oup
ab ility
Ġcommun ity
ĠPres ident
Ġspec ific
Ġwe ight
Ġval ue
er t
Ġent ire
all en
Ġ X
Ġind ust
Ġc reat
ĠN ow
Ġf av
Ġwedd ing
Ġcomp et
Ġs ent
ore d
un e
f er
our n
ĠEuro pe
Ġb oo
ir on
Ġfrie nd
Ġrese arch
ra w
Ġs our
it ions
Ġsing le
Ġb ar
b all
Ġf ight
Ġplay ers
Ġm ult
l er
Ġst uff
ur ther
Ġavail able
Ġmil it
Ġrel ations
Ġw atch
ra ft
Ġkn own
Ġcompan ies
oc i
Ġm ess
i pp
Ġinst ead
Ġd ue
Ġacc ess
Ġcle ar
ĠS ome
Ġf re
iv ed
ag ue
Ġcr it
1 1
u ed
Ġab s
ĠY ork
u ly
Ġag ree
m y
ill s
Ġh it
Ġaut hor
Ġst ay
og rap
ub l
j oy
ite ly
ir l
Ġ ]
ort s
am ent
Ġf ast
Ġam ong
Ġbr ing
Ġwas n
Ġa ge
b ook
Ġiss ues
Ġmay be
if t
g est
Ġwr ong
ĠOb ama
Ġcom ing
ĠSt ates
Ġst ep
en e
th ough
ull y
Ġind ivid
Ġfollow ing
Ġ ident
Ġro om
1 9
Ġp ain
ĠChr ist
Ġpr ice
ĠW or
R E
u le
g t
o ice
ar get
iss ion
w here
Ġ5 0
in ation
Ġsp ace
Ġne ar
Ġtal k
g ing
Ġan al
1 2
Ġmat ter
Ġv iol
ĠWh ile
at ors
Ġs ense
Ġdif f
Ġc ustom
Ġcoup le
ic ult
Ġwor ks
Ġt re
Ġqu ite
Ġinvest ig
ĠSt ate
Ġf ace
al d
Ġhist ory
Ġ4 0
d d
ĠF l
Ġinf l
er c
Ġdisc uss
Ġf ac
Ġ1 4
Ġfoc us
Ġp arent
o ber
Ġconc ern
Ġris k
pt ion
Ġsu m
Ġser ies
Ġ201 6
o f
Ġj o
Ġf oot
Ġneed s
Ġp ick
Ġs w
ed eral
ĠN e
Ġadd ed
Ġindivid ual
Ġbe gin
er y
Ġtr ack
Ġfin anc
m ing
Ġes pecially
g o
ĠC ar
1 5
le ase
Ġne g
Ġspec ial
Ġfr ont
re me
Ġas k
Ġre pl
] (
Ġl and
Ġbeh ind
re et
Ġ Â
ĠP ol
. )
Ġann oun
Ġt aken
Ġde ath
Ġr ul
Ġtr ue
a pe
ĠH ouse
Ġrec om
p ar
a i
Ġlong er
Ġr ate
Ġreport ed
A T
p ro
Ġpres ent
Ġout side
a ut
Ġpos ition
Ġf all
. ,
Ġgo al
Ġgener al
I N
fe rence
ĠM in
ĠDem ocr
Ġty p
Ġan sw
Ġen joy
Ġd ou
re st
her s
ff ic
Ġex act
Ġ1 3
ĠUn iversity
Ġr ace
Ġen er
Ġp ull
Ġhig her
Ġmin utes
Ġsign ific
ent ly
o es
Ġke y
ĠS ec
ive ly
Ġbl ack
as hing
Ġserv ice
r ict
ĠAl so
Ġ1 7
Ġm ass
c hes
I n
Ġpre vious
o id
ĠCan ad
ĠS en
as ing
a ff
ĠAmeric a
Ġin j
y le
Ġcom b
Ġ201 5
Ġa ff
g th
Ġ2 5
Ġcom pl
Ġm ot
u se
Ġs ix
Ġ er
I f
Ġneed ed
Ġsh are
Ġcon ne
f ully
le g
ĠC ent
i od
ĠF e
enc es
Ġdiff icult
o ver
Ġab ove
Ġex ist
ĠE ng
ĠIn st
Ġph ys
ĠS u
ĠThe se
Ġt arget
il t
Ġare n
Ġperson al
ĠE d
res ent
Ġf u
Ġhow ever
Ġc ult
c rib
Ġcre ate
he ad
Ġe y
te nd
Ġn orm
li ke
Ġdec ision
ie f
Ġso on
ru g
l t
ib ility
it es
ĠP e
Ġn ational
Ġl ost
itt ing
Ġbuild ing
Ġprof ess
Ġwe bs
Ġd am
oo gle
Ġon line
ð Ł
b ody
Ġrelations hip
Ġf ield
r ing
Ġsec urity
o e
um e
Ġp ort
n ow
i ver
Ġpoint s
Ġen c
Ġrecent ly
Ġrecom mend
er man
Ġatt empt
Ġsimp ly
li er
Ġener gy
Ġch allen
Ġex c
v iron
um b
Ġf urther
Ġcom ment
Ġd iv
Ġ201 4
le ment
ou d
O N
Ġt em
Ġsignific ant
Ġc oun
ĠM e
Ġt reat
Ġcomm on
ĠC al
Ġth inking
Ġ +
Ġprov ide
Ġl ab
Ġthem selves
min ist
Ġh on
Ġcontin ue
Ã ©
Ġv ict
ud e
le x
ĠThe n
a ult
n ers
Ġpolic y
Ġsa w
Ġme as
Ġwould n
Ġinter view
Ġar gu
Ġsit uation
Ġcour t
Ġser ious
y n
Ġgo es
Ġf elt
ang u
Ġmilit ary
ĠN orth
Ġtri ed
Ġdefin itely
Ġfor ward
ra el
Ġp ubl
ĠA b
Ġquest ions
ĠA pp
Ġper iod
ĠR es
idd le
ĠG o
Ġty pe
Ġcont rib
pl ay
ĠH is
ĠW ar
Ġde fe
Ġcon v
os p
Ġth reat
Ġli ving
Ġresp ons
Ġit self
un g
int on
Ġl ate
Ġopp ortun
ĠK e
Ġs qu
Ġc red
Ġmom ent
duc ed
Ġv ol
Ġus ually
Ġst ore
Ġro le
Ġche ck
Ġsl ow
ĠC o
wit ter
Ġfil m
Ġin it
Ġg en
ĠG u
ĠB y
ĠA f
ĠA ust
id ay
Ġwork ed
âĢ ĵ
Ġf ire
Ġac cept
Ġprot ect
am s
ĠD r
Ġtot al
ip s
Ġim m
Ġs us
n es
Ġindust ry
ĠJ an
Ġst ri
Ġth ird
a f
p ite
c he
ress ed
Ġc op
Ġh y
ad es
Ġget s
A N
Ġmus ic
Ġl ower
ol ution
Ġfe at
Ġincre ase
an a
Ġoff ice
ir t
or ing
Ġle ave
sy ch
Ġne cess
med i
o ff
m b
og n
Ġn ice
Ġc and
ĠBr it
Ġrem ember
ĠWor ld
am ed
Ġe at
Ġdevelop ment
Ġst at
Ġm ag
Ġcurrent ly
ĠD av
Ġwr ote
itt ed
ist ic
Ġde ad
ĠC ity
viron ment
Ġwh ite
Ġplay er
Ġs ite
Ġloo ks
Ġh uge
ĠP art
Ġw ind
Ġg irl
H e
t ime
Ġcharac ter
v al
Ġre d
is es
ĠD ep
Ġph one
ct or
Ġa ction
Ġvers ion
ĠIs rael
h y
I S
Ġbel ow
ĠG e
ag er
r ow
ĠCl inton
Ġp ack
Ġs le
" .
Ġm ention
Ġex ec
f ort
att le
Ġwom an
Ġt akes
Ġresult s
Ġinclud e
Ġfin al
Ġst ates
Ġp ie
Ġproble ms
ĠE ven
om es
Ġw ond
l ish
Ġw ays
Ġa verage
Ġfav or
ĠW ill
Ġpot ential
i que
h od
2 5
Ġchang es
ĠN ational
ac ed
Ġshow s
Ġoff er
ĠM ed
ar ter
Ġb all
e ah
Ġtal king
Ġb ill
Ġ2 4
Ġgu y
Ġstud ents
se c
Ġbec ame
ĠCh ina
Ġdo cu
r an
Ġcont ract
av ing
Ġpro gress
ashing ton
ul arly
ll ing
Ġfinanc ial
Ġhapp y
Ġparent s
Ġinc ome
Ġd om
2 00
ip le
Ġadv ice
du ct
ĠF ace
Ġright s
Ġde l
re ct
Ġc ir
Ġp ict
ĠAs s
r ight
S t
Ġre view
Ġd est
1 6
Ġev idence
as ons
est s
Ġ201 3
ag ing
i ents
ĠE n
Ġcount ries
Ġb ud
ur al
ĠS outh
Ġstate ment
Ġsimp le
ourn al
Ġt it
am er
re g
Ġd rug
Ġhim self
os ing
Ġso ld
ob al
o on
Ġon es
Ġgroup s
Ġa w
Ġ )
ĠA cc
Ġind e
ir m
Ġplay ing
Ġm ent
Ġf ederal
on se
ate ver
ĠW ashington
Ġimpro ve
Ġsur pr
a ily
1 4
as k
Ġmil es
ĠIn tern
Ġbe gan
pp ed
Ġ201 7
Ġter m
Ġb ase
Ġhe art
Ġlead ers
y ing
o ke
e es
d e
ĠG oogle
ĠHe re
h a
Ġst e
Ġdec ided
Ġm is
Ġ201 2
Ġl at
Ġed uc
iv il
Ġk ids
Ġr out
n a
Ġword s
Ġdet er
Ġrele ased
S A
l im
Ġleg al
Ġl oss
Ġrep resent
ĠB ar
id ing
Ġj ud
Ġg un
h aps
Ġext ra
age ment
Ġmor ning
Ġstart ing
ac hed
Ġwebs ite
Ġart icle
ru gg
ĠC ong
ĠG erman
I T
iv al
Ġh ot
ol ute
Th at
Ġstr ate
Ġob s
ĠFace book
iz ing
ove red
Ġ19 8
Ġan im
Ġcan not
Ġf air
Ġper fect
Ġcont ent
ĠP er
b o
Ġimp act
Ġc ard
act ion
ar c
Ġr ad
s u
Ġhe ard
Ġro ad
Ġres pect
Ġc e
Ġpr im
Ġe p
st r
Ġcons um
Ġcomplete ly
pl es
Ġh ost
b it
Ġofficial s
m on
h ood
il i
p s
A R
ĠO ct
Ġserv ices
Ġso ft
ra z
Ġf it
Ġp aid
Ġwant s
Ġf ine
Ġsomet imes
Ġansw er
ress ion
ĠAn y
Ġp red
Ġfun ction
Ġch ance
Ġrele ase
Ġter ms
Ġhappen ed
Ġs ort
Ġa ud
Ġy es
p ut
lo ad
Ġgr ound
ut ions
Ġl og
il ities
1 3
Ġrequ ire
Ġup d
ĠM us
Ġplay ed
Ġexact ly
ĠT witter
Ġad minist
Ġg ave
Ġread ing
Ġhe av
Ġm id
ĠM ore
Ġim medi
i res
Ġc ause
Ġgrow th
Ġs ound
Ġdec l
ight s
Ġb illion
Ġh op
Ġde ep
Ġl ack
Ġexpect ed
Ġgu ys
Ġrun s
B C
Ġm ov
n y
ou ch
ĠS m
ang er
oc ks
Ġresp onse
Ġsh oot
Ġha ven
Ġear lier
Ġcand id
Ġtra vel
Ġhe ar
1 8
Ġadd ress
he l
Ġfeel ing
Ġc ode
Ġspe ak
Ġs ize
Ġboo ks
Ġapp lic
ib ly
Ġl if
Ġmod el
Ġcare er
Ġc y
* *
Ġo il
Ġst ock
a ul
Ġpop ular
ĠSe pt
Ġinvol ved
ĠNew s
Ġw ife
ĠSt e
Ġen vironment
ĠW est
Ġcap ital
Ġappe ar
ĠM arch
Ġpriv ate
Ġcomp ut
ur d
Ġdes crib
Ġb ox
l am
Ġd ress
1 7
Ġst rugg
Ġp ers
in ks
ĠWh ite
Ġp age
at ives
Ġob ject
Ġhe ld
Ġn atur
Ġrel ig
Ġem ail
o or
Ġins ide
Ġl uck
c y
Ġquick ly
Ġnum bers
Ġeconom ic
Ġreg ard
ĠM ich
ater ial
Ġc ash
Ġco ver
re l
ke y
ĠE m
Ġpl ans
Ġto ol
ch ie
if f
.. ..
s et
z e
Ġbl ock
Ġex erc
Ġmet hod
Ġv ote
Wh at
__ __
Ġne arly
Ġkn ew
c ast
ro om
ĠA ug
Ġfor ce
Ġ <
itt en
ec ause
ĠJ une
Ġspe nd
Ġgu ess
Ġu r
Ġsp ent
Ġl angu
ĠH ar
The re
Ġab ility
Ġcre ated
Ġorig inal
S T
Ġre v
Ġdo ll
Ġb oy
Ġsh ot
6 0
u ary
ĠA pr
ct ions
ap an
Ġresp ond
Ġm other
Ġspe ed
ĠM ond
Ġco ll
es e
Ġd ig
Ġst ren
k y
ur t
ll ed
b or
Ġl ink
Ġ {
Ġl ed
Ġsub ject
Ġte xt
ĠFr iday
f fe
Ġsour ce
p ed
Ġext reme
Ġb i
Ġrece ived
Ġele ction
Ġd en
re ed
ur ch
Ġinterest ing
ar ily
4 0
Ġant i
Ġtechn ology
im ent
Ġr an
Ġli ves
Ġe mer
ĠM ost
ĠC r
Ġf at
Ġcol lect
ĠJ uly
Ġdiffe rence
Ġsc ient
Ġare as
Ġjob s
" ,
ac hing
Ġbu ilt
Ġ @
ut h
Ġc ases
Ġb ott
ĠG od
Ġbeh av
Ġse arch
Ġre ve
Ġs n
ict ion
i j
ĠF irst
Ġm atch
Ġp sych
ic ated
Ġexper i
Ġob vious
Ġa ffect
Ġ ill
un t
Ġwh atever
ĠP ar
Ġop in
Ġpur ch
Ġto wn
Ġha nds
Ġturn ed
ĠQ u
c ome
n ed
Ġh or
led ge
Ġl iter
ĠY our
Ġf ix
Ġev ents
= =
Ġfig ure
Ġ â
ĠDep artment
Ġad m
Ġbud get
ut ed
Ġcolle ge
ĠAcc ording
Ġs en
ĠAust ral
Ġp aper
ĠS pe
it ution
ic ro
Ġass oci
ĠE very
Ġeff ort
ĠMond ay
Ġch oo
ĠTh anks
ĠRepublic an
Ġqu ality
ĠD es
ĠApr il
Ġav oid
olog ical
is c
Ġcl ub
m a
Ġse par
p re
Ġint ro
Ġperform ance
ĠA ct
Ġabs olute
ess ion
Ġm aterial
ĠSy ri
Ġeng ine
Ġcost s
Ġpri or
p le
Ġb ank
Ġus ers
Ġpr ote
Ġa chie
h am
a ur
Ġcont act
Ġatt ention
Ġcle an
Ġf em
et er
Ġcould n
em s
o le
Ġcon vers
Ġpre p
Ġd rop
Ġtr ade
ĠS und
Ġopt ion
ĠC ont
us es
ĠJ apan
Ġlook ed
Ġst aff
Ġbro ad
Ġre nt
Ġproper ty
Ġnorm al
Ġor d
ide red
Ġto wards
Ġ201 1
j ust
Ġs we
Ġsa fe
h old
Ġre pe
Ġal one
Ġinfl u
Ġim ag
om b
Ġest ab
ĠT ues
Ġgiv ing
Ġde g
Ġv ia
Ġ ðŁ
E N
her n
Ġ ess
ĠA g
Ġne igh
en ing
Ġ2 1
Ġallow ed
re ci
Ġc ell
ĠO f
ell ig
Ġde li
ent ially
ap t
w ise
r ay
Ġopt ions
Ġmeet ing
is hing
Ġpartic ip
Ġintern ational
us ion
Ġf ear
O R
Ġrec ogn
Ġw ide
Ġannoun ced
Ġl ose
ĠCong ress
Ġappro ach
p an
d own
Ġcap t
Ġcl os
m ore
Ġ2 2
Ġhelp ed
ruct ure
Ġp ush
Ġcons ist
ĠE l
er o
Ġb al
ĠTues day
Ġn ation
az ing
Ġmin im
Ġex cept
s c
Ġcons idered
Ġproduct s
ĠC or
ur ance
Ġplan ning
Ġread y
Ġpartic ular
Ġco ol
Ġs ounds
ord er
c ul
Ġsa ve
Ġd ate
Ġsle ep
ur ning
âĢĿ .
ĠCal if
ĠT H
Ġ19 7
Ġc ivil
ok es
r ain
ĠC ount
Ġreport s
is l
Ġth ous
c er
Ġgo als
ĠDav id
it iz
ĠL ike
Ġgl obal
ĠC our
ĠJan uary
Ġf ather
Ġar ri
R A
et y
Ġdem and
Ġm iddle
ĠP al
k er
ĠG l
ĠWh y
Ġr ange
---- ----
Ġe arn
in o
al ed
in ing
itt ee
he t
ĠN ove
ĠAmeric ans
Ġdou b
Ġbo ard
Ġeconom y
Ġwr ite
Ġkill ed
ĠO ther
Ġtr ust
ĠFe b
Ġmult iple
ce ed
ir ing
ĠS an
Ġeas ier
ĠW ed
en ed
Ġbr ain
Ġrul es
y ond
ly ing
Ġf ans
Ġvar ious
Ġinclud ed
Ġ201 0
Ġwork ers
Ġmem ber
ru ction
Ġcom ments
ĠS ch
ĠSept ember
Ġset t
os ition
Ġgr ad
ĠSund ay
ĠRuss ia
ĠT V
ĠC he
at form
Ġter ror
b ased
Ġpubl ished
Ġpract ice
ot o
Ġinvest ment
Ġh ous
Ġsh op
ic ation
M y
Ġc ross
r om
c il
Ġs on
le v
ã ģ
ĠL et
Ġb an
w or
Ġcom fort
Ġlevel s
Ġmo ving
Ġfin ally
ĠGe or
Ġ ...
Ġ2 3
Ġfore ign
at ory
ĠCh ar
Ġfe ll
ĠFr om
ĠCanad a
Ġopportun ity
ĠOct ober
Ġar rest
Ġsc hed
Ġd raw
ĠU K
Ġsub s
Ġbig gest
Ġst ra
Ġide as
ĠNove mber
ific ation
Ġp ath
pend ent
ĠF in
Ġmed ical
Ġu lt
Ġcor rect
E D
A s
ĠP ost
Ġpo or
Ġwal k
O T
Ġvis it
ĠTh urs
f ace
Ġwho se
ĠP aul
ĠG ood
Ġinterest ed
und red
ĠT w
Ġchang ed
Ġdirect or
Ġsum mer
Ġt able
nes day
r it
Ġmove ment
im ately
Ġcertain ly
Ġg one
ut ive
Ġeas ily
b l
Ġl ay
Ġwe ap
Ġch oice
al t
h ic
i ber
Ġmain tain
c ial
Ġm ach
vert ise
ĠH ill
Ġ il
Ġbr ought
Ġas king
a ud
ĠCalif orn
Ġex am
Ġf ill
Ġg e
ĠAug ust
a el
et t
ĠThurs day
Ġres our
Ġsec ret
ĠP re
ĠWed nesday
Ġprodu ction
Ġdo g
Ġs ong
ĠI nt
ar ies
ab les
p ing
Ġspe nding
un k
Ġsal es
A L
Ġ6 0
Ġteam s
ast ic
a res
Ġwr iting
Ġr ac
Ġhon est
ĠM ark
Ġbe aut
gr ound
augh t
Ġdet ails
l ight
ce mber
ys is
Ġpur p
Ġwee ke
er ve
i ant
e ch
Ġcar ry
Ġfe ed
Ġd ro
y m
Ġnet work
Ġpop ulation
Ġsh oes
ĠG et
E S
Ġwa it
Ġr ates
Ġfe et
b and
ens ion
Ġte nd
Ġdri ve
Ġmost ly
ĠPe ople
om ing
Ġincre asing
Ġre du
t r
Ġacc om
ent y
Ġvict im
Ġre asons
Ġun f
Ġcred it
ĠCaliforn ia
ĠAf ric
ĠR ed
ĠBl ack
r ast
Ġhelp s
Ġbl ood
Ġmajor ity
ĠS w
ĠEurope an
Ġs ens
ak er
ĠS atur
se qu
ĠH er
Ġapp reci
ll s
Ġwr itten
Ġpos itive
Ġlangu age
Ġem ot
ic ed
I C
Ġup on
an i
is ions
Ġe ating
Ġdeb t
ĠIs lam
Ġde pe
Ġmess age
Ġt en
Ġm ax
Ġnatur al
ĠS ince
Ġadd ition
Ġsc ience
Ġpre vent
Ġb ought
Ġrel ative
Ġre ach
enc ed
ĠC ons
Ġevent ually
ĠDe cember
Ġpl atform
u f
Ġrequ ired
Ġen s
for ce
ĠMay be
es tern
Ġstud ent
it ch
Ġu nd
Ġ x
? âĢĿ
anc ed
Ġof fe
id ge
Ġsee ing
Ġact ual
Ġ }
im in
Ġadminist ration
le br
ic ks
ĠCour t
Ġsex ual
Ġgrow ing
ĠP at
ĠE ar
Ġim age
Ġd aily
Ġa head
Ġj ournal
Ġconne ct
Ġfeat ures
Ġtr ain
ĠBrit ish
Ġd iet
Ġstra ight
v il
2 2
ren ces
Ġst ories
Ġfu nds
Ġ ign
Ġstand ard
Ġdes pite
e k
op h
ĠSatur day
air s
1 00
Ġpay ing
Ġgiv es
i am
The y
Ġm ob
8 0
b an
Ġle ar
Ġdirect ly
ĠI S
at ter
us ing
Ġpartic ularly
Ġh undred
Ġimmedi ately
Ġmo ved
Ġp en
Ġam azing
Ġhapp ens
Ġme ant
Ġm ix
Ġpart s
Ġfor ces
9 9
all ed
up s
Ġ >
Ġnot e
ĠW al
Ġfeel s
ĠK ore
Ġal though
Ġb ed
Ġ: )
ous ly
Ġsc reen
Ġreal ity
Ġleg isl
ĠN et
Ġphys ical
Ġdem on
ĠRuss ian
Ġa ware
Ġcomp ared
Ġsoc iety
ident s
ub e
Ġsystem s
ĠO ur
Ġcir c
Ġend ed
Ġs at
or ters
Ġsur v
le ar
Ġdocu ment
) ;
Ġr ound
Ġwill ing
Ġpl aces
Â Ń
Ġbenef its
Ġg as
Ġw all
Ġstren gth
Ġsa f
iv ing
Ġeduc ation
ar i
Ġpr ices
Ġmean ing
ĠS im
Ġsoft ware
Ġcon cept
Ġover all
Ġli ber
u x
Ġse nd
Ġ2 7
Ġp an
Ġt ouch
Ġpie ce
Ġreg ul
ĠT ex
Ġcons erv
Ġadd itional
l in
Ġ200 8
or ry
ĠInd ia
Ġp us
ĠP ark
Ġper haps
Ġreg ular
ĠM on
Ġ2 6
Ġbe yond
Ġaut om
Ġcrit ic
av es
ĠB ecause
iv ity
i pe
Ġc itiz
ĠA re
ad d
ond on
f ield
Ġlead er
ig r
ĠU p
ĠK ing
Ġthrough out
Ġus er
ĠSt reet
Ġmod ern
m p
2 4
ĠRe ad
Ġhist or
O P
Ġlat est
Ġincre ased
A C
ĠD is
ĠMan y
co in
Ġin n
ellig ence
Ġrel ated
Ġm ist
ant ly
Ġknow s
ath on
Ġ \
Ġcall s
ĠB en
v est
Ġp le
ic o
Ġm ile
Ġbegin ning
Ġqu arter
Ġass ist
ab or
ow ing
] [
Ġtit le
Ġp ace
Ġret ire
ow d
Ġal le
it ation
Ġ ut
Ġsl ight
et h
ĠApp le
Ġpress ure
ĠG ener
Ġchoo se
Ġst ar
ĠR ec
Ġeffect s
Ġmov ie
e xt
ve y
ru ary
Ġlear ning
ines e
Ġ2 8
Ġsm art
ĠSen ate
ĠAd d
Ġre b
Ġd anger
Ġabsolute ly
ir th
5 00
Ġcult ure
Ġce lebr
Ġbuy ing
Ġbas ically
Ġclaim s
ĠJ e
Ġknow ledge
ĠJ ew
k es
in y
Ġsp read
Ġrem ain
ĠS er
ĠY es
Ġst ress
Ġshow ed
Ġenc our
Ġke pt
osp ital
Ġnecess ary
Ġweeke nd
Ġlead ing
Ġopin ion
ven ue
Ġbl og
Ġfull y
Ġgener ally
Ġcent er
if ul
Ġprov ided
ĠR om
ĠI ran
Ġcon duct
Ġcomple x
Ġwor se
ĠT imes
ĠL ast
ren ch
ĠM or
z z
Ġdam age
Ġb and
Ġm ill
op s
Ġass um
ĠL ondon
Ġd ark
ĠCent er
ĠPart y
ĠCount y
ĠO ver
g ers
Ġcor por
Ġadv ant
Ġfavor ite
Ġput ting
Ġlim ited
ac hes
Ġrequ est
f l
ĠS and
Ġ ver
le ction
Ġhigh ly
Ġocc ur
? "
N o
Ġdescrib ed
Ġint e
ĠS oc
Ġinvestig ation
Ġse ven
am b
ĠTh ank
Ġst yle
Ġsub st
al y
Ġs il
Ġal tern
ĠFeb ruary
Ġwond er
Ġs pl
p ir
A S
ra q
ĠMc C
Ġ200 9
Ġsuccess ful
ĠB ro
Ġsp ot
Ġref er
Ġcustom ers
ĠDon ald
Ġj ump
Ġbr other
Ġv s
ist an
ru pt
Ġv ac
O U
Ġimp lement
ĠâĢ ¦
Ġdo or
g ar
Ġem b
Ġlearn ed
Ġp lease
Ġinclud es
Ġhealth y
m it
2 3
Ġa im
Ġe ight
ĠPol ice
Ġat tend
ĠMus lim
Ġcl imate
Ġsaf ety
al ing
Ġpass ed
Ġviol ence
ĠMich ael
Ġexp ensive
ĠE ast
Ġf ile
k en
Ġey es
Ġcol or
he st
Ġd ied
Ġman ager
Ġc ry
in ary
Ġse lect
ag on
r ound
Ġgr and
Ġbr and
Ġep is
Ġr ule
ĠPl ay
ĠCh inese
Ġwe ar
Ġcoun ter
Ġneg ative
h ib
Ġwor ry
id a
Ġo k
Ġsp okes
ak ers
Ġn ature
Ġattack s
Ġr id
ĠB u
Ġdet ail
i ers
Ġthan ks
ĠI raq
P h
it or
Ġdist rib
Ġco ach
Ġlaw s
Ġsupp osed
ch an
S o
ĠJ ames
ag o
Ġun less
Ġaff ord
Ġqu al
Ġdesign ed
ol es
Ġcop y
O S
augh ter
ĠOn ce
Ġcomput er
Ġment al
Ġbas ic
Ġchar ge
Ġt ro
Ġdef ense
ĠPh il
Ġn amed
Ġc amer
Ġha ir
il es
Ġpre fer
Ġcontin ued
Ġstud ies
Ġallow s
ĠWe ll
ic ations
m en
Ġro b
Ġad ult
Ġh us
Ġto ward
Ġreg ion
Ġs wit
ĠB ill
Ġthous ands
Ġproject s
ĠJ ack
Ġbenef it
Ġc at
res h
Ġfre qu
Ġw ish
ĠTex as
ĠSu per
ad em
Ġcond itions
Ġatt ract
Ġst age
ow ers
Ġeff orts
ou l
uf act
il ies
uc lear
Ġgo ld
b ed
Ġanal ysis
Ġsh it
vertise ment
ag n
Ġtax es
Ġfind ing
Ġpr ison
Ġr are
ortun ately
Ġrem ains
ĠD ay
Ġlar ger
ock ed
ĠEng lish
pp ing
Ġpre c
Ġrece ive
ĠO ff
ab y
Ġadd ing
Ġextreme ly
Ġcle arly
Ġoffic ers
ĠC oun
Ġf irm
Ġd ream
ar ian
ĠU s
4 5
ĠV al
as c
Ġstrate gy
om en
Ġl ic
Ġh ate
r s
Ġey e
Ġ Ð
Ġins urance
Ġtrad itional
ĠRepublic ans
Ġ Ã
Ġ9 0
Ġsc ene
ĠR E
I D
ri age
ĠAl though
Ġsc ore
ĠT ur
ate g
O M
Ġpict ure
Ġag ency
ĠR o
ri e
Ġpr int
Ġfail ed
ver se
Ġheav y
I L
Ġlet ter
Ġmention ed
Ġro ck
ter m
Ġar ch
enc ies
Ġ8 0
Ġpro duc
rop ri
ĠR ich
u k
pp er
Ġst ret
ĠG reen
Ġanal y
ic king
Ġla unch
Ġun ique
ĠInd ian
o ved
az on
Ġvar i
is is
cri pt
Ġpost ed
ain t
Ġpre m
ar a
ens es
Ġspe ech
ri end
ĠO h
Ġorig in
ĠB el
h ow
or row
Ġsus pect
ĠA ir
Ġmar ried
ri ef
Ġtr ou
Ġbe at
Ġfoot ball
it ute
l a
Ġprogram s
Ġus es
Ġfor ced
Ġcr owd
Ġnot ice
Ġman agement
Ġch ief
Ġc ast
Ġmot iv
ro y
Ġresour ces
Ġfollow ed
ĠDemocr atic
Ġn arr
F L
Ġk id
es ome
Ġt our
Ġseem ed
Ġ ir
ic it
Ġlot s
Ġmeas ure
wh ich
r am
wh ile
an ch
ĠLe ague
bo ard
Ġsc en
Ġest im
Ġl ines
Ġf an
Ġes c
Ġsell ing
Ġpred ict
Ġlo ad
st on
or ter
Ġc ars
Ġl ol
Ġsk ills
Ġexerc ise
Ġcharac ters
Ġc ards
Ġprom ot
Ġappe ars
Ġb attle
ĠH igh
Ġsol id
Ġinc red
Ġtr uth
Ġschool s
Ġchallen ge
Ġwe b
Ġrese arc
Ġlim it
Ġsu ff
Ġtw e
Ġactiv ity
Ġprofess ional
anc y
ĠSt ar
IN G
ĠAn other
Ġorgan ization
Ġpart ner
im inal
Ġc ities
Ġvot ers
Ġphot os
Ġold er
ĠI I
ch ange
Ġdoll ars
Ġn ut
Ġsh own
Ġrelig ious
os es
Ġown ers
Ġfam ilies
ĠR ober
m ar
f ord
Ġunderstand ing
Ġtreat ment
Ġbehav ior
en gth
3 5
Ġconf l
Ġdeb ate
Ġ2 9
ĠM art
port s
Ġst ick
am ing
and om
Ġtell ing
Ġar m
Ġle aving
Ġd ire
Ġb ur
Ġphot ograp
Ġg ain
Ġche c
Ġhus band
w ood
Ġf aster
Ġdis e
al es
Ġdec ades
ic ate
out s
Ġthan k
ĠAn ge
Ġdev ice
cri be
Ġfe ature
ĠS ci
Ġman ufact
Ġapp arent
Ġ( @
Ġdevelop ed
Ġpower ful
ot i
Ġdis p
Ġsign ed
Ġit ems
Ġdeg ree
Ġm ort
Ġp air
Ġsmall er
g a
ĠC ap
Ġact ions
om s
z a
ĠF rench
Ġsa v
ĠÂ £
Ġemploy ees
2 1
Ġmin or
wh at
Ġoffic er
ĠT or
Ġprim ary
I s
A nd
Ġachie ve
cept ion
A M
Ġfre ed
ĠDemocr ats
ĠRe g
Ġexpl ain
Ġexp and
E O
ĠAss oci
Ġtra ffic
Ġpe ace
oo king
n o
Ġb irth
ĠMin ister
iv en
ĠT od
H ow
ber g
Ġn om
Ġlar gest
in ner
Ġil leg
Ġsol ution
Ġbeaut iful
amp ions
ĠS erv
Ġrepl ace
ac ing
ĠB o
b ox
2 7
s p
ve re
Ġkeep ing
ĠW ind
Ġc ore
it ude
Ġt on
or ney
Ġmass ive
Ġindividual s
ĠT om
ify ing
Ġwatch ing
ĠD ef
Ġcomm and
) :
A P
Ġsh ut
Ġco ld
Ġpro s
ne w
Ġcall ing
on na
Ġt im
Ġn ames
Ġsour ces
Ġcreat ing
as y
Ġdec ide
Ġche ap
Ġgreat er
pect ive
Ġsu c
ĠâĢ ¢
Ġg reen
B ut
raz y
ĠA M
ĠR ob
ag s
ol ic
Ġr ap
Ġd ed
Ġcent ury
Ġca used
C h
Ġh ang
Ġac qu
Ġsen ior
O L
Ġf ant
ĠM ex
ĠAustral ia
ĠM et
Ġliter ally
ĠD uring
Ġtr uly
Ġintern et
o very
Ġbott om
Ġref lect
E T
Ġeff ic
Ġconfl ict
Ġm ine
ĠP lease
Ġthough ts
Ġdis play
Ġmar athon
g ency
Ġfem ale
Ġcandid ate
A D
ri ble
Ġb ond
Ġn uclear
Ġeffect ive
Ġtot ally
Ġuse ful
Ġalle ged
F or
Ġcr isis
ust r
Ġconf ir
Ġr at
Ġdist ance
Ġhold ing
Ġpl ant
Ġbal ance
Ġtyp es
Ġdou ble
p art
Ġre ached
Ġwor st
y an
m ark
Ġcent ral
Ġh urt
Ġadvant age
U S
Ġact ive
cri ption
Ġprevious ly
Ġcitiz ens
b ut
Ġaccount s
Ġle ague
t ies
ĠG reat
i ance
Ġdemon str
Ġdefe nd
it ness
b ur
ra v
W hen
Ġpurp ose
Ġpo ll
I A
ĠGo vern
c raft
Ġoffe red
ĠA nt
Ġsp ir
2 6
Ġcon ference
ĠE U
Ġbusiness es
Ġconcern s
Ġcom mer
Ġr ise
ĠFl or
k i
er ved
Ġw at
Ġpolit ics
ĠB er
u el
e v
ĠTh ose
Ġm ount
Ġp un
Ġfl oor
Ġexec utive
ĠM o
Ġme chan
ĠB re
Ġprof it
Ġocc as
Ġwe alth
c ing
ĠA P
Ġcr ime
n own
t t
Ġinj ury
Ġbec omes
ig ration
Ġcomfort able
l s
Ġbas is
Ġbig ger
Ġshow ing
Ġrem ind
ĠGerman y
ing er
ĠL a
d o
Ġf a
ĠIntern ational
E C
Ġun c
ĠS chool
ĠTh om
Ġredu ce
ĠSm ith
ĠG old
ce ll
ĠSyri a
B I
Ġdoub t
Ġcontin ues
b on
b um
Ġcomm it
Ġv en
Ġ19 6
m m
ap h
Ġst reet
se e
Ġinte gr
ĠM ac
2 9
ĠJ er
vil le
7 0
Ġw ild
at ically
Ġad just
Ġimag ine
Ġ7 0
D on
Ġstat us
Ġr ough
Ġv oice
Ġcond ition
Ġv irt
Ġwa iting
Ġim pl
Ġon to
Ġte ac
d om
ĠTw o
Ġval ues
ĠFr anc
Ġpat tern
Ġtr ail
Y es
ĠInst ead
Ġh ospital
Ġ3 5
Ġpresident ial
i os
ĠTr ans
Y eah
Ġint elligence
Ġcl ot
ĠAr t
ĠGeor ge
ĠA ut
Ġsepar ate
Ġlaw y
g en
ut y
ar ant
ĠEar th
Ġse ction
Ġmar riage
we ll
Ġother wise
ĠAd vertisement
ĠP M
Ġ ;
ĠChrist ian
Ġb ul
Ġloc ation
Ġslight ly
Ġbl ue
ĠH am
ĠGener al
Ġnot ed
Ġst ation
Ġstop ped
ur ies
ro id
ĠCh ic
Ġs un
ĠSt ud
Ġappe ared
ĠBr own
Ġjud ge
on ents
Ġdr ink
Ġfight ing
Ġrest rict
Ġt ough
u ct
Ġneigh bor
Ġra ised
ĠSe e
ak ed
Ġphot o
Ġfin ish
ot a
et ic
oo ks
ĠS omet
ro ll
Ġst ream
Ġmiss ing
Ġst ocks
ĠIntern et
al se
Ġm ale
il ed
Ġt ick
Ġhous ing
Ġorgan iz
Ġfund ing
Ġd ie
Ġl osing
ĠL aw
Ġweap ons
âĢĿ ,
Ġpl us
Ġas pect
Ġbu ll
m ine
ĠO p
R e
Ġconvers ation
Ġh ar
Ġtri p
2 8
ob by
E L
ad o
y l
Ġens ure
Ġinit ial
ist ry
Ġmin ute
on ent
Ġsc ale
i qu
Ġpl enty
ĠAm azon
Ġe th
Ġreal ize
ĠA lex
Ġdeter min
Ġent er
r ont
ĠAr ab
ic a
Ġres ist
ĠB it
Ġentire ly
Ġoff ers
ĠIn c
ĠF ollow
ĠM od
ĠSc ott
e ed
Ġper m
ĠUn ion
Ġ ice
ĠB ig
Ġthe ory
Ġbec oming
Ġcont ext
Ġdig ital
Ġrest aur
v in
se y
Ġwal king
Ġdri ving
Ġshoot ing
Ġjo in
ĠFlor ida
Ġre form
Ġperson ally
9 0
Ġset ting
ĠChic ago
oss ible
Ġinc ident
Ġf resh
Ġdire ction
Ġestab l
ar io
Ġla un
w ide
Ġra ise
Ġc razy
Ġneg oti
Ġapplic ation
Ġg ym
Ġmem ory
Ġp ark
Ġpart ies
Ġinvest ing
ĠO P
b ing
Ġsm o
ĠCoun cil
Ġpat ients
at o
he m
Ġpart ners
Ġb are
Ġd raft
Ġdec isions
Ġopen ing
Ġprodu ce
Ġad op
ĠEng land
ĠP ort
os h
Ġagree ment
on a
ĠB ay
ear ch
ad ing
ĠHe alth
Ġ200 7
Ġfin ished
Ġar g
Ġpolic ies
ign ed
Ġmach ine
Ġprov ides
p oint
Ġnot es
Ġshould n
in ated
Ġfoc used
ĠSt ep
al k
ĠB oth
Ġacc ur
Ġstep s
Ġwe l
Ġset s
Ġ4 5
Ġcomp ar
Ġargu ment
Ġfr ame
Ġtrans fer
ord s
ĠC ur
Ġh arm
Ġchar ges
ili ar
Ġcr iminal
Ġb rief
Ġen em
ĠS un
Ġb reat
Ġclaim ed
Ġhig hest
Ġwind ow
um an
Ġaw esome
Ġrespons ible
ud d
v ant
Ġcompet ition
Ġtool s
us ive
3 3
Ġal bum
so ft
Ġtem per
o ly
Ġtri al
Ġbe g
Ġun like
Ġc ere
Ġthe rap
Ġstart s
Ġrequ ires
ro l
B A
v ention
Ġr andom
Ġresearc hers
Ġc atch
Ġconcern ed
ĠTH E
N ot
c ious
Ġgirl s
ipp ing
Ġinst all
Ġcrit ical
p m
Ġsk in
Ġsh ip
âĢ ľ
lev ision
Ġconsider ing
ĠS ub
Ġwe ird
Ġinde pendent
Ġinflu ence
Ġag reed
Ġfreed om
ter day
Ġhas n
Th anks
Ġmarket ing
y a
ĠM icro
Ġche m
Ġrelative ly
Ġprop os
k now
Ġspecific ally
end ed
h icle
Ġm er
ĠS am
li ed
o ices
Ġopen ed
t a
Ġc ateg
ic ip
ĠR el
Ġactiv ities
s s
ĠM il
Ġth us
Ġrecord s
re m
Ġsit es
Ġt ast
Ġassoci ated
Ġretire ment
Ġf ol
Ġs itting
Ġg ar
ack s
iz es
Ġtw ice
ĠFr ance
u ana
P S
Ġclos er
Ġexist ing
c her
Ġl ength
Ġobvious ly
Ġapp ly
Ġt ight
Ġdec ade
Ġsh ared
com ing
Ġhelp ing
u gg
ĠU nder
ĠHill ary
Ġg onna
Ġexc ited
Ġk ick
Ġrout ine
Ġfor get
Ġim ages
p et
ĠThe ir
Ġst re
Ġposs ibly
ĠR em
Ġsuggest ed
à ¤
Ġbelie f
Ġwh om
Ð ¾
Ġmarket s
Ġwe ak
Ġaud ience
Ġre act
Ġann ual
ist ics
st e
ĠA N
Ġhundred s
Ġmill ions
ffe e
or ial
Ġdev ices
ri an
Ġhand le
Ġsp orts
Ġ5 00
u ate
Ġman aged
Ġst ructure
Ġdem ocr
ĠD el
7 5
Ġany way
Ġt ask
Ġan x
Ġadv oc
Ġhappen ing
Ġbelie ved
ĠL ou
r un
Ġauthor ities
Ġswit ch
ant ed
ĠO ut
. '
Ġmob ile
Ġelect ric
ĠW all
Ġr ich
c oh
Ġb orn
is f
ĠT er
Ġs ale
Ġoper ations
ĠM ike
Ġno vel
Ġchang ing
Ġsecond s
Ġn or
Ġwe aring
ipp ed
h ouse
. âĢĻ
? ?
z en
Ġb order
ij uana
Ġexpl ained
Ġminim um
in n
Ġser ve
ac ity
Ġany more
Ġinst ance
Ġthr ow
Ġback ground
Ġd er
Ġd aughter
ĠD ec
Ġ ^
re es
uc ks
od es
Ġen force
Ġdiscuss ion
Ġvide os
ri al
Ġmin ister
Ġdest roy
ul f
Ġb urn
ĠC le
Ġcommer cial
Ġreve aled
Ġ3 1
Ġpurch ase
Ġexper iment
ĠF ound
os ure
Ġstrate g
Ġlo ved
Ġsc r
Ġdist rict
a it
Ġp et
Ġch air
Ġown er
Ġhe aring
ill ed
ak s
Ġlist en
P A
Ġplan ned
ĠTe ch
Ġw arn
Ġmiss ion
Ġpro duced
Ġex tend
ĠM al
Ġhard er
Ġstret ch
oo per
s pe
ĠT y
Ġsu it
Ġass ault
ĠSec ret
ĠF I
Ġconfir med
Ġhe ro
Ġsur round
ĠP ress
oc king
Ġconserv ative
Ġco ffee
Ġm ap
ĠWh o
ĠS T
il ing
ent ed
ropri ate
Ġc aught
k nown
est ic
g n
Ġv ill
Ġn one
O h
Ġpro sec
ct ors
Ġdec ent
Ġcl osed
Ġdep artment
Ġtrans port
Ġcont ain
Ġfu el
ĠAt t
n ight
Ġ id
Ġres idents
id el
Ġcontin u
Ġpict ures
Ġopt im
Ġdanger ous
ĠB ush
a e
Ġhelp ful
ĠA c
Ġtell s
Ġch urch
Ġdrug s
m as
Ġilleg al
ic ians
Ġepis ode
m iss
ĠW estern
ĠJohn son
ĠTod ay
Ġimp ossible
Ġdo ctor
Ġsh ape
an y
dd en
Ġlab or
# #
Ġex cl
Ġarrest ed
ĠFranc is
Ġve hicle
um n
te red
Ġpers pective
Ġb aby
Ġh omes
Ġs ust
Ġview s
Ġ ~
Ġins p
ĠSec urity
Ġsav ings
ĠL iber
Ġli ved
ic les
Ġcamer a
Ġinterest s
Ġind ex
ĠS l
ĠL ab
re y
Ġtest ing
Ġcal ories
Ġfail ure
Ġprote in
ot ed
Ġch ann
Ġro ll
and er
Ġrem oved
ĠM ag
Ġsupp ly
Ġdise ase
Ġm ur
ĠKore a
ĠD ist
Ġprop osed
ĠG ame
ĠIm age
Ġserious ly
Ġun it
Ġannoun ce
Ġth read
Ġob tain
our ce
Ġb anks
ĠCanad ian
Ġam b
Ġap art
Ġst ated
ad y
Ġb unch
Ġgu arant
ĠD irect
Ġsched ule
in ter
c ont
Ġsu dden
ĠComm un
Ġupd ate
in ct
Ġadv ance
li ament
f ol
ĠComm ission
Ġhe ll
Ġli br
i us
ĠPal est
Ġcal cul
Ġest ate
Ġf alse
Ġfa ith
ĠJust ice
Ġreturn s
l ig
pl ace
Ġopp osition
B S
Ġre fe
____ ____
ĠComm ittee
Ġser ved
Ġhop ing
Ġf lex
Ġat h
ĠOff ice
ĠP ri
Ġpost s
Ġfl at
re al
Ġtyp ically
ĠWind ows
out hern
Ġman age
Ġwin ning
ĠH all
Ġz ero
ĠIt s
go ing
Ġreturn ed
ir gin
C C
land s
Ġspe aking
ĠP et
ip ment
ĠPro f
ĠN FL
Ġcommun ities
ĠChr is
Ġass ess
Ġag gress
Ġdocu ments
Ġcon sequ
ear s
ĠD et
ĠH ave
Ġph il
Ġco verage
Ġfar m
ed y
ĠT ime
ĠM ad
Ġben ch
Ġanim als
Ġc as
Ġconst ruction
Ġsome where
Ġdisc overed
D A
ĠU k
ĠSt r
r d
igh ter
Ġcons ult
S h
Ġhe at
ĠSand ers
Ġsur face
ĠOn ly
Ġs ad
Ġfam iliar
id ers
Ġex change
wor ks
ĠðŁ ĺ
3 2
Ġwar m
Ġlo an
ort hern
Ġcontro vers
Ġmus cle
Ġappreci ate
w r
res p
S P
ĠW il
ack ing
ant ic
Ġmod els
ĠP C
Ġs orry
Ġpl ays
Ġte levision
b re
== ==
Ġspec ies
Ġdro pped
e qu
Ġdri ver
ol f
Ġfair ly
Ġa f
Ġcan cer
Ġleaders hip
Ġre venue
3 6
ĠM at
ul ate
Ġ2 000
Ġallow ing
Ġprov iding
Ġneighbor hood
Ġcirc um
4 4
Ġan g
m od
Th ank
Ġb omb
Ġo dd
Ġprot est
Ġgener ation
! "
Ġknow ing
hip s
Ġturn s
Ġrepe ated
Ġinvest ors
Ġb le
ĠP ut
Ġsh ares
ĠT re
ĠMicro soft
ĠPh oto
Ġ201 8
Ġco al
Ġwere n
Ġthere fore
Ġdeli ver
ĠDes pite
ĠY et
Ġn orth
it z
w ith
ren cy
v is
k a
Ġlarge ly
ĠU N
our ney
A A
i en
coh ol
ĠS il
ul a
ĠRober t
ill ing
ĠDo es
Ġ200 6
Ġfl ow
Ġstrugg le
T C
F C
ĠB ack
ict ed
G B
ad a
ĠIn ter
Ġscient ists
av or
Ġbe er
Ġto m
ant a
and on
Ġaltern ative
g l
Ġar ms
ĠF ox
ĠV er
Ġsp oke
Ġn ine
Ġh om
Ġacc used
Ġchar ged
ĠT im
Ġsh aring
Ġab use
Ġdown load
ĠSt ill
app ed
ĠF ore
ri pt
as ks
Ġlegisl ation
ĠS ur
Ġg ay
N A
g age
Ġapp s
Ġlaun ched
Ġwe ather
ĠJ ones
Ġmax im
oc ol
we ight
Ġinit i
ion ally
r ough
Ġm ut
ĠC EO
ĠQ ue
Ġexp ress
Ġvictim s
ĠW here
Ġvar iety
ĠJ im
an o
ph one
Ġval id
gh an
ĠFr ank
Ġmult i
Ġfact ors
Ġstand ing
ĠM iss
Ġse m
Ġexperi ences
Ġtrans l
ĠB est
A l
Ġmar ijuana
Ġcolle ction
Ġyes terday
Ġestabl ished
Ġapp oint
Ġfor g
ĠG ree
3 8
Ġs ides
Ġequ ipment
Ġc overed
ĠC up
ĠL os
y ou
O n
ĠIslam ic
Ġdepe nds
Ġfact or
ĠR un
ĠB ank
ic y
r is
Ġcl im
ic ing
Ġun s
th at
Ġtrou ble
oy al
Ġconne ction
yn am
Ġbro ke
Ġret ail
Ġvict ory
ĠCar ol
our s
Ġte en
Ġac know
Ġexperi enced
! âĢĿ
Ġinter act
Ġsignificant ly
Ġr ing
ĠE v
Ġregard ing
Ġrad io
5 5
ĠAt l
os ite
Ġwor ried
ĠS al
Ġemer gency
Ġass ume
Ġfig ures
ĠJ ud
ill er
Ġexper t
Ġnecess arily
ĠKe ep
Ġdis app
Ġpres ence
ost on
ĠB ur
Ġrout e
ĠJe ff
Ġun iversity
Ġear th
Ġslow ly
Ġpot entially
Ġocc up
Ġiss ued
ad s
c are
Ġre ject
ĠE T
i h
Ġd inner
c les
ĠInst itute
Ġ3 2
J ust
Ġsupport ed
ĠJapan ese
ĠM er
Ġtr ig
Ġjo ined
ĠBrit ain
Ġcl in
Ġpl aced
ĠD id
ĠI N
Ġopportun ities
Ġreal ized
ron ic
l ies
ĠB et
Ġc ook
Ġs an
D o
Ġult imately
ĠCh urch
4 8
r ig
u ations
ĠJ o
Ġcomm ittee
r ad
form ation
W ell
ul ations
se mb
Ġpr inc
Ġsched ul
ul ated
Ġcorpor ate
n el
ĠN or
Ġs outh
Ð µ
Ġtal ked
Ġcandid ates
Ġhum ans
Ġst ruct
3 7
ed s
Ġs ister
ĠF BI
Ġapparent ly
Ġstri ke
Ġadv is
Ġsee k
ĠIsrael i
Ġwas te
ĠUk rain
Ġse qu
i ot
ĠTh ough
Ġany where
ĠP R
anc ing
Ġsupp orters
Ġtal ks
Ġw itness
Ġb atter
Ġpick ed
Ġestab lish
Ġscient ific
Ġsp ort
Ġgl ass
Ġspir it
ĠSec ond
Ġfund ament
or age
le ge
Ġgot ten
ony m
k in
Ġspl it
Ġvol ume
Ġbelie ves
Ġcomm ission
S U
Ġbro ken
Ġmur der
Ð °
Ġg ains
Ġmat ters
h and
ci ent
Ġcustom er
Ġcor ner
k ins
T ube
ĠW he
Ġm icro
ĠJ oe
Ġs ch
ĠL ib
Ġind ic
ar p
Ġac adem
Ġge nder
Ġkill ing
Ġnot iced
ã Ĥ
Ġwith d
Ġe nds
Ġaccom pl
av a
pro f
ĠGr oup
rel ated
Ġun its
ĠR ock
Ġgu ests
Ġdiv ide
Ġsur vey
Ġw ood
om an
Ġconf ident
Ġsu gar
ing ly
Ġreg ist
ĠUS A
C H
m ony
Ġcell s
Ġident ity
Ġcomm itted
od ies
ic on
Ġprote ction
ci pl
Ġfe es
ad ed
Ġfr u
Ġphil os
ol a
ĠA D
ĠCon st
ĠR yan
Ġprep ared
3 4
Ġp ages
f oot
Ġsurpr ised
a ven
s es
O W
Ġconf idence
ĠRich ard
E M
Ġass ets
ĠAfric a
ĠP ak
Ġh un
ĠBe fore
ars h
ĠM P
i est
hen s
ĠD en
Ġrem ove
ĠS up
su it
Ġok ay
Ġf le
Ġintro duced
ress ive
Ġpercent age
Ġpos itions
Ġoff ering
Ġdevelop ing
Ġmeas ures
am m
ĠB oston
ĠAnd roid
ann ed
Ġd at
ore s
Ġswe et
Ġspe ct
% .
Ġstand ards
ĠJew ish
ĠMex ico
ĠBit coin
Ġb ound
Ġjust ice
Ġpie ces
h i
uc king
Ġposs ibility
Ġv ast
Ġsuggest s
Ġanim al
Ġtest s
Ġar r
Ġlead s
and a
Ġsat isf
l ist
p o
Ġarri ved
Ġcap acity
Ġleg s
ĠF ire
Ġj ourney
av y
u nder
ce l
Ġfeed back
Ġb ike
Ġfil es
oll y
e al
ĠAfric an
ĠLou is
ĠI r
ĠS ol
Ġele ments
Ġrespons ibility
w ing
Ġbring ing
ess ions
ĠK h
Ġsh oe
Ġpay ment
Ġd ad
is ation
ĠV irgin
Ġb ac
igr ants
ĠRes earch
Ġm aster
N N
ĠTe am
Ġ3 6
Ġdepe nding
T r
ĠAssoci ation
Ġeven ing
Ġfell ow
Ġh ol
I M
Ġfour th
Ġneigh b
th is
Ġdeter mine
Ġplan et
Ġfol ks
Ġh ur
Ġfeel ings
Ġme re
up id
ĠAnge les
Ġt ack
ĠMe an
Ġconsist ent
Ġb oss
be ll
ĠYou Tube
ĠT ake
ĠH ome
Ġv ision
Ġ200 5
Ġs ick
ĠAf ghan
ic ide
Ġpr oud
Ġoper ation
Ġdet ect
ĠG OP
il s
Ġqu e
3 9
Ġun ivers
Ġintern al
ont o
] .
Ġnews p
rast ructure
ill y
ri p
Ġref uge
ĠGovern ment
Ġsurpr ise
az ine
ĠMart in
Ġident ified
ow nt
Ġconc lud
Ġgr ab
Ġcl ient
Ġenforce ment
ĠM ary
are n
Ġg rew
Ġsee king
Ġoff ensive
Ġess entially
Ġconc l
Ġsh ift
Ġgu ard
Ġpro ve
ĠThom as
if ts
Ġequ al
ĠWe b
Ġme at
O O
ig an
p erson
l or
Ġhonest ly
Ġr ide
ap ers
Ġinc or
itution al
ĠSt art
Ġal cohol
Ġinf o
du ction
Ġmiss ed
ĠSoc ial
st ream
r ary
ĠPalest in
anc he
Ġport fol
ĠJ ose
Ġspokes man
Ġclass es
4 7
e per
se ason
Ġven ue
ill a
Ġoper ating
y r
f ortunately
ow l
Ġb ag
oc al
hic les
ĠP eter
G et
Ġcl ients
Ġve ter
ag ues
Ġrelationship s
Ġrec ru
Ġli qu
L E
ĠV e
Ġz one
Ġhy p
ĠWh ich
Ġsc ript
Ġtrad ing
ut ing
Ġcut s
e ction
Ġse ctor
p ret
Ġmethod s
Ġre ference
as hed
Ġth inks
ĠAg ain
Ġer ror
ĠAr my
ĠF ree
Ġstore s
4 9
Ġfl ight
âĢĶ âĢĶ
p ay
ap pe
Ġqu ant
Ġinn ov
Ġst uck
Ġord ered
Ġcy cle
w in
ograp hy
er ation
og ue
c r
Ġcre w
ĠB ern
er ous
Ġdef ensive
Ġrec overy
Ġexp enses
Ġdevelop ers
Ġreason able
ĠJ on
pr int
nd a
olog ies
l ines
le ts
Ġtechn ical
Ġpus hing
Ġr ot
Ġorigin ally
ĠM ake
Ġb on
Ġdisapp oint
iver se
Ġv ul
ĠR ight
idd en
U T
Ġleg it
Ġse a
ĠPr ime
Ġsome what
i ation
Ġorganiz ations
ĠW atch
Ġfor ms
Ġtrans ition
Ġcere mony
Ġyoung er
ord in
w hel
Ġcar ried
ĠOp en
n oon
Ġopp osite
m et
ĠCol lege
b u
Ġdom in
ĠN A
Ġsec ure
Ġtwe et
Ġatt orney
Ġpull ed
Ġint ended
Ġwork out
ĠSup reme
ĠE ach
Ġenvironment al
ĠM ont
Ġcl ick
Ġacc ident
ans ion
por ary
A n
Ġprofess or
Ġp ure
Ġsp ring
Ġboo st
st ate
ot y
Ġter rible
f ree
Ġ40 1
ite ct
Ġcon cent
Ġs ession
ĠP ower
Ġal t
Ġin put
ĠJ es
u ke
Ã ¡
re ens
Ġconv ention
Ġa ward
ĠI T
Ġrelig ion
f ast
ĠP ublic
Ġemot ional
Ġconst antly
am in
Ġser ver
Ġw ake
ĠH ope
Ġl ands
Ġr ain
Ġapplic ations
an ia
Ġt urning
Ġar my
ĠN Y
Ġdon t
ur ation
cell ent
Ġp it
Ġrev olution
Ġher self
Ġre li
Ġun ion
i as
Ġter rit
Ġad vert
ph as
ĠR oth
Ġe gg
ploy ment
Ġd ry
Ġchallen ges
m o
ious ly
Ġve hicles
ash ion
Ġre duced
Ġha bit
ad ium
r ick
h ab
r im
Ġdom estic
Ġfil ed
Ġdr am
ĠL ife
Ġag encies
ĠC amp
3 1
Ġapp ropriate
p ic
ã ĥ
Ġdec re
Ġsol ar
ri er
" :
all s
ĠM O
Ġinf rastructure
Ġ3 00
Ġsk ill
Ġexper ts
ĠTor onto
Ġal leg
Ġf ired
Ġinfl ation
I P
Ġj oint
Ġtop ic
Ġauthor ity
it a
Ġour selves
ĠR edd
Ġrap id
ack ed
Ġlist ed
Ġimm igration
g s
duc ing
Ġmar gin
w w
Ġincreasing ly
Ġcomb ined
ain e
ĠA T
Ġmort gage
Ġsign s
Ġf ly
ĠB as
ĠSomet imes
i at
Ġinde ed
Ġinvol ve
Ġstre ets
ĠServ ice
Ġup gr
Ġwin ter
ĠCent ral
Ġent ertain
ens ity
He y
ĠIm ages
un te
k et
Ġrele vant
ly mp
Ġmod e
Ġpack age
Ġwr iter
m akers
ra id
stand ing
Ġdiffe rences
m ail
ĠF ed
Ġcomple ted
Ġproper ly
ĠT op
ĠO k
4 6
Ġhot el
Ġsh all
H L
ĠW ould
gy pt
ĠSecret ary
Ġvot es
Ġcircum st
I ON
Ġl ock
Ġfam ous
pre ne
ĠS ing
d r
Ġs ac
-------- --------
I V
os en
ĠA p
ĠM ur
Ġ ing
ol ved
Ġopp osed
ĠM os
ul ous
00 00
Ġrem aining
Ġafter noon
ar ks
Ġexam ples
Ġca uses
Ġsurpr ising
Ġqu iet
re prene
ut ers
u able
Ġre action
Ġse vere
ĠL ong
Ġportfol io
Ġident ify
Ġst upid
Ġproper ties
ĠA ri
x ual
ĠT ra
Ġtre ated
Ġdef ault
Ġanx iety
Ġloc ated
Ġincre ases
Ġvis ual
n et
ĠN ov
ĠD an
ĠAb out
Ġer a
Ġem ails
Ġaffect ed
Ġa id
g ment
Ġp il
ĠChrist mas
ĠA L
Ġsy mb
A meric
Ġem p
Ġpresent ed
ĠSyri an
ĠM ass
r ant
Ġkeep s
E x
Ġestim ated
Ġpoint ed
Ġde pend
is ters
f riend
Ġg ift
i ams
g as
Ġdes ire
ĠF ederal
he red
ĠS qu
ĠR ub
Ġdr inking
ĠG ar
Ġeffic ient
Ġy eah
ste in
Ġfac ing
Ġp od
Ġtr ick
on om
Ġarg ue
** **
ĠFrancis co
ur b
Ġag ent
p ass
ĠSte ve
Ġem pt
Ġath let
Ġv ir
ĠA C
ad er
ĠFound ation
Ġpass ion
h ost
ĠI RA
ĠEd it
Ġ ?
ĠJ ournal
l ife
ĠM iddle
Ġcap able
Ġk it
ĠL at
ens ions
red d
Ġrough ly
ot es
Ġart icles
ĠMed ic
ĠC ath
ĠM em
Ġf if
ĠPh ot
Ġy ards
Ġlawy er
Ġch art
Ġ/ /
Ġc art
Ġev al
Ġcar bon
Ġfix ed
ĠG al
ĠF orm
Ġinst it
ĠCarol ina
ĠCol or
Ġins ist
Ġst orage
Ġvul ner
Ġinj uries
t op
ag ers
Ġle aves
Ġdoll ar
ne ct
ro c
ĠH ist
Ġchem ical
Ġbel ong
Ġsal ary
Wh y
Ġgreat est
Ġt iny
ĠDist rict
app ing
ĠM el
Ġinj ured
r ist
ĠMed ia
Ġwond ering
Ġover whel
Ġrestaur ant
Ġsold iers
Ġt asks
ber t
tern al
Ġconf irm
Ġm ir
Ġoccur red
c an
Ġre in
ort ion
us iness
Ġbre aking
Ġun able
ust er
c hen
ĠE gypt
ĠLe e
Ġf ish
is hes
Ġsome how
Ġl augh
Ġdetermin ed
Ġpropos al
Ġy ell
Ġwel come
le te
Ġd ynam
Ġl ie
Ġcult ural
Ġi Ph
ĠA v
ĠCh ief
Ġpr ime
ent ure
Ġ200 4
Ġpass ing
Ġfe e
Ġel imin
iss ions
T o
Ġs now
Ġdi agn
Ġli ked
c ol
c ons
Ġpo ol
Ġpro ceed
Ġele ment
Ġst ars
ce an
at ures
Ġinvest ments
Ġent ry
6 5
use um
g ent
Ġfill ed
Ġexpl an
Ġpat ient
Ð ¸
Ġclot hes
Ġu pper
Ġincred ibly
EN T
ĠPar is
= "
Ġlink ed
Ġse at
Ġdeal ing
Ġlab el
Ġsubst ant
ĠM att
ĠH y
Ġdis ag
Ġp u
Ġt ips
Ġcompet itive
ĠNe xt
Ġed ge
ĠO lymp
Ġconst ruct
ll er
Ġpros pect
Ġf uck
Ġco ast
Ġs and
Ġdel ay
Ġrem ote
Ġsupport ing
as ure
Ġt act
Ġappro x
ab ilities
il ty
z er
Ġas ide
Ġcreat ive
Ġfor t
Ġme al
ĠS um
ĠAustral ian
L e
Ġreg ularly
Ġref used
Ġbehav i
Ġinst ruct
9 5
Ġheav ily
ĠCom pan
Ġc ert
Ġl inks
Ġpl ants
ffic ient
ĠW ork
Ġstrong er
ĠChar l
Ġappear ance
in i
Ġperfect ly
Ġgovern ments
Ġcl oud
ĠVirgin ia
ap ter
ĠWill iams
Ġper man
o om
Ġbus y
Ġeffect ively
Ġfl ag
Ġexp ressed
Ġelect ions
ĠD own
in ent
ĠD C
Ġj ail
ock et
ac he
ĠD aily
Ġmov ies
Ġgl ad
Ġcr ash
Ġt un
Ġsur ve
Ġyou th
Ġg iant
Ġcut ting
ĠG en
A ll
Ġlibr ary
Ġb odies
Ġmess ages
Ġy ield
I G
Ġte le
ic ial
Ġaccept ed
Ġcompl ain
ĠIn vest
ĠL ove
ĠPro ject
ot al
Ġmist ake
Ġd ownt
Ġt ou
ick en
ĠH aw
B e
Ġv an
Ġse asons
ĠPer haps
ĠR iver
Ġdisc l
Ġcomb at
ĠO ffic
Ġdis s
is her
Ġimpro ved
ĠMean while
b its
Ġne ither
er ate
D P
ĠPl an
st s
ĠM s
Ġevery body
it ors
er ves
Ġgo d
Ġt ree
l ong
Ġp itch
L A
ĠSh ow
ĠR ad
ĠSu pp
Ġre ward
ĠIs land
st ood
Ġvot ed
Ġfood s
Ġinit ially
s en
Ġs ke
ir ty
ĠS P
Ġaf raid
Ġstand s
o ch
; #
ĠGu ard
Ġg ra
Ġapp lied
Ġr aces
Ġbr ows
Ġun com
Ġint ention
Ġm outh
Ġex cellent
Ġmo ves
u ine
m pt
Ġm al
ĠH ol
Ġsa ving
Ġsp r
Ġtre nd
d en
et te
s he
I m
Ġcoun cil
Ġappe al
Ġadv anced
m ond
Ġhop es
Ñ Ĥ
Ġcont rast
ive red
ĠM a
Ġpro ced
Ġpr in
Ġtom orrow
Ġch oices
ap ed
ĠSp ace
ab in
Ġappro ved
ĠH el
Ġkind s
Ġconnect ed
Ġput s
Ġm and
ly n
ĠCons erv
ar ge
ĠLe g
ĠT ry
Ġto w
Ġide al
Ġregard less
Ġfl o
ag ram
Ġwithd raw
S S
ann a
Ġbr ings
Ġg ather
est yle
Ġexpl os
ĠS aud
Ġconduct ed
Ġconsum ers
0 5
Ġattempt s
Ġli kes
Ġvot ing
ampions hip
or al
Ġr ank
Ġc ou
rent ly
Ġhe ight
Ġtro ops
Ġ7 5
Ġpay ments
Ġpriv acy
Ġdes k
ĠAnd rew
ĠDe velop
Ġhold s
ang ing
Ġadult s
Ġche aper
Ġpre gn
ure au
!! !
Ġn ic
Ġr ub
ang ers
Ġweap on
ĠE s
ĠD ou
Ġrem ained
Ġdis cipl
( )
ĠH uman
Ġdis miss
Ġcomb ination
Ġsust ain
ra wn
Ġsim pl
Ġem phas
ĠG M
Ġgu ide
ĠCom p
Ġsuc ceed
ĠS pr
V ER
ob e
Ġch ose
ĠTech n
Ġap artment
ot ic
ĠN OT
Ġrul ing
Ġit em
Ġa st
Ġno body
ok en
ĠUn fortunately
Ġus ual
Ġmonth ly
Ġrecord ed
ĠP erson
Ġcur rency
Ġtrad ition
] ,
ro g
Ġelect ed
ĠN ote
Ġre new
or g
w ar
ĠJack son
Ġrespond ed
Ġpus hed
Ġsa ved
Ġunlike ly
Ġ= >
Ġst orm
ĠC ru
Ġcol umn
Ġt ourn
ĠRedd it
Ġsu ffe
het ic
Ġmanufact ure
Ġr ail
Ġp ounds
Ġcur ious
Ġtyp ical
Ġlo ans
Ġ3 3
ĠFor ce
ord ers
un ction
, '
Ġdep art
Ġmaterial s
ĠF ar
C an
ĠOh io
il it
Ġ199 0
Ġwide ly
P ro
Ġpolit icians
Ġgu ilty
Ĥ ¬
Ġcl ar
Ġfun ny
olog ist
w ater
m ates
ĠSci ence
Ġpan el
Ġvol unte
ĠT O
ĠS ign
cl ass
Ġreg ime
ĠN ever
ĠPl us
ang ed
Ġve get
ĠI P
ĠP ac
Ġcoll abor
ut s
ĠWill iam
Ġansw ers
ĠGr and
Ġgr aph
Ġca using
0 1
Ġprom pt
Ġbare ly
os is
Ġconsum er
Ġbuild ings
Ġexpl ains
ĠD ani
Ġt ired
Ġinde pend
d a
Ġso le
Ġde als
Ġstate ments
ru ption
te nding
ĠF er
Ġstrugg ling
oc ation
ĠI ll
Ġess ential
Ġdep ression
Ġown ed
Ġr u
O ne
Ġ19 5
Ġch ain
Ġupd ates
Ġfore ver
pl om
k m
u ated
Ġsit uations
igh ters
Ġur ban
ĠSe attle
Ġfrequ ently
Ġargu ed
Ġart ist
Ġp owers
b ar
4 2
el ine
ĠI D
Ġdes cribe
Ġd ial
Ġcircumst ances
ol it
Ġenem y
Ġhouse hold
Ġadd s
ĠChe ck
ĠBl ue
ad ow
Ġ3 8
Ġfil ms
ĠDirect or
Ġimmedi ate
Ġdel ivered
Ġnum erous
Ġhistor ical
Ġval uable
ĠB BC
U n
Ġprom ise
ĠSy stem
3 00
ĠiPh one
Ġfr ustr
Ġgu est
s ing
Ġcont ains
Ġnear by
vious ly
Ġfact s
aw n
Ġpract ices
m osp
Ġbut ton
ro ad
Ġ4 8
Ġperform ed
Ġamount s
ĠTur key
Ġphilos op
M A
ĠRo ad
ab led
Ġconsequ ences
ĠW ood
Ġdri vers
Ġreport ing
c os
Ġcre ation
Ġwant ing
Ġaut h
ĠP enn
Ġliber al
N ew
Ġfav our
b el
Ġgr own
Ġtal ent
Ġaccur ate
resp ond
D D
as ters
Ġhead s
ĠC op
al ty
Ġempt y
Ġexpl o
Ġmet al
Ġadm itted
Ġad s
ĠPak istan
Ġstr ange
i ency
S he
Ġwat ched
ard en
Ġbr ight
Ġinstit utions
at i
Ġgen uine
ĠV ict
Ġemploy ee
Ġhous es
ĠV ol
Ġcommun ication
Ġdistrib ution
ge nd
Ġschedul ed
ĠJ ul
Ġon going
ĠE r
Ġdiscuss ed
Ġexerc ises
Ġpr ay
Ġinter pret
Ġair craft
Ġport ion
Ġent reprene
Ġh at
Ġse nding
Ġmom ents
Ġte aching
Ġ3 7
A t
Ġsuggest ions
ĠLab our
Ġsqu are
Ġmot ion
Ġcons cious
Ġdo ctors
Ġis ol
Ġsudden ly
Ġf aces
H i
am ily
Ġcry pt
Ġsong s
Ġcopy right
Ġ200 3
Ġarch itect
d ate
ĠL in
Ã Ĥ
Ġrequire ments
Ġdis appe
ĠB raz
Ġmy ster
p ress
Ġboy s
ĠR od
Ġden ied
Ġsuffe red
ĠR on
Ġpublic ly
Ġb ills
enc ing
Ġdetail ed
Ġtrans form
Ġres ident
Ġpl ate
Ġfall ing
Ġclass ic
ell y
est ival
Ġchann el
Ġris ks
Ġconst ant
Ġdec line
Ġs am
Ġcan n
Ġwr ites
lud ing
Ġeng aged
T S
Ġst im
Ġfin ance
Ġmor al
Ġpro of
if ting
Ġteac her
Ġmot or
l aw
ĠS her
ĠK im
Ġn av
w ord
6 4
iqu es
Ġtherap y
Ġnorm ally
Ġrid ic
Ġ200 1
C om
g ia
Ġwal ked
! )
ĠRe v
m ission
Ġrepl aced
Ġab andon
Ġact ing
Ġ3 4
Ġf ucking
Ġfind ings
Ġrec over
Ġad apt
Ġresist ance
ĠT al
Ġfollow s
Ġp hen
Ġsp ons
Ġc up
um s
iz z
Ġsy mpt
C on
Ġle an
ĠM ount
ĠT it
Ġcritic ism
ĠH ou
Ġch amp
ograp h
Ġext ent
Ġviol ent
ĠM L
ĠM ax
on est
Ġgun s
Ġtast e
Ġfew er
Ġris ing
Ġup set
le vel
Ġsc he
ner gy
Ġb ath
ĠI re
Ġbe ar
Ġf ashion
Ġatt rib
% ,
ĠI F
Ġcontrib ute
ĠMich igan
Ġexpect ations
Ġmain ly
ĠD iv
ĠF ig
Ġsh arp
Ġord ers
Ġded icated
P D
Ġrecommend ed
Ġthem e
Ġdecl ined
ĠRe al
ol ve
Ġsh ots
Ġrece iving
Ġenjoy ed
Ġex cess
ĠDis ney
Ġf old
ic ian
ll a
b al
u a
v a
ound ed
om in
Ġequ ival
ĠIn s
Ġg ap
Ġm i
Ġmed ic
Ġmag n
Ġdat ab
ĠWe ek
Ġag ents
ĠSc ot
Ġ iron
Ġsuff ering
Ġrep orters
ĠF our
Ġlim its
ĠAn n
ĠY ear
as tern
id al
oo p
Ġdefin ition
ĠSt an
ĠF urther
Ġsy n
Ġread ers
Ġen h
Ġbond s
Ġextend ed
ĠH en
Ġp al
Ġst ead
ger y
ac le
Ġcompar ison
ut ral
Ġse es
ne ll
ĠM en
fe rences
Ġluck y
Ġbroad cast
Ġlif estyle
Ġnewsp aper
i Ã
Ġpl ot
ĠS ky
Ġfl ood
Ġc ooper
ĠR et
Ġc raft
Ġdef ined
Ġfr anch
Ġhigh light
Ġtemper ature
Ġbl ame
Ġearn ed
Ġcr imes
Ġst able
Ġliqu id
Ġt ip
Ġsub sequ
Ġlic ense
Ġb oot
Ġqu it
ĠB ob
Ġb ird
Ġobject s
Ġplan e
Ġscen ario
Ġdep th
r id
w est
ĠI d
, [
Ġexp ansion
Ġun em
O C
n ic
Ġimport ance
Ġincred ible
Ġautom atically
ĠE lect
m itted
Ġdog s
ĠAfghan istan
x y
Ġweek ly
Ġexc iting
Ġshe l
Ġint ent
Ġexist ence
Ġh ung
it able
Ġcapt ion
Ġwar ning
Ġob lig
ĠW r
Ġpar king
Ġph ase
iven ess
ĠFin ally
Ã ĥ
Ġfl u
Ġdecl ared
Ġkn ee
Ġinv ited
ĠSw ed
Ġfr aud
Ġl unch
Ġw id
I I
ĠC NN
Ġ4 00
ĠS k
C l
ĠH as
Ġsome body
res ents
ĠUkrain e
Ġcent re
Ġ198 0
ĠL ake
c alled
Ġfac ed
Ġsol ve
ĠSh ould
ĠK enn
s a
Ġreview s
Ġdi plom
Ġelse where
or a
ĠC D
re nd
b orn
Ġ15 0
ar ters
ĠR am
Ġevery day
ans as
ĠW ay
ah a
es ides
ĠS ar
Ġd a
Ã ¤
Ġcompl icated
Ġp ic
Ġter min
Ġmix ed
Ġedit or
Ġreported ly
ĠSaud i
ut ors
Ġwr it
Ġencour age
' ,
Ġcommit ment
Ġtest ed
Ġimp ressive
4 3
Ġcarry ing
Ġn ative
Ġis land
ĠC O
Ġrecogn ize
Ġvers ions
Ġp ed
ĠIre land
v iet
Ġw ave
Ġw age
om a
Ġexpl ore
Ġparticip ants
Ġbatter y
Ġout put
Ġf ake
ĠAs ia
ĠPre m
g reg
ĠL ook
Ġstr ict
Ġcolle agues
Ġt rib
ĠIt al
Ġoff ense
Ġat mosp
um ber
Ġupd ated
Ġst ood
Ġfor th
Ġent ered
ess or
Ġun cle
ĠBraz il
Ġbeg ins
Ġal ive
ĠC y
Ġpur s
ut or
u ment
Ġt all
Ġar med
Ġclose ly
Ġfun ctions
Ġsk y
l ook
ĠO ld
Ġannounce ment
4 1
Ġm ail
Ġser ving
Ġsent ence
Ġbas ket
Ġhard ware
Ġstr ing
Ġregul ations
d is
ild ing
ĠTh ree
Ġ5 5
u ce
ĠMuslim s
L C
Ġlat ter
ay be
ĠW as
ĠCol umb
Ġcr uc
Ġsch ol
t ion
Ġcontrib utions
ĠU se
ĠP ay
Ġmag azine
P R
az a
Ġevery where
ĠH arr
Ġman ner
Ġmil k
, âĢĻ
ph y
ĠB oy
Ġs ample
Ġdeg rees
Ġrep ut
ĠHou ston
Ġrep resents
Ġ( $
Ġun us
Ġ %
Ġsubs id
ens us
Ġh its
app y
ang es
ide o
Ġb att
Ġrare ly
mon th
ĠC ard
ĠCl ub
Ġrel ax
ĠColor ado
h us
Ġh ack
ĠM ot
ĠO F
ĠSo viet
Ġl it
Ġwarn ed
is ms
Ġcon ven
Ġaspect s
Ġnarr ow
y e
Ġinsp ired
Ġcomp ens
ĠL o
Ġres olution
Ġh am
Ġsymb ol
ĠA I
ĠW omen
6 6
Ġup coming
ĠG ra
Ġmag ic
Ġmaxim um
Ġpl astic
Ã Ń
Ġw ins
Ġpass en
Ġprof ile
Ġterror ist
Ġforg ot
Ġp ipe
ce ived
Ġup s
Ġunder stood
r ition
ĠM S
Ġcon ver
ĠS ports
8 5
ri ve
Ġrun ner
ĠD i
Ġstrong ly
Ġv ice
Ġindust rial
Ġactiv ists
us al
ĠE conom
Ġhad n
ac c
Ġev olution
Ġcont est
D e
Ġtarget s
Ġnet works
Ġcomp rom
Ġfundament al
Ġrad ical
Ġwonder ful
Ġdr ag
Ġto ler
P U
Ġcor respond
ĠEn ter
Ġinst ru
Ġn ations
Ġr um
ĠF ind
ĠW ik
Ġact s
Ġsecret ary
ĠC ub
Ġconf ig
F A
Ġquarter back
ĠBo ard
ĠE nd
Ġconsist ently
Ġli es
Ġdeep ly
Ġem br
an es
Ġobs erv
Ġdisag ree
ĠRom ney
Ġtr uck
m un
i i
ath an
Ġcamp us
Ġrem ark
Ġhope fully
ĠAri z
Ġauth ors
T V
ik es
Ġalleg ations
ĠF il
Ñ ģ
Ġth ick
al a
Ġh all
ĠH aving
ĠKore an
Ġang ry
Ġlaw suit
ĠU lt
ĠT urn
i able
Ġaggress ive
Ġ6 5
ion e
pect ed
Ġdes per
ĠPol it
Ġw ire
Ġfac ility
ĠYou ng
ĠY OU
Ġdisc ount
as p
Ġvirt ual
ER S
al le
Ġch at
Ġf asc
Ġfru it
st ers
r um
Ġs ought
Ġfit ness
et her
Ġd u
Ġ4 9
r ich
Ġb at
Ġdevelop er
ĠV iew
ĠS C
semb ly
ĠCh ild
Ġd ance
Ġele v
4 00
ess ed
Ġ200 2
ĠD ie
Ġexp osure
el lect
Ġt aught
Ġsu icide
Ġmeet ings
ĠJes us
ad or
a a
Ġacknow led
or ic
Ġprim arily
Ġgener ate
ĠM ic
Ġthreat s
A r
ĠB ook
Ġinc l
Ð ½
Ġgovern or
off s
Ġform at
B l
Ġdisc over
Ġp in
% )
in itely
Ġteac hers
Ġte ach
ĠE ric
Ġsche me
Ġexp ression
Ġloc ations
Ġint ense
ĠAut hor
T A
ut ch
ĠAN D
im ents
Ġer r
ro it
ill ance
ĠW ild
Ġpro hib
Ġse lection
Ġpain t
Ġdeath s
ĠY eah
Ġh ire
Ġprom ote
Ġk ing
Ġsp in
ĠChar les
ĠN BA
ĠBar ack
Ġp ump
ĠS n
ic an
Ġgood s
Ġpurp oses
Ġde ploy
g or
en a
ĠA ff
8 8
Ġr ally
Ġimprove ment
Ġprogram ming
Ġd umb
W ith
ci ples
ĠIS IS
Ġminim al
Ġcateg ory
E very
ĠI M
ĠD am
Ġexplan ation
Ġlist ening
Ġto x
ĠH olly
Ġsol utions
Ġman ip
ĠSt and
ĠG ames
ĠJew s
Ġh itting
Ġex ists
Ġtarget ed
ten ance
ap se
Ġeng age
Ġdemocr acy
ĠK en
Ġg ear
Ġend ing
ec k
ĠStep hen
ĠA R
Ġpr a
7 7
Ġsc ored
ĠVal ley
ĠO K
ĠCl ass
Ġun iverse
ĠE nergy
Ġr ow
Ġf ault
ific ations
c ar
Ġprec ise
Ġart ists
Ġopin ions
es ters
ĠV an
Ġc ru
Ġkind a
Ġann oy
ĠN E
Ġwhen ever
Ġsign ing
Ġstud io
Ġengine ering
Ġvac c
Ġhon or
ĠEvery one
Ġreg ional
Ġinvest ed
Ġconsum ption
r ate
Ġappro val
Ġcare ful
Ġdiv ision
Ġfant asy
Ġl obby
the re
Ġnews let
Ġun known
Ġphen omen
t w
Ġsurround ing
Ġcontro lled
Ġtrans p
Ġmat ches
Ġign ore
Ġstay ing
Ġpost ing
Ġrefer red
Ġc os
Ġbl ow
ed ia
b ably
Ġequival ent
in em
Ġfind s
ĠCath olic
Ġl ift
Ñ Ģ
Ġte a
Ġb ars
an ish
st yle
Ġch ances
ĠP S
ĠB usiness
Ġalong side
Ġve nd
Ġrepeated ly
Ġw est
Ġt ort
Ġshould er
P e
n am
n ame
Ġfem in
Ġf ir
Ġcoun sel
re te
im p
ĠIn f
Ġsmo oth
Ġt ied
ig er
Ġr om
ĠD ar
Ġj u
ĠR ights
Ġp orn
Ġr ig
ĠC ast
ĠKe vin
ĠP an
Ġdri ven
ĠMark et
Ġprotect ed
Ġap olog
Ġbreat h
ĠDav is
ĠK ar
Ġh ole
ab b
Ġout come
Ġs oul
Ġ20 20
Ġemploy ment
ir lf
F P
Ġapprox imately
Ġloss es
Ġan cient
ĠL ord
Ġmed ium
ĠT ay
Ġcomp are
ĠAriz ona
s hip
Ġcompet e
er ry
v y
az e
Ġattempt ed
ÃĤ Ãĥ
Ġequ ity
ag an
Ġesc ape
Ġprot ests
Ġpar liament
Ġlet ting
ĠPut in
Ġadminist r
Ġfor med
T H
t le
ĠBr ad
f ront
ce ler
Ġbit coin
O ur
Ġbl ind
Ġorgan ized
ĠJ ord
ĠDani el
ï ¿
ĠP y
ĠW ater
ĠAr ch
ate ll
ĠCompan y
Ġmotiv ation
ib ilities
Ġshop ping
Ġrecommend ations
Ġfast ing
Ġche st
Ġwebs ites
Ġsurv ive
Ġt ank
Ġg ained
Ġconf ront
Ġsqu at
Ġcontrovers ial
ĠB at
Ġdestroy ed
Ġargu ments
Ġm ath
Ġfeat ured
Ġrun ners
Ġprior ity
Ġfant astic
Ġalleged ly
ĠC all
Ġperson ality
Ġsur gery
in er
Ġdist ract
Ã ¶
Ġtre es
c hers
Ġbreak s
Ġre tain
Ġfield s
Ġmain stream
Ġun p
Ġrat io
and al
r ated
Ġha bits
ĠS ure
Ġprem ium
ĠH R
b oy
ast s
c ling
um a
k o
so le
Ġsh ipping
ĠF ord
Ġbl ocks
Ġsal t
Ġ3 9
Ġopp onent
Ġch osen
ĠSt ory
Ġexp osed
ell o
og en
Ġadvert ising
room s
Ġph r
ĠH or
Ġmus cles
ĠJ ava
ĠCru z
d oor
ĠDef ense
oc key
Ġprofess ion
Ġev il
ĠL ight
g ame
ob b
li x
Ġbo at
ĠC IA
Ġcol ors
Ġrequ ests
Ġ201 9
Ġe ast
Ġf lying
ĠIt aly
un ning
ĠE ll
Ġfig ured
ĠCont in
Ġra pe
Ġsupport s
D S
Ġincor por
onym ous
ath y
Ġimm igrants
Ġre dd
Ġv ib
Ġobs erved
as er
Ġtourn ament
Ġne ck
or ation
ul s
ĠDet roit
Ã ¼
Ġstr uck
red it
ĠPalestin ian
Ġinvol ving
Ġtrack ing
Ġprom ised
Ġco ordin
ish ment
Ġun w
ver ty
Ġl aid
ut ter
Ġmere ly
ĠW ars
âĢ ĺ
Ġs ight
6 7
Ġage nda
Ġv ary
Ġterrit ory
ograp hic
Ġf ab
ing u
Ġconcl usion
es ter
iam i
Ġtick et
V E
ĠT em
Ġmove ments
ĠM iller
ab is
ĠSh are
aw a
Ġra ising
Ġnatur ally
Ġpo verty
ost er
ĠP en
ï¿ ½
0 8
Ġdep os
Ġ4 2
ĠF ood
Ġmach ines
Ġcontinu ing
ĠS uch
ĠS ource
Ġb id
et ime
Ġsu fficient
Ġh ired
ĠC ould
Ġfriend ly
Ġant icip
Ġd ump
Ġinterview s
ob ile
f ire
ĠC amer
Ġtr ained
ch o
Ġsac r
ĠSp anish
Ġfocus ing
âĢĻ .
ĠB a
ult ure
Ġh ip
Ġth in
ad el
ĠOr gan
Ġg aming
0 9
Ġselect ed
Ġl oud
ĠV is
ow ered
C E
Ġsympt oms
Ġtechn ique
ĠL uc
ĠAs ian
ĠK n
Ġro ot
n s
Ġpen alty
il arly
ĠC am
Ġtrig ger
Ġg ang
ĠNA SA
Ġhy d
Ġr aw
Ġf ulf
ĠT est
Ġa ver
d ef
ĠWil son
st one
d es
is p
Ġform al
ind er
au g
ĠD ark
t es
Ġ197 0
Ġfranch ise
ÃĤÃĥ ÃĤÃĥ
k g
Ġt ons
ĠM u
m aid
Ġhy per
ĠTh us
H A
ĠB ell
ĠL and
Americ an
Ġcontract s
Ġprof its
ap es
Ġclaim ing
Ġlet ters
Ġoffic ially
Ġex hib
ĠC ross
Ġext ensive
Ġpe ak
Ġwin ner
Ġt ies
ĠN ight
ĠO N
R S
bur g
Ġass et
Ġattack ed
Ġ Î
Ġlight s
ĠA li
se x
Ġre n
r as
ĠS S
L Y
u ous
Ġpl ed
Ġph ones
all as
Ġtechn iques
Ġdes cription
Ġf o
ĠL ink
s er
ĠDe ad
az i
ĠD un
Ġne utral
Ġpattern s
Ġregist ered
z ens
Ġm ad
act ions
Ġchallen ging
is er
ĠSpe cial
z y
ĠC ome
Ġ !
Ġdo zen
Ġsuccess fully
Ġbox es
ld er
Ġinform ed
ĠA h
ort ed
Ġpurch ased
Ġmain tenance
S ome
ĠB rian
Ġb other
Ġbr ides
Ġd ates
ĠAd am
ow ed
ur a
ĠH ard
Ġel ite
us hing
Ġk il
Ġcon gress
Ġdownt own
ĠU t
Ġdatab ase
Ġre ly
as hes
ĠAm ong
Ġthous and
p es
ack et
Ġenc oun
ĠC at
a ire
Ð¾ Ð
Ġb orrow
Ġdefe at
Ġmist akes
ke l
us hed
Ġn orthern
Ġperman ent
Ġt ur
Ġhar ass
ĠT es
Ġext ension
Ġestim ates
Ġfac ilities
Ġjo ke
ĠHolly wood
Ġc able
Ġd rawn
Ġacadem ic
Ġopp onents
Ġsurve illance
ĠC are
ge nder
in ity
ĠM id
ĠJord an
Ġreject ed
ĠGeor gia
Ġchair man
' .
u ction
l ock
Ġpsych ology
Ġk m
ĠWith out
int erest
Ġt ag
Ġcont em
du ce
ha ust
Ġprep are
ĠJ r
ĠM iami
Ġent hus
Ġint ellect
Ġassist ance
Ġret ired
se ll
Ġdef icit
Ġwe igh
Ġvill age
Ġw ine
0 2
ĠS et
l v
Ġin qu
Ġcas ual
ĠH ot
0 7
Ġcruc ial
ĠAd minist
Ġbre w
Ġrec ip
Ġl ists
Ġre aching
Ġro les
Ġrep ly
Ġcontrib uted
Ġunc ertain
Ġc ow
ĠF ull
it ar
Ġpl ug
Ġassist ant
Ġpract ical
6 8
ĠL ist
Ġelectric ity
Ġloo se
ial s
Ġcr ack
Ġaud io
if orm
ĠC ost
og an
ĠET F
Ġbro ker
atur al
Ġse ats
ĠF re
Ġinv ite
ĠH un
e ven
Ġdeli very
Ġconv in
ĠSte ven
arr ass
Ġprocess es
Ġcomp re
h s
Ġeng agement
ĠSoc iety
Ġre ception
Ġreg ions
oo se
ĠCar l
Ġsign al
king s
w oman
Ġpod cast
ĠRe view
Ġcount y
Ġh ide
Ġdirect ed
Ġoper ate
ĠL abor
Ġreg ret
Ġal ter
Ġill ness
Ġdist inct
Ġany body
Ġab ortion
ĠVict or
5 9
0 4
Ġparticip ate
Ġrefuge es
Ġh idden
Ġaff ili
act ive
ĠG all
Ġwork er
Ġret urning
uck y
ĠCl ick
Ġimpro ving
it arian
Ġnarr ative
ax y
ab s
Ġsw im
ĠIr ish
Ġmy th
Ġemploy er
ce nd
s m
Ġj un
Ġm ac
Ġf ed
ul es
Ġb ub
a o
l og
irlf riend
or ough
Don ald
Ġinv ent
Ġfound er
Ġin ev
Ġb ot
Ġcapt ure
Ġent it
ĠO per
Ġthr owing
ĠJer sey
Y our
ig ation
Ġphys ically
ins on
ĠBe ing
Ġearn ings
Ġbr idge
p ool
Ġd ating
Ġde leg
ed ing
wh o
the y
Ġj oy
Ġadm it
ĠE duc
E E
ĠD O
Ġs outhern
Ġh o
gor ith
Ġt ail
Ġpar am
Ġinc ent
Ġcomp onents
cu it
Ġg all
Ġut il
Ġcommun ications
? )
Ġp icking
ĠL ew
ĠN ick
GB T
ĠD ig
ĠAg ency
Ġfound ation
ĠPr ot
Ġstay ed
Ġresult ing
Ġchec king
Ġdec k
Ġst om
Ġfl aw
Ġbr ut
le ments
idel ines
ol t
Ġill ustr
rim ination
Ġch icken
Ġterror ism
p ower
P l
ĠC oll
Ġobtain ed
Ġest imate
Ġstudy ing
m ade
ĠItal ian
Ġsm oke
Ġassum ing
Ġarr ange
Ġst ations
al o
or ge
Ġprot esters
Ġreve al
Ġd ict
Ġgr anted
Ġd im
Ġdifferent ly
iz on
Ġbon us
ĠSe a
he nt
Ġreput ation
ĠTh ink
ĠT ri
ĠPro gram
Ġcol on
Ġphilosop hy
Ġst ab
Ġguarant ee
Ġf iction
ĠW H
5 7
Ġchamp ion
Ġtrack s
Ġdem ands
ep ing
0 6
ĠD NA
re p
Ġcontrol s
al i
M an
ĠMo ore
AT E
Ġcreat es
ĠSp ain
Ġfir ms
ĠAc adem
et ary
ĠNet work
Ġsqu ad
ore t
ĠL ive
reg on
M L
ĠAtt orney
w an
Ġrec on
ĠUs ing
Ġb read
ĠB ru
ĠOr ig
Ġ icon
Ġall ies
Ġthreat ened
l ights
Ġout s
Ġem issions
ch ain
Ġmanufact uring
re c
Ġover se
Ġexpl icit
c ow
Ġc ock
Ġpro ven
Ġproduct ive
Ġcrit ics
er ts
Ġtox ic
fort able
Ġpriv ile
Ġconvin ced
ĠR og
Ġexcept ion
Ġatmosp here
less ly
Ġdraw ing
ĠD allas
ĠL ear
m ate
Ġt ape
ir ts
ĠJ osh
ale nd
Ġnom ine
int end
az z
Ġex ternal
ĠScot land
ow a
Ġtechn ologies
Ġjournal ists
nes ota
Ġcond em
Ġfif th
N C
Ġde eper
Ġoverwhel ming
Ī Ĵ
ĠServ ices
Ġwhe el
Ġsub redd
Ġroad s
ĠInd eed
Ġpass es
Ġim per
ĠO s
Ġt or
Ġact ively
Ġmile age
ĠS outhern
itt y
Ġprin ciples
Ġex haust
ĠJose ph
Ġqu ote
Ġm ic
Ġatt itude
Ġemot ions
b a
Ġexp ense
onest ly
Ġset up
ĠR ay
ĠG iven
ĠTur k
ĠCon f
Ġowners hip
on ic
A Y
Ġcapt ured
Ġb urd
Ġbase ball
Ġconne ctions
aw ay
p ost
Ġw estern
Ġrec all
ĠWhe ther
ĠB ull
Ġattend ed
Ġtit les
Ġj e
E A
ry pt
og ether
Ġdis aster
Ġcompl aint
Ġrespons es
fe ction
Ph oto
V P
Ġworld wide
ist ent
Ġins ight
Ġm urd
ĠHist ory
0 3
Ġf inger
Ġunus ual
Ġnew ly
el f
Ġdeb ut
Ġrul ed
Ġconf used
Ġin fect
ĠO S
Ġc ake
Ġsuggest ing
c us
te xt
Ġpull ing
Ġext ract
Ġrefer ring
Ġre ducing
Ġbelief s
if ies
Ġwork outs
7 8
Ġrel ief
Ġvis ible
ĠAn th
Ġdo ors
Ġun ex
Ġle ts
Ġha ha
ĠC ivil
ĠW in
in ations
.... ....
Ġpo lls
Ġconst it
ĠN HL
Ġas ks
e y
G ood
Ġhe l
ann y
Ġv it
Ġdam n
i ary
Ġter r
ĠNot hing
Ġemb arrass
ĠT ony
j ection
ĠTay lor
Ġsh ower
st ar
ĠD ata
Ġgener ated
Ġgr ade
Ġhard ly
Ġsm ell
we et
Ġvulner able
Ġn erv
Ġm el
Ġrepe at
ĠA S
Ġgr ass
Ġvers us
im al
I R
l ers
Ġvis ited
em ic
il er
A re
Ġperm ission
i ro
Ġsuff er
ĠSen ator
Ġmark ed
b our
Ġappreci ated
Ġinn oc
Ġac celer
Ġachie ved
Ġcour ts
Ġsus pic
Ġsens itive
â ĸ
A ny
Ġrep s
Ġo w
ĠK elly
Ġact or
se a
Ġno ise
5 8
Ġr ival
Ġdynam ic
Ġprinc iple
Ġlawy ers
ĠMin nesota
Ġbut ter
Ġbreak fast
Ġr ating
Ġd uty
Ġpro ved
ĠM ajor
ĠC A
Ġgreat ly
ĠC H
ĠB uff
ĠN ations
Ġscen es
P M
Ġing red
ud es
ĠGl obal
Ġmon it
Ġwrit ers
Ġplatform s
ĠF und
ĠL A
od ing
Ġlog ic
ph ones
Ġins ane
ott ed
Ġtrou b
Ġinst alled
Ġatt ached
ĠFore ign
it als
6 9
in os
c ific
B RE
ĠHe ll
f all
Ġaim ed
Ġsc ream
Ġrec ording
ian a
Ġcre am
Ġ4 4
ĠO regon
Ġconclud ed
Ġt ut
Ġm ood
ph ia
pr ise
Ġcollect ed
Ġco vers
er m
ĠF ort
Ġpil ot
Ġf ighters
Ġob st
im a
r at
Ġaccom mod
ĠGree k
Ġimprove ments
Ġshort ly
Ġequ ally
ĠTh rough
Ġepis odes
ĠSer ies
is an
Ġredu ction
Ġtick ets
Ġal gorith
p at
ĠF C
ĠAs h
Ġaut o
ing ers
Ġ6 4
Ġme als
Ġgr ant
Ġenem ies
Ġwall s
Ġst ability
ĠE SP
Pe ople
Ġins pir
Ġclub s
Ġconvers ations
Ġcontrib ution
Ġprov ince
Ġhand ful
Ġrestrict ions
ĠRom an
ĠB alt
Ġabs or
Ġc ogn
ĠE vent
op p
Ġ4 7
ĠC re
pir acy
Ġbu ff
er a
Ġwar ming
ĠN BC
ĠP oint
Ġbut t
Ġen orm
ĠG reg
rie nds
ĠInst agram
Ġcl osing
Ġkit chen
Ġcomp onent
b n
Ġfail ing
Ġhyp ot
ĠJ ason
ĠS ever
Ġdes erve
U R
Ġch a
ĠCo ast
Ġsc rew
Ġbrows er
Ġrepresent ed
Ġbott le
ĠRep ort
ĠMc G
ĠC ir
Ġprocess ing
Ġw ww
ition ally
Ġmay or
Ġrent al
Ġ199 9
) )
The se
Ġyour s
Ġridic ulous
id ency
nd ers
ĠS a
Ġback ed
Ġlic ens
Ġan ger
Ġsl ower
Ġresour ce
Ġen able
f ound
ĠR a
Ġ9 9
Ġdef ine
Ġg ross
we ek
ĠH a
Ġs atell
ĠL ittle
d on
Ġminor ity
i ate
ĠFollow ing
Ġlif ting
m aking
ĠN ob
Ġresult ed
Ġext rem
f lix
Ġl ying
Ġcomput ers
um es
Ġb anned
ĠPac ific
Ġpro port
Ġaccom pan
Ġhealth care
ĠN C
it ter
ĠTes la
ĠDemocr at
Ġg ig
Ġex ceed
ons in
f rom
Ġunf ortunately
Ġuncom fortable
ĠF oot
Ġp ocket
Ġair port
ag ger
ĠZ eal
Ġpurs ue
Ġclin ical
Ġdo zens
S e
Ġsus pend
h an
ĠV iet
Ġthr own
isc onsin
Ġdescrib es
Ġw ise
ĠDevelop ment
Ġmount ain
Ġbel t
f r
Ġhol iday
Ġt one
Ġr ack
adel phia
ĠR ick
ĠV ery
Ġf ro
ĠKe y
F F
et o
Ġadop ted
Ġsh r
og a
ri a
Ġlands c
ĠJ un
Ġsum m
u ing
prof it
Ġent ering
Ġind icate
u an
Ġrep orter
Ġtrans it
Ġ4 1
pe l
ĠLin ux
Ġsh irt
ĠL GBT
be red
ĠConst itution
8 9
Ġcoal ition
Ġredd it
Ġhead ed
y ard
w orth
ĠA mend
ĠN orthern
c ue
if ted
m es
Ġbehavi our
Ġsc ared
5 6
Ġam end
ĠE p
m ont
c ore
anche ster
ĠEvery thing
ĠÃ ¨
ĠF A
ĠP ot
ĠH it
Ġ4 3
l ow
Ġfl ash
Ġin ner
Ġtim ing
Ġtransport ation
Ġg irlfriend
Ġt ie
ĠE astern
em en
Ġbasket ball
Ġcorrect ly
Ġstrateg ies
Ġsy nt
Ġcom ic
G E
< /
ĠHar ry
Ġveter an
Ġcan ce
ob s
Ġr ational
Ġcy ber
Ġr iver
Ġtem porary
B y
ĠF air
> >
Ġlow est
D R
isc al
oun ce
u gh
." [
olog ists
Ġsh ock
Ġdr ama
Ġst y
ĠS now
wor king
ĠHen ry
Ġtack le
Ġhang ing
Ġsp ark
Ġcamer as
ĠK ent
Ġrep ro
ĠJ ac
M S
Ġsw ing
on ly
Ġl ocked
ĠAr m
Ġdis order
Ġafford able
Ġro ster
Ġpl ain
Ġgrad uate
Ġprinc ip
h h
ĠH ad
Ġg am
Ġh ook
ĠP sych
inc luding
z ing
ĠM ir
Ġc abin
ĠMus ic
DD IT
Ġcare fully
ret t
Ġinvol ves
Ġsc reens
6 00
BRE DDIT
Ġmedic ine
Ġrem em
Ġh iring
Ġr ural
Ġt ables
us ions
h r
Ġmind s
Ġlay er
Ġunem ployment
SU BREDDIT
Ġprom inent
Ġsh ame
ĠMos cow
Ġchec ked
Ġinter face
r age
ĠS O
ar on
Ġinvest or
8 00
ĠPar liament
==== ====
Ġlo ves
ĠI owa
Ġhor se
ĠH T
Ġc ited
5 2
ocol ate
Ġb om
Ġnerv ous
Ġprop ag
Ġaware ness
Ġac id
Ġhistor ic
es y
Ġf ought
Ġreli able
Ġed ition
ch ar
ĠS at
ĠN avy
Ġchild hood
we red
âĢĻ ,
Ġmen u
re ts
Ġel ig
ĠTh ings
Ġb ail
p son
the w
Ġegg s
ĠW isconsin
Ġsp aces
Ġp apers
Ġche ese
ĠAl ab
ĠO ak
ĠK ir
ĠV ideo
it o
Ġreg ister
Ġproduc ing
p age
ĠJud ge
ou red
ĠPhil adelphia
Ġsmo king
in ating
ĠL ow
Ġreplace ment
Ġlaw makers
Ġro se
Ġc ra
Ġbeh alf
Ġrecogn ized
Ġ _
Ġmon itor
ĠN on
Ġclot hing
Ġdeli ber
ĠEm ail
j o
Ġnegoti ations
p read
" )
pe nding
A pp
ĠM ain
ĠAtl anta
Ġ9 5
oun ced
Ġstat istics
reed om
Ġrac ial
Ġentertain ment
ĠZeal and
Ġsil ver
ĠB owl
8 6
Ġro lling
c a
wor ld
y o
Ġfall s
orm al
Ġlangu ages
own ed
Ġsh orter
at hered
Ġc oc
Ġimplement ation
r ical
Ġjo ining
U L
Ġsearch ing
ĠRem ember
ĠHe ad
Ġposs ession
Ġexcl usive
ĠR and
Ġrapid ly
Ġste el
Ġl oyal
H S
Ġbr anch
ĠL u
ĠS ir
Ġstri kes
im m
Ġst one
Ġstom ach
Ġcoll apse
Ġperson nel
ple te
b ro
ĠM oh
ĠSt at
Ġr ush
y stem
te en
Ġcor ruption
Ġb ra
ĠA venue
Ġs essions
p ie
Ġag ric
Ġ âĢĻ
Ġtax pay
h o
ivers ary
B O
Ġperiod s
Ġman aging
Ġa er
ĠB ry
ol en
Ġdef ence
ĠK urd
Ġb urning
Ġo cean
ĠA ge
Ġtri es
ĠM anchester
ri ers
ĠEduc ation
b i
man n
Ġc rop
ĠL y
R I
ĠN ation
Ġexpect ing
g un
alend ar
iz za
Ġcann abis
ĠProf essor
Ġass ign
h our
ind ing
ose xual
Ġconc rete
ask a
Ġ4 6
Ġsubstant ial
h ot
qu arters
1 50
c al
Ġmotiv ated
ĠI ce
Ġcelebr ate
Ġw ing
Ġt ill
ĠM ars
Ġun iform
ĠR oyal
c ut
5 4
ĠAlab ama
ĠN ic
am i
Ġsubject s
ã Ģ
Ġw ages
ĠR ose
Ġattract ive
Ġfoot age
Ġindepend ence
j a
Ġint ake
Ġdisc our
uc ked
Ġper pet
ĠAn g
Ġphotograp her
back s
Ġemer ged
o en
il ton
ĠSever al
Ġrac ing
ĠN one
n i
ĠInd e
pl ate
Ġhead ing
Ġdiv or
ĠV i
M P
as ion
ĠP op
Ġf its
Ġbe ach
Ġfarm ers
ol is
g ener
Ġch apter
ust ration
ĠPr ice
Ġcorpor ations
Ġpo ly
5 3
Ġcompre hens
Ġfound ed
Ġult imate
Ġnot ion
Ġsan ctions
or ne
est ed
ci ence
at ers
Ġ5 2
Ġattempt ing
Ġbirth day
Ġle gend
Ġal arm
Ġcal m
Ġdec or
Ġstruct ures
Ġs orts
Ġsett ings
ĠDie go
Ġbr own
Ġdom ain
ĠIn formation
am ber
Ġpl ates
cu se
p ire
Ġchec ks
Ġrestaur ants
Ġflex ibility
ĠR os
a ed
ĠF amily
G o
Ġf ool
ate ful
ĠB on
ĠP ack
ĠH ay
: :
l ad
y es
ĠB ad
u ros
ĠG i
ill iant
Ġcomplain ts
Ġlegit imate
Ġt ear
ĠMay or
Ġsh ips
Ġd ude
Ġdr inks
ĠE D
Ġsuggest ion
Ġ- >
P C
im ore
Ġprogress ive
h op
Ġb ab
it i
Ġcont aining
Ġbul let
Ġe ase
e en
Ġfear s
th on
Ġdiscuss ions
az y
ĠR en
Ġsur f
e lect
Ġaw ful
Ġent r
b ow
ĠPrem ier
ĠV R
Ġcir cle
Ġsc oring
Ġth rew
ĠRe uters
Ġschol ars
gr ad
ĠL ind
Ġcl ock
Ġre ven
ul ating
Ġcar bs
or ie
t witter
bur gh
ides pread
Ġsol o
Ġrob ot
Ġfore st
Ġcampaign s
Ġst adium
Ġassoci ation
Ġroom s
Ġbr ands
Ġl ad
ĠO nt
ĠAust in
ĠP u
Ġr amp
Ġfact ory
ĠSci ent
Ġbl ank
Ġdress es
ĠAmend ment
Ġre verse
h t
Ġmem ories
Ġ1 000
Ġelect ronic
Ġnut rition
Ġ19 60
Ġgen etic
Ġg rip
Ġrac ist
ĠT otal
Ġintellect ual
pl us
k ward
Ġrecogn ition
ĠSh ort
ĠF ield
l bs
________ ________
M e
~ ~
Ġscore s
Ġhor ror
Ġhome less
Ġupgr ade
+ +
ĠPat rick
o ving
c ks
ll y
Ġg ent
Ġ1 20
ams ung
l an
Ã ³
ro lled
h igh
ĠSe ason
ap ing
Ġm a
ig en
Ġland ing
ĠB attle
Ġign ored
ĠAdminist ration
Ġsm ile
ĠS ix
Ġframe work
Ġ199 8
Ġcou ples
O r
Ġvac ation
ĠAd v
ar ms
Ġproduc er
ou ver
Ġbrides maid
Ġread s
ĠVe gas
ĠRad io
on ing
ĠAcadem y
Ġd ivers
5 1
c ase
ĠMat thew
Ġshe et
Ġcont ained
Ġbeg un
Ġhor rible
ĠNet flix
ound ing
ut ies
Ġestablish ment
Ġex it
Ġfr ag
9 8
ĠA BC
le ep
o ked
ict ions
Ġd ying
ĠP ass
ĠEx per
Ġuncle ar
Ġwar rant
Get ty
ĠEng ine
ĠTurk ish
Ġjournal ist
Ġmeaning ful
com es
Ġd ust
ĠJ ay
Ġbrother s
ĠC ore
Ġdisc rimination
Ġexcl us
Ġl ux
Ġ 00
Ġdram atic
ĠL ooking
Ġw ider
ĠSpr ing
om ed
ĠMed ical
ĠM aster
Ġreg ulation
Ġsam ples
Ġs oph
Ġeffic iency
Ġser ves
f und
Ġdev ast
Ġst ake
Ġal ien
Ġ2 50
oty pe
Ġdest ruction
Ġover s
Ġind icated
Ġliter ature
ĠE xt
Ġcover ing
Ġassum ed
ĠK at
ĠBe ach
Ġsubredd it
ĠR us
Q u
Ġrepresent ative
Ġaccompl ish
d em
Ġdiscipl ine
ĠB M
Ġro of
Ġco aches
Ġrespect ively
um er
ĠCommun ity
et ts
Ġconvention al
Ġimportant ly
Ġstrugg led
Ġpres um
Ġwealth y
Ġfl owers
ing e
ĠL ater
ĠMcC ain
Ġstrateg ic
co ver
ĠRel ated
Ġf allen
ĠU nt
Ġsupp lies
C S
C A
Ġp ill
Ġde lic
ĠK ansas
st ract
Ġbi as
ĠG ov
Ġi P
ĠDe v
Ġb uck
Ġl bs
Ġi OS
ĠESP N
Ġc ous
Ġadd ressed
O k
anc ouver
ĠT enn
j i
Ġathlet es
Im age
Ġman agers
Ġun a
Ġhand ling
or se
Ġv ital
Ġsett lement
Ġh int
ch ing
Ġbl ast
ĠKing dom
ĠEx pl
b ec
ĠOb viously
Ġseem ingly
ov al
Ġyell ow
I nt
Ġcount s
Ġpre v
e z
sy lv
Ġwhere as
Ġmo on
ĠA ud
Ġconv ince
Ġimplement ed
ï ¸
Ġoccas ionally
ak a
ĠS U
ĠSomet hing
ĠAll en
Ġstud ied
Ġvirt ually
ĠAnth ony
ĠW W
Ġarri ve
g ins
Ġbeaut y
ĠCon ference
ĠO l
Ġover t
ĠBern ie
Ġsem i
ĠT own
he ast
Ġmin i
Ġhapp iness
ast y
Ġw idespread
Ġaut hent
Ġtrans actions
hes is
Ġunder lying
Ġdis rupt
ĠS anta
ĠN AT
Ġengine er
y er
ĠCons ider
Ġart ific
Ġtop ics
ĠMO RE
Ġwe lf
Ġproduct ivity
Ġinvolve ment
it ure
ĠCent re
Ġtravel ing
H ere
Ġstead y
Ġpsych ological
Ġiniti ative
ĠD ave
ĠAny one
ian o
m al
ĠL im
Ġpar alle
ĠB udd
Ġhand ed
Ġâ Ĥ¬
Ġperform ing
ĠChrist ians
ĠU FC
arr ing
Ġwelf are
2 50
ig are
Ġunex pected
ï¸ ı
Ġmut ual
Ġcitiz en
Ġinvestig ate
ne cess
Ġinter vention
em an
9 7
ig ate
Ġsp oken
Ġr ings
r ome
Ġassess ment
ĠSqu are
Ġenorm ous
Ġus age
ĠPol icy
ĠB all
a fter
Ġf iscal
re ction
Ġfund ed
Ġb ow
Ġcom pe
sylv ania
Ġchoo sing
Ġan s
Ġaw kward
Ġton ight
Ġdisc overy
Ġmeas ured
A fter
er ted
ĠM uch
Ġeth nic
sel s
Ġt u
ĠG T
Ġth orough
Ġprov iders
Ġnomine e
Ġsu ck
pt ions
d ri
i el
Ġvisit ors
ĠAnt on
Ġw ars
Ġb ump
ĠPro v
Ġconv icted
W S
Ġp ays
ĠDiv ision
ĠBr other
i ences
ĠP A
ĠDes ign
Ġske pt
Ġsleep ing
Ġconsider ation
Ġdis h
ative ly
Ġar ray
Ġr ice
Ġreal istic
Ġbad ly
am med
Ġview ers
? !
um in
Ġbac ter
Ġdi am
Ġc ooking
Ġview ed
ĠGree ce
Ġstart up
Ġstop s
I F
ach us
Ġsp ots
ent al
ĠB rew
Ġst ages
Ġw anna
ab et
ĠWal ker
Ġhuman ity
d y
Ġag es
8 7
Ġemploy ed
Ġmin ing
Ġh oney
Ġwind ows
Ġw ra
ĠU ber
c ies
Ġor ient
est ion
ĠS amsung
Ġcour ses
Ġt ab
Ġdesign s
ĠCamer on
Ġclean ing
ĠAP I
ĠE qu
our ces
Ġmechan ism
um ing
Ġleg ally
ist ically
ĠA le
Ġg athered
Ġfab ric
ĠM ah
Ġdream s
Ġinc om
Ġsh out
ĠV ancouver
Ġoff ices
ĠN SA
ĠBalt imore
Ġbu g
ĠGold en
aw are
Ġencour aged
Ġg ifts
Ã ł
Ġcompet ing
M aybe
igr ant
Ġvir us
ĠPenn sylvania
Ġst ack
m ad
g ood
Ġrepl ied
ix ed
m l
and o
z ed
Ġtrans action
Ġhung ry
Ġt ent
Ġmake up
Ġtest im
ĠK now
Ġspirit ual
Ġcollect ive
ĠB al
ĠSt one
ĠQue en
Ġd iversity
Ġir re
ĠDe ath
Ġmar ks
Ġg ut
ĠR oss
m ind
Ġg rav
ĠS wit
Ġexpl aining
Ġdi verse
Ġbul k
Ġinc hes
m ill
Ġexpand ed
hold ers
Ġvis iting
Ġfil ter
Ġment ally
Ġg ro
m i
Ġra ises
Ġgr ounds
Ġpr on
âĢ¦ .
Ġprot ocol
ĠEn vironment
Ġdifficult y
Ġencoun ter
Ġsub ur
Ġl apt
Ġprefer red
Ġsure ly
Ġfeat uring
Ġab road
es h
ino is
as ant
Ġpregn ant
Ġfriends hip
Ġw et
Ġse ar
ĠBro ok
Ġentit led
Ġspeak s
Ġcons piracy
Ġcommon ly
Ġphr ase
Ġpoint ing
Ġfor cing
ĠConserv ative
Ġover come
ĠEx ec
ĠS us
ar ry
ĠArab ia
Ġdro pping
Ġinspir ation
vel and
ĠH old
ĠU r
Ġm aps
Ġodd s
s ome
P G
Ġloo p
d ated
ĠAdd itionally
ĠII I
achus etts
av ed
Ġabs ence
ĠP itt
Ġte eth
U ST
Ġrequire ment
Ġattack ing
Ġc ute
ĠAnd erson
Ġsustain able
Ġterror ists
g ly
Ġ5 1
c Ã©
Ġtarget ing
ĠBro ad
Ġinstru ment
W ow
ĠC reat
Ġdis pl
he alth
ĠX box
Ġweight s
N ow
Ġover l
ĠM ach
9 6
Ġpre ced
Ġmaintain ing
ĠEs pecially
Ġord inary
Ġman if
ĠR oy
Ġp ig
Ġpublic ation
ĠL yn
res hold
Ġban king
Ġex ch
ty pe
ĠI ron
Ġbr ide
w as
Ġb oring
Ġlif etime
Ġacc us
a us
Ġcap tain
ge l
Ġ\ -
t ail
un icip
Ġb ands
Ġrep air
Ġchann els
am ine
Ġsubs crib
Ġinnov ation
Ġargu ing
Ġdisappoint ed
ĠS ony
Ġsuc ks
Ġm as
Ġ8 00
if fe
ĠP rop
Ġj ury
Ġless on
Ġ199 6
ĠM useum
ick et
R C
Ġsc ope
Ġsuper ior
ĠC BS
Ġcommun icate
Ġdro ve
Ġsupp lement
ĠP ent
Ġcar b
Ġcateg ories
ĠFI RE
Ġobject ive
an ing
ub s
Ġcontrovers y
ĠC redit
Ġres ign
Ġimp ression
ĠR ather
ĠM ill
ĠBu y
ĠEar lier
Ġsc andal
Ġnot ing
ĠOlymp ic
ĠTr ust
Ġm it
Ġread er
Ġboy friend
Ġtr ave
Ġdiv ided
Ġsett led
Ġdep uty
ĠDe b
ĠHarr is
Ġrem arks
Ġguarant eed
Ġtrans gender
Ġdri ves
ĠG un
Ġacc um
Ġmind set
ĠLew is
ĠHow ard
Ġb ags
Ġtw ist
mark et
H D
Ġeas tern
ĠWar ren
Ġpartners hip
ir y
Ġex cuse
id ance
Ġ199 7
ĠG irl
ĠCh air
ult ural
Ġburd en
ĠColumb ia
Ġatt ach
i y
Ġchar ity
Ġenjoy ing
S p
Ġrec ession
ĠMin istry
as ury
ĠMass achusetts
Ġcon ce
Ġacqu ired
Ġbr illiant
Ġgr id
Ġrank ed
er g
Ġindust ries
Ġact ors
Ġmembers hip
ann el
ĠH D
Ġsy mp
R L
ĠL iver
iet ies
Ġw rest
ĠJ enn
ĠL as
Ġj ur
ĠThere fore
Ġsuspect ed
Ġf oss
Ġp m
ĠT ax
ĠC ode
Ġst ored
Ġblock ed
Ġrec ipe
ĠCle veland
Ġdemocr atic
angu ard
E P
ĠC ra
Ġre ar
Ġaff airs
Ġgu itar
ĠMr s
Ġprom ises
v ard
Ġnow here
Ġconst itutional
m aker
Ġc ust
Ġjust ify
Ġm os
o ir
ĠKenn edy
ĠB ang
Ġst olen
Ġdiscuss ing
ĠF reedom
ĠM A
Ġsubsequ ent
r ics
7 2
Ġdistrib uted
ĠL ine
ĠE ver
Ġaccess ible
ĠM arsh
Ġcon vert
ĠUn like
Ġinvestig ating
Ġp a
Ġsecond ary
E G
Ġcop ies
Ġke ys
Ġmat hem
ro gen
ĠIll inois
Ġwedd ings
ĠâĢ Ŀ
sen al
7 4
Ġar bit
Ġdead l
x it
sel ess
ĠP D
che ck
Ġdr unk
ĠDen ver
Ġfrequ ency
Ġg al
in ction
Ġreb u
Ġs ne
f in
gt hen
Ġabandon ed
v als
intend o
Ġstri king
Ġfl ags
Ġcor rel
Ġint im
Ġass ert
Ġb ureau
og s
ĠFr ont
Ġdesign er
Ġans wered
ĠU C
Ġcr iter
Ġint ensity
Ġtouch down
ĠGuard ian
ĠPort land
Ġprincip al
Ġintro duce
ĠUp date
Ġt iss
ro ck
ĠMex ican
Ġprep aring
Ġann iversary
Ġan k
H ello
ĠFig ure
ane ously
is k
Ġpain ful
Ġs li
ĠO tt
Ġprotect ing
Ġtre mend
Ġint r
ĠC ook
Ġpre par
Ġast ron
Ġph arm
ic ious
Ġorgan ic
th rough
ĠS H
Ġtw enty
Ġshould ers
Ġab ilities
ĠRev olution
Ġt ap
ĠR est
Ġsupp ose
ĠBel ow
l ah
ĠCor por
Ġadv enture
U N
ĠM oon
Ġsoc cer
Ġsuspend ed
ĠJ am
Â °
Ġoverse as
od ed
Ġfore cast
Ġclos est
og y
ih ad
ĠCh ampionship
Ġt read
su pp
ĠIran ian
Ġtemper atures
Ġadvoc ates
ĠN O
Ġcivil ians
Ġstim ul
Ġbank rupt
ĠT en
ow der
Ġdemand ing
ĠCur rently
g al
Ġcon sole
re f
Ġunivers ities
ĠF ive
Ġhop ed
Ġexec ut
ĠG aza
sc ale
Ġsurv ival
ĠS af
Ġro ok
ĠCap ital
Ġb ust
or ous
. -
Ġcons ent
ĠBas ically
Ġex port
7 6
Ġf et
âĢĶâĢĶ âĢĶâĢĶ
Ġr aid
ĠS orry
ĠF H
ĠC C
Ġstop ping
anc ial
Ġtre nds
Ġf are
Ġcard io
ĠF all
ber ry
Ġj er
ĠF inal
x x
w al
d s
Ġp ension
Ġl in
Ġn ose
t ra
ĠInt elligence
per form
Ġcap abilities
Ġn a
Ġtweet ed
s it
Ġ vert
Ġcent ers
el ess
oc us
Ġs ed
Ġd rew
Ġmod erate
iv als
Ġgener ations
c ond
Ġfin ishing
Ġr iding
Ġs in
Ġweak ness
st op
Ġless ons
Ġobs er
r ats
Ġe c
Ġactiv ist
Ġpr icing
ĠComm on
ĠGet ty
it ary
u z
Ġleg acy
ĠP T
## ##
S cript
ĠSt adium
Ġp icks
Ġcont rad
Ġbar rel
Ġinstruct ions
Ġgot ta
ĠH ind
ic ity
or gan
Ġcons ensus
Ġcol our
Ġa x
Ġmonit oring
ĠCop y
ĠH ospital
Ġkn ees
Ġam id
u h
Ġm arch
Ġapp lying
ann on
arch y
bre ak
ĠPat ri
r ison
Ġacknow ledge
Ġcom edy
ĠPr ince
Ġcogn itive
Ġmus ical
ĠCont rol
n ce
Ġde pendent
Ġin her
ĠD ream
Ġr het
Ġne ur
Ġn u
he im
Ġins ult
Ġc alendar
Ġrock et
Ġso il
un es
ĠE ither
Ġl es
ib l
ĠB ase
Ġinvestig ators
Ġm useum
or able
Ġear ning
ĠA st
c ur
ĠK ong
ĠT our
Ġch ocolate
Ġst ressed
Ġport ray
Ġmir ror
er ies
ĠMar vel
Ġ6 00
Ġdest ination
Ġanaly st
Ġv ent
ĠC S
Ġflex ible
Ġ8 5
ĠJust in
ĠTechn ology
Ġf ur
Ġfollow ers
ĠIndian a
Ġun necess
iz er
Ġdemonstr ated
ĠS ant
Ġinst ant
Ġingred ients
Ġinc idents
Ġgu idelines
ĠPhot os
ĠSwed en
Ġacknowled ged
Ġfinanc ially
Ġunivers al
Ġsc an
Ġr anks
Ġjud ges
ĠOnt ario
il a
Ġop ens
Ġbe ating
Ġw ore
L et
Ġc ul
ĠSar ah
ĠGra ham
rend um
Ġpet ition
Ġdecre ase
Ġrequest ed
ĠIraq i
Ġtr ash
ond er
Ġco aching
ĠLe ft
b ooks
Ġfunction al
ĠC apt
ĠC hel
mer ce
Ġpers ons
Ġp atch
Ġinsist ed
Ġper ceived
Ġre vel
o ves
Ġf estival
Ġ199 5
H T
ol ves
Ġtri als
Ġple asure
Ġentreprene urs
al ysis
art ed
ut en
ĠM ult
H ave
Ġle verage
U p
o z
Ġprofession als
w ill
ĠForm er
Ġgu idance
min ute
Ġown s
Ġinter action
ĠOther s
Ġlandsc ape
Ġmaintain ed
av al
Ġpredict ed
Ġse ed
Ġkn ock
Ġwat ers
Ġmiss ile
ĠPr ote
Ġappro ached
ĠA ction
Ġbath room
ĠUnt il
it age
Ġintro duction
F O
Ġpu zz
is ons
ĠFoot ball
Ġsle e
Ġden y
ol i
Ġs illy
m at
ĠL i
ĠNAT O
ĠC ustom
Ġconcept s
Ġdrop s
ĠInd ust
ik i
Ġh ill
ĠSpe aking
P P
Ġcompens ation
ĠAb b
m art
Ġsur ge
Ð »
Ġpop ulations
Ġrac ism
ĠSil ver
am ac
Ġh oles
Â Ĵ
rap h
v ision
Ġg oogle
ĠUt ah
Ġstream ing
7 9
Ġelig ible
Ġh osp
Ġup load
ab eth
ĠT ell
ot ing
Ġt ens
ĠN intendo
Ġass igned
ĠAlex ander
Ġspect rum
Ġ5 3
Ġvari able
ĠD isc
ord on
ct ic
Ġsh adow
ir a
Ġbound aries
Ġlog o
enn is
Ġbub ble
Ġadd iction
ĠE arly
Ġdead line
Ġscient ist
Ġd ies
Ġr ounds
B M
Ġin he
Ġprom ising
Ġqual ified
Ġpur su
Ġar ts
ep s
ĠBr on
Ġsa ke
Ġf ingers
Ġexec ution
anc er
Ġjud gment
ĠT ed
Ġtherap ist
ĠE ag
Ġ5 6
ĠB ud
ĠInt erest
Ġfrequ ent
le ted
Ġr if
Ġsequ ence
Ġsim ult
Ġl avor
ĠMan agement
Ġan gle
Ġimpl ications
F irst
Ġtact ics
Ġshop s
Ġqu oted
ar ity
" .[
Ġto ss
ĠR oll
Ġ( âĢľ
is dom
il le
r ace
Ġemploy ers
ĠMag ic
Ġth reshold
ĠLiver pool
Ġch ampionship
v i
ĠPhil ipp
Ġsh ocked
Ġbroad er
Ġvend ors
Ġpopular ity
j ud
o ks
ĠC ooper
ĠA z
Ġpassen gers
Ġfor um
Ġg ate
Ġcomprehens ive
Ġnewslet ter
ĠAb d
Ġres cue
um ble
e a
Ġdocument ary
ĠG ary
Ġprint ed
Ġre nder
Ġprogram me
Ġsil ence
Ġphenomen on
att an
V D
Ġh al
Ġser vers
ro ph
ĠO R
f it
ĠD J
st al
Ġbenef icial
br idge
Ġmo le
r imin
ĠH and
ĠP ict
the less
Ġcontact ed
ĠH ur
ĠCh ange
te ch
Ġvot er
ĠBr idge
Ġaccept able
ĠRober ts
Ġclass ified
Ġunf air
ĠM ess
Ġb in
Ġerr ors
ĠD utch
Ġrepresent ing
Ġrecru it
Ġmet ab
em ed
ĠGal axy
Ġmoment um
Ġpromot ion
d iv
Ġin equ
ian cÃ©
pl ed
Ġgr ap
ac co
Ġswe at
Ġdescrib ing
amac are
Ġco inc
Ġun ions
ĠEm pire
Ġvol at
he ld
A d
Ġm erc
Ġf iring
Ġcr imin
Ġaut onom
6 3
Ġgen re
ĠInt el
Ġn urs
en g
Ġsub mitted
h ill
or ious
Ġpropos als
ĠAtl antic
d ney
Ġexper iments
ol ving
ĠRe ally
lah oma
h ar
ĠA k
Ġsmart phone
Ġbreat hing
cl aim
ij ing
Ġun re
Ġst ance
Ġrele ases
Ġ199 4
Ġcr ap
ur g
ĠB i
Ġh ockey
Ġnight s
Ġs izes
Ġdomin ant
Ġpo ison
Ġl azy
Ġspokes person
l ined
ellig ent
Ġcomprom ise
Ġdam aged
ĠAssoci ated
Ġkil omet
if er
ĠChild ren
et ers
Ġv es
ĠHar vard
Ġper ception
u i
Ġball ot
Ġan c
Ġ à¤
Ġcal orie
I nd
Ġle ct
orge ous
ast e
Ġencour aging
Ġprecise ly
ar re
IL L
Tr ump
Ġstretch ing
ĠJon athan
Ġaddress es
in ch
ĠF red
9 2
Ġdismiss ed
Ġeconom ics
ĠB ible
!! !!
Ġrefe rendum
ĠCh ampions
ĠEd ward
Ġ5 4
Ġengine ers
ors hip
Ġapp lies
ĠV ill
Ġemer ging
ie v
Ġult ra
Ġd ub
F rom
Ġburn ed
c or
ag ine
Ġbird s
Ġeduc ational
Ġw aves
amb ling
Ġgenuine ly
ĠB ox
Ġexpand ing
Ġpromot ing
Ġre vers
Ġwal ks
ĠOver all
M ost
ĠEl iz
duc es
Ġpolit ically
Ġad equ
ĠUn less
Ġconserv atives
Ġpost er
Ġtri ps
ĠW ord
h ard
Ġc ant
ass ador
ul in
d ge
m ers
ĠBer lin
Ġref use
Ġcontrib uting
ic ism
Ġcritic ized
Ġdemonstr ate
ĠRub y
ob ic
Ġsubst ance
Ġthe ories
Ġsent iment
ag ic
Ġdivide nds
ĠMary land
Ġelimin ate
Ġst amp
Ġequ ality
7 3
ĠOther wise
Ġchar ging
Ġdivide nd
Ġst ats
p ack
Ġhead quarters
ord inary
ater n
Ġpresent ation
Ġtr illion
u ating
Ġfl ip
ĠLat in
Ġste pped
Ġout rage
m ic
Ġenthus i
Ġbo om
oen ix
at re
Ġte nds
ĠBel g
Ġse ctions
Ġviol ation
Ġpipe line
Ġign or
ist ol
old s
Ġnom ination
ĠB ureau
ge red
ol ph
Ġat tending
Ġc uck
ĠLiber al
ĠT ok
6 2
ĠS av
Ġmid field
Ġst em
ĠArt icle
ater al
Wh ile
Ġrece iver
Ġneighb ors
Ġh arsh
ĠS on
Ġst ere
ĠMore over
ĠS om
cept ions
it ual
Ġrat ings
D id
Ġl ately
Ġappoint ed
Ġs ore
Ġe cho
ĠA ward
sh ire
Ġ( "
ĠCon nect
ĠTe le
Ġappear ances
A m
ĠAny way
ĠE th
Ġinnoc ent
ĠSt ore
Ġun pre
ĠK ick
el ing
Ġgr ateful
c op
ĠTh ird
Ġveter ans
con f
ĠV en
Ġcomp at
om y
Ġtechn ically
Ġv ague
le e
ay ing
Ġhor r
Ġk iss
ene z
Ġl ady
Ġproduc ers
Ġarchitect ure
Ġsqu ats
Ġgrad ually
Ġat e
ĠB an
ĠOk lahoma
Ġf ancy
Ġag ed
s l
is a
if ice
Ġut ility
Ġindic ates
pt on
f are
ĠK l
Ġlove ly
Ġsp ray
C O
St ar
ĠRun ning
ĠMor gan
Ġd il
ch ild
art s
Ġacqu is
in f
Ġse gment
oc ument
Ġafter wards
ĠBe ijing
be ing
ĠHope fully
Ġs its
ĠT ai
Ġproced ure
Ġsp an
br id
ent er
Ġthreat ening
ant e
Ġstren gthen
ol ar
Ġdesper ate
6 1
ig ious
Ġshe ll
ĠBru ce
ĠChel sea
ou b
Ġch ronic
Ġrec re
Ġpro c
ĠHaw ai
ĠC ow
" >
h ire
Ġtort ure
ile y
à ¥
ĠH ong
Ġsatell ite
Ġe lder
ĠF act
Ġtown s
Ġch ip
Ġdist ingu
er ning
Ġout comes
Ġhigh lights
Ġins pect
Ġopen ly
b ase
Ġeng aging
ĠSe an
ĠViet nam
Ġch ips
N S
Ġnic he
ĠP H
ĠB oe
ĠOn line
Ġenh ance
Ġdon ations
un a
ĠJ ere
Ġtit led
Ġsh ield
at ar
Ġh i
Ġposs ess
ĠLe on
lud e
Ġpers u
Ġ7 2
Ġmod er
Ġexclus ively
Ġcert ific
Ġ5 8
Ġball s
Ġsus p
Ġd irty
Ġfl av
Ġf iancÃ©
ĠFurther more
ĠS ab
aed a
iff s
b age
Ġf ighter
Ġpres idency
all ing
Ġback ing
Ġst ro
Ġcriter ia
olute ly
ĠC B
ĠO pp
Ġprov ision
com p
ar th
est y
ĠIm p
Ġfac ilit
Ġlux ury
Ġbill ions
Ġappro aches
usal em
ĠB ra
part y
Ä ĥ
Ġh obby
ĠHam ilton
AN D
ĠMc K
Ġv oices
Ġcap s
Ġmyster y
Ġme ets
Ġparticip ation
Ġconvers ion
Ġharass ment
th ink
Ġdise ases
Ġt empt
Ġdef ic
Ġquestion ed
ĠAr k
ĠGovern or
ro at
Ġhost ed
Ġartific ial
Ġur ged
Ġgather ing
ĠD M
B ecause
ĠN orm
ist ical
Ġocc urs
Ġf urn
Ġsoon er
Ġmer ch
Ġb one
Ġmar ry
ĠTr ade
Ġjump ed
Ġdram atically
ing ton
Ġstrugg les
ex p
ĠCar ter
res ident
ĠB ased
Ġtem por
Ġspe ll
ct r
ri v
Ġpropag anda
ĠSt ock
ĠB E
Ġkick ed
C ont
Ġtestim ony
G reat
Ġrout es
t i
ear ly
ĠReg ard
Ġrem oval
Ġannoy ing
ĠE nt
Ġcapital ism
Ġsen ator
Ġ5 9
ĠSupp ort
Ġmanufacture rs
se ct
op her
Ġcongress ional
ĠC ON
Ġv enture
ou ri
Ġrepresent atives
ĠAnd re
Ġpart ly
ĠTenn es
ĠSy dney
Ġappoint ment
Ġex empt
Ġsett le
Ġâ ĪĴ
ĠL am
Ġg host
Ġcompet itors
Ġl os
Ġover night
Ġspokes woman
Ġp unch
7 00
ĠE st
ĠL ocal
el a
ĠOb amacare
at oes
Ġparalle l
Ġcount ing
ick ed
ĠScott ish
alt ies
Ġdial ogue
ĠB ul
ĠL t
Ġwas h
Ġrem oving
ĠF ast
ĠV ice
Ġf iber
ĠF al
it udes
ĠP age
ĠPro duct
Ġbrut al
Ġprison ers
Ġarg ues
Ġdead ly
ĠS ound
Ġto e
ik a
ĠM ove
Ġgar age
Ġentreprene ur
ap olis
Ġr ic
ĠG DP
Ġcoll aps
Ġinst itution
ĠAn na
Ġro y
c ap
Ġconven ient
Ġreve als
Ġb esides
O b
Ġc ro
Ġveget ables
Ġh orm
Ġel abor
Ġg arden
Ġsc ary
Ġscr atch
Ġrequ iring
ĠEvent ually
Ġal ign
al ia
Ġbe ings
Ġaffect s
ĠRep resent
ĠD E
Ġsk ip
fl ow
Ġprospect s
Ġre ass
xt ure
Ġb owl
Ġrefe rences
Ġoccas ional
ĠJer usalem
ĠH al
Ġve gan
Ġshort s
Ġsh ake
ĠSm all
Ġinvestig ations
Ġassoci ate
Ġg est
Ġform ula
arm a
Ġp ul
Ġb old
ier ce
w ords
ĠPri v
a ver
Ġg aining
ĠCharl ie
Ġcl ip
Ġtr ails
Ġexecut ives
ĠSub s
ĠCr ime
Ġaccept ing
gr ade
Ġb orders
Ġvari ables
ur ities
Ġf ut
Ġload ed
Ġqual ify
it ol
ĠD a
Ġbre ast
Ġe uro
Ġblock chain
Ġp izza
ĠCra ig
Ġsole ly
Ġsign als
Ġspeak er
Ġ199 2
Ġ5 7
Ġle ver
Ġsurv iv
Ġbi ological
ĠM ind
roc ery
el son
ĠR S
ar ia
ĠBat man
Ġpar ad
ĠD er
ah u
v o
Ġadvoc ate
Ġcon gr
ĠA lp
Ø §
Ġhosp itals
ĠEliz abeth
Ġobs c
Ġdisp ute
Ġse vent
Ġexist ed
ĠO cc
Ġform ation
Ġpun ishment
b ury
Ġcivil ian
Ġpass ive
Ġ19 50
ĠLe ader
w alk
Ġesc al
Ġres ume
ĠG il
Ġfl avor
ak i
Ġremark able
Ġut ter
Ġcar ries
ĠC ase
ress ing
Ġpoor ly
ĠDr agon
Ġaward ed
f ather
Ġfavour ite
Ġtal ented
ĠG ulf
w ind
l ar
Ġcreat ures
Ġste al
g i
ang le
ĠT rib
Ġdefe ated
Ġn in
u y
Ġrook ie
Ġimp ressed
ĠC L
ĠMic hel
Ġprofit able
P L
Ġregul atory
b ecause
ov a
Ġpan ic
Ġkn ife
Ġsub mit
ĠAre a
Ġdefe nding
Ġres olve
re ll
se ction
9 4
Ġdr one
ĠF ant
Ġper mit
ĠBre xit
Ġlo ving
Ġlong est
**** ****
ĠG ot
Ġbr idal
ĠSim on
9 3
Ġcross ed
ced ented
nd ed
o is
Ġsign ature
ĠGet ting
ĠB ow
port ation
Ġswit ched
ĠPalestin ians
Ġpack ed
Ġb its
Ġjun ior
Ġm unicip
Ġple ased
ad ers
P r
Ġmon ster
Ġsex ually
Ġreform s
ĠV ar
Ġav o
ĠMar x
ĠY emen
Ġf ails
Ġpat ent
cript ions
b et
ĠPro bably
ne ver
Ġv ig
ĠM oney
ĠNe v
Ġinterview ed
Ġpass age
Ġass ass
sc reen
ĠBl oom
Ġgen es
Ġcur ve
Ġcooper ation
uc ed
Ġm ild
sh it
V ID
i ac
Ġattract ed
Ġgraph ics
Ġcent uries
ĠDown load
lim ited
Ġspec ulation
Ġsurround ed
Ġb iz
vertise ments
Ġexperi encing
Ġrel ation
8 4
ĠOak land
Ġb es
A g
am ous
- >
Ġend orse
ĠCl ark
Ġpack ages
ĠL ess
ĠD u
Ġcred its
o vers
Ġprosec utors
ac her
Ġproced ures
ĠTennes see
Ġbatt les
ĠThom pson
Ġlegisl ative
S E
ĠO bs
Ġdist ur
Ġanaly sts
ear ing
Ġres ort
Ġland ed
Ġ199 3
Ġpr ide
Ġinst ances
ĠSt aff
cos ystem
Ġe ager
ĠSt op
ter y
S u
Ġg orgeous
Ġfl ights
ĠPerson ally
Ġsurprising ly
Ġst ating
O f
Ġcy cl
oc a
Ġfoss il
land o
od d
ret ty
omet hing
ĠL og
ail ed
il st
Ġrec overed
Ġben e
Ġembr ace
ĠJe an
Ġcust ody
Ġfund ra
oo f
v an
Ġro ots
ĠMur ray
ĠRe f
Ġt ension
Ġconf usion
w hen
ĠCap tain
Ġcomp aring
ĠExec utive
ĠPitt s
Ġu gly
d ays
crib ed
F T
Ġprov ider
ab out
ĠPh oenix
Ġpar ks
Ġabs urd
ĠC a
Ġan onymous
ĠT able
Ġisol ated
ĠRus sell
ðŁ ĺ
Ġca res
ĠðŁ ¤
ri x
Ġl au
Ġres erved
ĠSt ation
ĠH op
sec urity
ĠAl an
on ed
Ġfrustr ated
enn y
ĠG ordon
li est
ĠWh atever
Ġcounter part
th ird
Ġrecommend ation
Ġall oc
et he
ish op
Ġst atic
Ġst unning
Ġadop t
c ular
li hood
Ġconc erning
ĠAs sembly
ac les
Ġsy nd
ol id
Ġsty les
ĠB urn
Ġident ical
Ġscr ut
aut hor
ĠH art
7 1
Ġmod ified
Al so
Ġpri ze
ĠML S
âĢ Ĳ
Ġkill er
port ed
ĠEx p
Ġt orn
ĠC R
Ġl ane
C he
ĠP ers
Ġplay offs
Ġunnecess ary
Ġp ink
ĠM it
C ong
ag en
Ġbe ef
ĠF estival
lud ed
Ġres erv
ĠPh D
Ġw ounded
Ġout lets
Ġelect ron
m ath
Ġbuy ers
Ġdisappe ar
w ich
Ġassum ption
Ġmob ility
ĠH oll
Ġneighb our
Ġl un
Ġincor rect
Ġdesk top
im b
ĠZ e
Ġab stract
Ġf ate
Ġsuspect s
g us
ĠCome y
Ġprocess ed
Ġhost ing
Ġb ored
Ġsc ar
ol n
ĠLib ya
m ile
ĠOr der
Ġarri val
ic ating
ĠD ur
Ġad ap
ĠD ick
Ġl one
Ġrisk y
Ġhun ting
8 3
Ġne uro
v ia
Ġprogress ion
Ġnut s
er r
ĠH ig
ĠN ame
p ot
T I
ĠO x
aren cy
ist a
Ġcollect ing
Ġro lled
Ġs i
Ġbet a
Ġaccount ing
Ġbal anced
Ġnut ri
Ġlapt op
ĠTy pe
v id
Ġv iable
ĠL uck
Ġmin istry
ĠD I
Ġwor n
ass y
od ox
ft en
Ġconscious ness
Ġpoll ution
ug s
Ġforgot ten
ĠPlay er
ĠAff airs
Ġ ).
Ġse eds
ari os
Ġhe lic
Ġpain ting
Ġneighborhood s
Ġthat s
ĠF uture
ous es
Ġpsych iat
W here
Ġcor rupt
S c
ri ors
le ft
Ġbed room
Ġcons ume
ig e
p ers
Ġunder t
Ġfrustr ating
O D
ĠPent agon
ĠBrook lyn
ĠSt ew
Ġto ile
Ġcl er
Ġmod ule
ĠH on
st arter
ĠDo ctor
Ġpubl ishing
ite ment
ows ki
Ġresident ial
Ġsqu ee
Ġy ard
Ġmiss ions
ĠSo ft
ĠPh ill
ĠT oo
ĠWal es
Ġb ol
Ġbab ies
w a
Ġd ensity
ke e
Ġw isdom
Ġsil ent
ĠS A
ĠAnd y
ĠKent ucky
Ġoccas ion
Ġimpact s
oc ial
H z
c s
Ġsubs cribe
Ġrel ate
Ġman ual
Ġfight s
Ġfl our
ail able
Ġd ip
ap ore
Ġo xy
âĢ¦ âĢ¦
r ac
ĠT ro
Ġch ampions
ĠContin ue
Ġp ants
ĠMan h
Ġp airs
s ub
ĠF OR
arent ly
Ġtra uma
ef fect
ĠMount ain
ĠKh an
Ġm ice
m other
Ġadvis er
ock ets
Ġhe el
Ġ6 2
ĠE V
Ġfl ed
ĠEconom ic
Ġshel ter
Ġy oga
Ġe cosystem
Ġdeal t
ĠL LC
M M
igen ous
Ġpre ference
G A
Ġrhet oric
U C
enez uel
Ġg rocery
A h
Ġmod est
Ġthe oret
Ġtrad ed
ĠS EC
Ġg ene
Ġnot able
Ġfr act
Ġt ears
Ġhelic op
ond s
l ast
ĠFin ancial
Ġregist ration
ĠN S
k ers
ĠG ive
K E
Ġpurch ases
ĠR ome
Ġgar bage
play er
ĠHar per
Ġdisplay ed
arent s
Ġhand led
p a
h as
ĠA ccess
ĠCo le
Ġd ual
Ġd ressed
le ading
Ġc igare
Ġsa fer
ĠB ol
Ġline up
ĠSpe ed
ĠM om
Ġcon sec
Ġco in
Ġat he
Ġso vere
Ġextra ordinary
ell ow
ĠE PA
pro duct
ĠR ac
Ġbrief ly
Ġvolunte ers
b ie
N e
Ġintegr ation
ĠNY C
Ġbacter ia
Ġal ert
for ward
ER E
ĠS ad
Ġlay ers
Ġref ers
Ġphys ics
Ġlab our
ĠE X
on z
ĠCom b
Ġclim b
Ġcomm od
ĠÂ ©
ĠNe ed
ĠPh ys
Ġc iting
g ate
Ġuncertain ty
Ġcamp s
ĠP a
ĠSome one
ĠDig ital
Ġrepresent ation
Ġu seless
ĠE S
ĠW olf
g ust
Ġexplicit ly
Ġsim ilarly
Ġcontem porary
ĠAss ad
Ġexpl oring
Ġo h
Ġ18 0
ĠY an
Ġtem po
Ġhom osexual
ri or
th ood
Ġv o
ent h
1 000
Ġmanif est
ĠS W
Ġplay off
Ġre wards
f ers
ĠT R
T P
Ġbl ocking
Ġrom antic
Ġsupport ive
ult y
Ġtwe ets
Ġunpre cedented
Ġsafe ly
F r
Ġsix th
Ġdec iding
Ġpeace ful
Ġor ange
ĠMont real
â Ĥ¬
Ġam bit
Ġlog ical
Ġp owder
Ã ¢
Ġinst antly
Ġsimult aneously
ĠS D
Ġcollabor ation
ĠB C
id ays
ist ant
pp y
inc ome
Ġrot ation
Ġproport ion
8 2
ĠK r
oo oo
ay er
ĠDel hi
ĠTre asury
Ġfill ing
Ġp our
ĠLe vel
ĠPl ace
th rop
Ġsl ide
Ġv oid
9 1
Ġreb els
Ġcour age
ak h
ĠM un
er able
ĠL es
ric ane
re qu
F i
ĠF un
Ġpres ents
Ġinev itable
Ġ199 1
Ġtim eline
ĠWith in
Ġremind er
re r
tr ans
yl um
Ġinterpret ation
ay a
Ġsoc ks
Ġcha os
Ġinteract ions
en ess
Ġinter ior
Ġautom atic
Ġaim s
le ans
Ġd op
Ġcalcul ated
Wh o
Ġback s
i ens
Ġc ave
ĠB arn
A b
ĠH oly
Ġfle et
Ġtremend ous
ĠH alf
j s
ĠRes erve
Ġback up
AR T
or ph
ac ter
ĠH an
Ġres erve
Ġcom ics
ump h
st ring
Ñ ĥ
ĠO il
ĠO cean
Ġp ose
ĠMet ro
ah oo
Ġr hy
Ð º
Ġgrap hic
Ġfr ank
m ble
h uman
Ġfunction ality
Ġpassion ate
ĠP o
ĠE ve
Ġre hab
ĠBet ter
b ound
Ġsurv ived
Ġanc est
R es
Ġdiagn osed
G O
Ġfat al
ĠMar ine
Ġintim id
f s
Ġcharacter istics
Ġcont rary
Ġprint ing
ĠR O
Ġcabin et
ĠN ike
Ġtr aged
C L
ĠPort ug
ĠV enezuel
Ġinequ ality
Ġrob ust
Ġdeploy ed
Ġpromot ed
ĠTr ue
ĠJava Script
Ġd imin
ac on
Ġdep ressed
ĠB and
ĠAr gent
om ic
Ġunder ground
Ġpregn ancy
Ġconcent ration
ĠSte el
Ġinv asion
Ġbur ied
Ġg olf
Ġp y
Ġd uration
ĠPitts burgh
ĠMod el
ĠAnton io
h ist
at ics
Ġhard est
ĠStud ies
Ġcomp r
W or
oll ar
Ġsumm ary
ĠAl most
Ġsent enced
Ġrepl acing
Ġinqu iry
op les
Ġprompt ed
Ġintegr ity
Ġkey board
wh ite
pp ers
ĠAr senal
Ġcommand er
ĠS ame
. *
8 1
Ġmed itation
Ġv ocal
E ven
ĠCh annel
ĠA aron
Ġstri p
ĠManh attan
b ian
Ġfast est
Ã ¨
con st
Ġconstit u
Ġann ually
ĠNet her
": "
Ġbott les
in st
ĠE mer
Ġamend ment
Ġep ic
idel ity
ĠM ail
Ġvis its
ĠM other
ĠJ ane
Ġ6 6
âĸ Ī
ĠOr lando
Ġcrypt o
C D
at tered
Ġc ens
Ġprof ound
Ġdemand ed
Ġint elligent
ĠP ok
abet es
Ġtiss ue
N D
oo s
Ġpre tend
Ġhero es
Ġgent le
Ġspeak ers
ĠCr it
ĠJere my
Ġbreak down
ĠNob ody
Ġm igrants
Ġfil ing
ĠMc Donald
ab e
Re uters
Ġrel ie
Ġconsider able
Ġviol ations
Ġp ir
Ġproduc es
Ġev ident
inc oln
Ġprior it
ĠRe agan
p en
T O
Ġcy cling
Ġj unk
ĠC old
ĠQ ual
Ġconc ert
Ġexec uted
Ġtransfer red
v as
ĠMiss ouri
Ġmed ication
Ġavoid ing
ain ts
Ġcoordin ator
ne g
str ong
Ġcreat ure
Ġaccompl ished
w all
ĠðŁĺ Ĥ
ĠB or
Ġperform ances
ĠSing apore
Ġbo ards
Ġmet ers
Ġexplos ion
ĠNev ada
Ġtr ains
Ġev olved
is d
Ġdel ight
n ormal
Ġun ve
ethe less
Ġrel atives
Ġwithdraw al
el le
ĠOr leans
Ġinflu enced
Ġmount ains
ĠS E
Ġc ents
ĠCon vention
ange l
ree k
ĠLib rary
ĠM ap
Ġrespond ing
ist ance
ĠBl ood
st ra
ĠK ind
Ġtow er
Ġpart ially
Ġaccur acy
in stein
Ġaltern atives
D ef
Ġcomb ine
Ġjump ing
ĠP interest
m are
Ġsub tle
c ard
Ġposs ibilities
m ir
Ġpubl ish
Ġscen arios
eal ous
Ġsa uce
Ġli p
ut o
ac o
Ġsacr ifice
Ġprior ities
Ġemphas is
Ġank le
ĠChrist opher
D oes
ĠD ate
Ġm art
ĠC ars
Ġintegr ated
ĠE b
Ġins ulin
ĠiP ad
ĠInde pendent
Ġsatisf ied
Ġsold ier
Ġcomp ass
Ġexpert ise
Ġsoph istic
Ġide ology
Ġopp ose
Ġoccup ied
Ġbuild s
Ġent ity
f irst
ĠStand ard
ĠAd ams
Ġspr int
Ġpure ly
---------------- ----------------
Ġd ancing
Ġsp o
ĠRes p
Ġopp osing
Ġimp osed
Ġse ized
Ġdest ro
Ġc ush
air y
Ġoccas ions
Ġcor n
Ġdiplom atic
Ġpurch asing
ot te
ĠAl ber
s uch
Ġlight ing
Ġfat ig
Ġqu otes
ĠSp ir
ĠCo al
Ġbroker age
k ind
Ġ `
t ax
ĠH ans
Ġremind ed
Ġrec k
Ġdom inated
Ġke en
Ġfle e
el come
ĠAuthor ity
Ġentr ance
Ġ^ ^
if ier
Ġexpect s
ĠBu ilding
Ġbook ed
Ġce iling
ip edia
Ġgold en
f unction
ĠOffic er
ĠInd ones
Ġclim bing
Ġadv ent
Ġorgan isation
Ġland l
Ġint rig
Ġcontain er
ĠI de
Ġconst itution
Ġdis abled
Ġeng ines
are r
ĠBet ween
c our
ag a
Ġvolunte er
ĠEd itor
Ġimm une
N T
Ġchallen ged
Ġapp l
ĠCl oud
Ġdivor ce
Ġalgorith m
ĠM erc
Ġreg ards
Ġteam mates
ĠHit ler
ut er
Ġsc rap
Ġavail ability
ĠW right
bour ne
ĠA ren
ib an
d ep
Ġpass word
Ġconver ted
Ġtrail er
orne ys
Ġpe ers
com mun
Ġprivile ge
Ġdevelop ments
ĠT oy
Ġrub ber
igh th
im mer
Ġf ert
Ġsk et
Ġtreat ing
ĠUn ivers
ĠC as
ĠChr ome
Ġc ats
ĠS ide
ĠGo ing
ix on
Ġbureau cr
ĠP ope
ĠS F
Ġdistrict s
Ġfro zen
or i
Ġpe er
vern ment
bl ock
ĠR aj
Ġlaunch ing
Ġcle ared
Ġdes ired
Ġm ask
Ġm ate
Ġremem bered
Ġspeed s
Ġn ons
Ġ6 3
Ġ< /
Ġfin ances
ĠT el
Ġprevent ing
ĠAL L
P lease
ard ed
Ġwid th
in ite
w ear
it ivity
r ous
el ve
ie re
it ations
s chool
ĠUS D
ac re
Ġconfig uration
h ave
idd ing
Ġcross ing
ĠProte ction
Ġhun ger
Ġcous in
in ally
Ġresearc her
Ġsupposed ly
Ġfr ustration
ict s
ane ous
he ro
ĠUS B
Ġout standing
" ,"
Ġthe r
Ġt anks
Ġswitch ing
R ep
ĠDe ep
Q L
Ġhost s
ĠS ay
ugh t
) ?
Ġcomp ound
Ġf el
Ġcompe lling
act s
Ġ198 9
Ġagree ments
Ġ7 00
ĠG ill
Ġtou g
U M
Ġin fection
ÃĤÃĥÃĤÃĥ ÃĤÃĥÃĤÃĥ
op er
f ly
ĠS M
id en
ĠI V
ĠPer ry
Ġcry ing
ĠRob inson
Ġdefe nder
Ġlimit ations
Ġde emed
Ġas sembly
Ġc um
Ġun h
be at
ĠD uke
Ġco ins
it is
Ġsubsequ ently
Ġh iding
Ġexam ine
Ġju ice
ĠC PU
ĠSher iff
ĠE ffect
B r
ĠL incoln
ĠP oll
Ġsum mit
ĠP ubl
Ġrec alled
ĠCap itol
ĠLe ban
viron ments
f i
Ġhistor ically
ĠF O
Ġf er
N BC
Ġneed ing
b ra
ĠSm art
ĠH ung
Ġalt ogether
ll i
ĠEnter tain
ĠW inter
ist le
Ġran king
Ġend less
\ *
Ġhe sit
Ġbom bs
t own
en h
obb ies
ĠBe yond
ĠTok yo
Ġb icy
ĠNether lands
ĠF riends
ĠG ib
am ents
Ġar c
Ġmatch ing
Ġrele asing
Ġproject ed
Ġthem es
Ġpassen ger
l ink
Ġparticip ating
US ER
Ġdes erves
Ġca ution
Ġ6 7
ĠStew art
ĠBl ock
ĠSum mer
ĠC ut
Ġhur ts
ĠAs k
ĠFil m
iz ations
is hers
T E
Ġgu ards
Ġsp are
R ight
ĠS port
Ġdecl ar
Ġl ighter
ĠSe ction
ĠF ather
Ġson o
Ġin ject
ur able
op t
Ġmargin al
Ġworld s
M ar
ĠI RS
Ġp and
ĠRob in
Ġhousehold s
Ġdelay ed
Ġw ishes
Ġrel uct
ĠPy thon
Ġold est
ĠH onestly
Ġv oc
ĠC e
ĠT an
ĠB esides
friend ly
Ġtrad es
Ġm ales
ĠT ower
Ġpursu ing
Ġrevolution ary
Ġwitness es
ll o
Ġcons ists
/ /
b en
Ġaddress ing
Ġmilit ants
ch a
ĠCor p
ĠMod ern
Ġpro st
Ġout door
ĠUs ually
ĠH amp
es pecially
uck er
ĠS N
Ġfinanc ing
ĠD rug
X X
Ġas h
Ġas semb
ĠG h
n atural
ol o
ĠIm m
Ġmag ical
Ġpres erve
Ġsh ocking
ĠJer ry
ĠV lad
ĠBe h
Ġa est
ĠP ant
Ġvol unt
iffe rent
aw ks
Ġm m
Ġprepar ation
Ġsol ved
olog ically
Ġneg lect
Ġcourt esy
c ount
w atch
Ġgr ain
Ġr ude
Ġconflict s
lev ant
Ġdepos it
b in
Ġanx ious
ĠLear n
ment ed
ĠN azi
Ġh unt
ĠPol and
Ġcirc les
Ġsell s
Ġj ew
Ġtoler ance
Ġconf using
l on
Ġweeke nds
Ġst icking
Ġdist ances
Ġcontro lling
Ġambit ious
bs olutely
ĠOlymp ics
Ġteen ager
app er
ĠA B
ul ative
ar ound
Ġreven ues
ĠG ro
Ġst ays
Ġbur st
( "
Ġemot ion
Ġpro be
ĠMedic aid
Ġcir cuit
Ġant ib
ĠBro oks
z one
Ġan ch
bre aking
ĠK ings
ren cies
Ġcrimin als
ĠB B
vent ions
Ġtread mill
Ġdis orders
Ġreview ed
Ġswim ming
ĠHe art
Ġanal ys
ĠR s
ĠU b
Ġj ihad
ĠV anguard
r ange
Ġo ught
erv ice
Ġf t
Ġadvant ages
Ġl ung
Ġadjust ed
ri ke
Ġtax able
g ary
Ġconsec utive
ploy ed
s ize
I E
ĠPro gress
e gr
ĠMar io
Ġbl amed
ĠAll iance
Ġamong st
Ġthe ft
ĠMiss iss
Ġpack s
Ġdon ate
ĠF R
Ġm ouse
Ġsust ained
Ġbar g
ĠUkrain ian
Ġe ars
Ġsu its
Ġcelebr ation
n ie
l b
Ġpar ag
Ġc inem
ĠR ap
ï ¼
ĠWar ner
Ġr ows
Ġrestrict ed
ĠT am
ĠMedic are
ĠGr ant
ĠAl aska
Ġrefuge e
Ġl ens
Ġelect oral
ĠÂ ±
ĠW i
Ġvert ical
Ġen abled
Ġth umb
h ole
Ġgr at
ĠTit an
Ġcount less
Ġpat ri
Ġd irt
D E
ĠB ir
Ġoff set
Ġacc ord
che ll
ĠB eck
Ġp ound
ĠD al
ĠF a
Ġbas es
Ġdocument ation
ble m
Ġrec y
us er
Ġwin ners
Ġb ones
Ġhe al
ĠM as
Ġres idence
Ġur ge
ĠOtt awa
Ġbu gs
Ġen vironments
20 16
Ġwa ited
ĠPhil ip
Ġchemical s
Ġb ip
ĠG ard
ĠChair man
for ced
Ġexc itement
ĠR ound
Ġtut orial
Ġcop s
ĠP od
. ]
ver ted
Ġdis gust
ĠN ik
ĠD ak
Ġvari ation
l ifting
Ġcompl ained
ĠCl imate
P I
Ġsusp ension
Ġlack ing
l arge
ĠEd ition
Ġgrad uated
Ġb io
Ġbac hel
Ġcar rier
ĠO sc
ĠFl ash
ĠS ounds
Ġf ib
d ec
Ġped est
Ġbeat en
edd ing
ĠMan ager
Ġsubs cription
Ġgu ilt
ĠGr iff
ar o
Ġtransp arency
Ġachieve ment
ĠEntertain ment
is ers
Ġhe nce
spe cific
Ġdon ors
Ġacquis ition
ĠN iger
Ġcare ers
Ġoxy gen
-- -
st art
Ġpr iced
spe ed
Ġcre ep
} }
ĠGi ants
e lection
ĠJim my
As s
Ġc am
enc er
t te
um m
Ġin ch
ĠBu ild
Ġdo se
ĠA w
Ġmechan isms
Ġh ated
Ġmanufacture r
Ġreflect s
Ġj et
N E
iv a
Ġgrow s
Ġt ang
ĠQue ens
Ġtrust ed
Ġquestion ing
Ġver ify
ĠIm agine
20 15
Ġwh is
Ġsh itty
Ġgame play
ĠM C
ĠL O
th ur
Ġd uties
Ġsepar ated
Ġworry ing
u ates
Ġf ishing
Ġstr ain
m illion
Ġle aked
ĠVictor ia
Ġreact ions
e em
Ġen act
Ġh ub
St ation
ĠStan ford
T w
t ics
ĠT D
Ġexcess ive
Ã §
d am
ĠCanad ians
Ġinnov ative
Ġthe ater
ĠD rive
ap or
Ġrest ore
Ġharm ful
tr ack
Ġle ak
Ġmeant ime
ĠB R
Ġend ors
Ġdisp os
ot ion
Ġin box
Ġz ones
Ġp iss
ru p
Ġpress ing
ĠWor ks
f ish
Ġf li
ĠH ug
vers ion
ix el
Ġassum ptions
io x
Ġas ylum
Ġf art
ĠG PS
Ġtr ucks
Ġhead lines
Ġkid n
an im
ĠMar c
ĠLink ed
s k
Ġev ac
AT CH
Ġstab il
st orm
Ġvacc ine
od ay
Ġmin isters
qu es
Ġbiz arre
health y
Ġapp ropri
Ġj okes
oc ur
ĠW y
i ated
ard o
ĠL arry
Ġint end
Ġdes ert
al id
Ġind ication
ĠC row
ĠCopy right
ĠN ature
Ġj ealous
Ġpan els
Ġfasc inating
ĠS ep
Ġpo et
i ors
ĠE ss
L ook
gr oup
ĠStan ley
ĠT L
Ġro cks
ĠW at
d i
ĠN ich
Ġbu nd
l u
ĠP ear
Ġanim ation
Ġ6 1
Ġexperiment al
ĠIn n
Ġimm ense
ĠF le
Ġbomb ing
ĠFore st
Ġwe ed
Ġrad iation
Ġsl ot
ĠTal iban
Ġt une
Ġregard ed
Ġdefend ed
ĠO w
Ġpol ar
it ative
ĠN elson
ĠLouis iana
pre m
Ġ6 8
Ġact ed
Ġtaxpay ers
Ġo l
IS T
ĠF u
ĠS ave
Ġal ph
ĠBl ake
ast ically
ĠS elf
ĠRuss ians
Ġsl ip
ĠP ir
Ġex pend
ĠW ant
te nds
lyn n
rat ulations
Ġte ens
ĠCom put
Ġunderstand s
Ġacqu ire
Ġedit orial
Ġelect rical
Ġdocument ed
Ġsignific ance
S ec
th odox
ing ing
Ġa wards
Ġbull shit
Ġfre el
Ġworth y
Ġhe dge
Ġcomplex ity
P s
Ġexcept ions
Ġreason ing
ĠMP s
B N
Ġdirect ions
ĠH IV
ĠSubs cribe
Ġd ys
Ġemot ionally
Ġreason ably
Ġoper ator
st ration
ĠAl ong
Ġf iance
ĠP ick
Ġjur isd
tw o
om er
Ġfocus es
ortun ate
d og
Ġab und
S ee
Ġtext s
ĠH appy
ĠU I
ĠC ry
Ġdiagn osis
b urn
20 14
en ger
Ġnation wide
Ġmother s
ĠF if
Ġdepart ure
Ġadv ise
ipp i
l aim
ĠN a
vis or
ĠN ash
Ġtou ched
ĠColl ins
w he
Ġview ing
. ),
Ġwr ap
Ġfor b
ir able
Ġn aked
ĠChr on
A B
Ġcompar able
ĠNe ither
ĠBar b
Ġle ase
Ġall y
Ġg i
Ġtem plate
ĠT alk
Ġrepe al
Ġglass es
olit an
ĠT arget
ĠMal ays
ĠPe ace
Ġr ib
com m
Ġbene ath
Ġbl ess
Ġinvestig ated
Ġpolit ician
Ġinst inct
in als
Ġlist ing
ades h
Ġcreat or
â Ķ
ĠPhilipp ines
Ġconv iction
Ġco ord
C ol
Ġbit ter
Ġre nd
Ġtele phone
Ġbar rier
Ġsub t
Ġaccept ance
Ġrese mb
ĠAb u
âĢĿ )
Ġinflu ential
ĠSt ay
ĠEgypt ian
ĠM and
found er
Ġ ..
Ġde fect
Ġh ills
ur ches
Ġmunicip al
P al
angu age
ac cept
Ġwal let
ĠN ap
Ġmin s
im ir
Ġadv ised
Ġconcl usions
Ġoper ated
ĠAl tern
Ġearth qu
ĠMar athon
Ġth o
ĠL ad
at ical
ĠWor king
ĠTre k
ĠR u
Ġste ep
Ġsuit able
ĠR ace
Ġres erves
g ments
Ġdepart ments
Ġsing er
ĠTai wan
pie ce
Ġall iance
Ġathlet ic
ĠCorpor ation
Ġt i
Ġfeed ing
Ġadop tion
ĠCh allen
Ġbr ains
Ġw ound
ĠPri or
Ġt um
ch i
ios ity
Ġj og
m g
il ation
b es
Ġm asters
ĠSnow den
Ġmechan ics
Ġadvis or
Ġst ir
Ġmon etary
Ġad vertisement
Ġappro aching
Ġto ll
Ġr anging
ĠM D
Ġdis m
ĠK y
Ġmand atory
Ġt ale
os it
c ope
Ġinc ons
amp a
Ġbridesmaid s
Ġs atur
r ust
Ġavo ided
un ting
Ġdr um
b h
ĠComm and
ast ed
Ġup side
ĠS in
n an
ad i
Ġ3 60
Ġconfirm ation
Ġoptim istic
Ġst arter
Ġin app
Ġcat ast
Ġr itual
Ġover d
Ġsacr ific
Ġrid ers
ĠC ond
S orry
Ä ģ
Ġtra its
ĠAp pe
ĠL aur
act ly
Ġreflect ed
Ġtraged y
al so
ĠMod i
Ġequ ipped
Ġgener ous
Ġp ile
Ġl ake
Ġphotograp hs
ĠD ue
Ġcontact s
p ace
ad vant
Ġde leted
Ġre cept
Ġelect ro
Ġwire less
Ġk g
h ome
b est
umb led
Ġb ite
ĠD omin
Ġprov isions
Ġdeliver ing
l en
Ġwr ist
z ie
Ġimp rison
Ġtr ap
Ġconsist ency
J P
Ġcru el
ĠP el
m id
Ġfo am
Ġrad ar
Ġl anes
Ġconstruct ed
Ġbe ans
ament e
S D
ĠWay ne
E n
Ġmand ate
ĠHawai i
Ġed iting
ac ies
ol as
Ġpe oples
ĠOr ange
Ġd ense
ke ley
Ġnegoti ate
ult s
ĠR angers
Ġcon qu
Ġm akers
Ġlibr aries
ĠT reat
ĠC os
ĠRub io
ĠSte am
Ġrenew able
Ġgen et
ĠK al
Ġcult ures
ĠD VD
Ġbu zz
Ġor bit
ous ing
ar ians
Ġin aug
pro of
ĠD om
Ġt ar
ĠF at
Ġto es
Ġconsult ing
Ġrob ots
c ott
tt es
ĠS au
Ġinter rupt
ĠC itiz
Ġdist ant
ĠE C
ĠS ac
Ġgr ants
ĠH u
ĠSim ilarly
boy s
Ġens uring
Ġres on
Ġparam eters
ĠF ro
ĠMan ning
Ġsen ators
f ting
Ġwra pped
Ġaccompan ied
ats on
ĠL uke
Ġimm un
Ġout right
Ġlim iting
ĠN ative
U E
ĠDe an
ail ing
Ġexam ined
ĠCapt ion
les h
U D
Ġpath s
Ġmyster ious
ĠSt orm
b ig
ĠJ ess
Ġdisappe ared
Ġten ants
IC E
Ġtable t
Ġsec ular
ag u
Ġad j
Ġch ase
ĠOrgan ization
est one
t arian
Ġ: (
ĠCur rent
ĠAr ound
ĠT ot
Ġath lete
ĠJ en
ond a
Ġeval uate
pl ing
? âĢĻ
Ġdi abetes
Ġne at
ĠM orm
ur se
Ġgl obe
Ġdelic ious
ig hed
E d
ar med
Ġcult iv
g ue
Ġpers ist
ut her
ter ror
1 20
Ġun l
Ġcomp osition
ĠRog er
ĠF ight
Ġelabor ate
Ġatt orneys
Ġwor ries
Ġtravel ed
Ġenter prise
er to
ĠHamp shire
ĠAM D
is ive
ĠB L
ĠWik i
ĠHam as
Ġdem o
ĠHT ML
g iving
B ay
get s
Ġdesign ated
Ġdec ides
ĠPlay Station
ĠC OM
Ġinf ant
S ounds
eral d
Ù Ħ
ĠK night
mind ed
ĠETF s
ĠL ots
Ġâ ĸ
Ġsophistic ated
I d
Ġelder ly
Ġg room
ĠEnvironment al
ug by
s is
Ġorgan ize
ess ional
ro lling
Ġstress ful
Ġn ull
Ġpl acing
in ate
Ġdisc rimin
Ġli ability
Ġsee ks
ion ed
Ġaccount able
Ġaccus ations
ĠKick starter
be it
anc hes
Ġsh ifts
ĠSwed ish
Ġins ights
Ġin hab
ĠF L
Ġre ign
ac er
r ons
Ġdispl ays
Ġquiet ly
ra pe
Ġexec ute
Ġdevast ating
Ġinter vals
Ġwond ered
ĠRead ing
Ġign oring
Ġhar vest
ĠR h
Ġha z
Ġlast ed
ĠMur phy
Ġeth ics
j e
ĠA y
Ġpain ted
ĠEx press
Ġcont ents
ĠRon ald
ĠY ang
Ġt ong
ĠP L
Ġf ont
it ably
Ġfru its
ĠM aking
Ġend urance
ĠB ec
Ġg reet
Ġlicens ed
Ġlab els
ol s
Ġaim ing
Ġprosec utor
Ġbe ll
Ġstrong est
ĠSo on
Ġint u
Ġs ons
ĠPr int
Ġess ay
Ġeduc ated
Ġdist inction
Ġprosec ution
Ġs ink
Ġp or
ĠBe at
Ġspread ing
ĠAny thing
g ence
ĠAnt i
Ġmurd ered
Ġconsum ing
m ap
ot ton
Ġmean while
ĠHe at
Ġpra ise
ĠM ine
Ġargu ably
ab a
Ġnovel s
Ġhigh way
F S
Ġpe nding
p op
Ġpract ically
ĠA FP
ĠAgain st
ip es
Ġadministr ative
pr om
sh ore
Ġsp otted
Ġtrans formation
un ge
Ġan onym
). [
edd ed
Ġtransl ation
Ġvari ations
ĠB enn
Ġcan cel
Ġfr action
ĠG re
Ġrespons ibilities
n on
Ġsc am
Ġcontro ller
Ġto b
Ġhe aling
Ġtend ency
val ue
Ġdes cend
Ġpo lling
Ġhealth ier
Ġappreci ation
T ON
Ġmat ure
Ġpen alties
y our
Ġfle w
ĠD S
Ġappe aling
Ġoccup ation
Ġdet ention
Ġfulf ill
ĠD or
Ġep id
c re
ĠV in
it ate
Ġicon ic
Ġreb el
j amin
Ġb c
Ġf ires
Ġcrowd s
Ġ1 10
ĠDef initely
Ġphotograp hy
Ġoper ators
Ġrespect ed
ĠSing h
Ġcomment ary
Ġconsult ant
augh ters
Ġsent ences
he lp
c itation
Ġnewslet ters
Ġfac ulty
alth ough
R ead
Ġexch anges
ĠMot or
ĠR ain
in ance
m n
Ġprot otype
ore r
Ġbe ars
Ġtrig gered
T y
ik h
ic iary
se ud
Ġven ues
Ġpra ised
Ġto ys
Ġintent ions
Ġsomet ime
ĠPost s
Ġgener ic
Ġexpl oration
wr itten
Ġ7 6
Ġc ouch
Ġtr apped
Ġlong time
z es
Ġour s
h alf
ĠSaf ety
ĠBr andon
Ġeas iest
ĠH us
ĠMcC on
Ġobserv ations
Ġmiss iles
ĠM obile
Ġt att
Ġprob ability
Ġsh y
ĠH ann
ĠAs ked
ĠL ady
AL L
im s
Ġmed ian
Ġaltern ate
ll or
th al
ĠP i
ĠCub a
Ġappe aring
Ġsing ing
omet imes
Ġdesign ers
per t
Ġer u
Ġcelebr ated
ĠMississ ippi
ĠG host
ĠKurd ish
Ġjournal ism
Ġliber ty
Ġbehavi ors
Ġover ly
ĠBloom berg
ĠV A
unt u
Ġse nds
Ġincent ive
Ġch amber
Ġnew er
ĠW ard
gr aph
Ġappro ve
ut t
ĠMc M
Ġflu id
ĠAl ways
s ized
Ġfail ures
d ict
ĠHun ter
Ġtun nel
or ient
Ġprevent ed
ber y
ĠL en
ĠS ong
Ġ1 30
Ġass ists
Ġp owered
Ġflo ating
Ġhy brid
Ġ198 4
Ġunf ortunate
Ġinvent ory
ĠD od
o i
? '
Ġsec ured
is ations
Ġcap ability
ĠL ie
Ġpray er
ar at
ch arge
Ġany time
ĠI an
ĠD og
AT ION
ĠG ab
Ġlay out
ĠPatri ots
ĠQue bec
Ġtempor arily
N ame
Ġh ips
ĠTh r
* .
ĠM ov
Ġcle ver
Ġwitness ed
Ġal ike
cel ona
ĠR ow
Ġaccident ally
Ġce ase
Ġguess ing
ĠB ooks
Ġwork place
ĠNot es
l ooking
ĠM ight
Ġcalcul ate
Ġ198 8
Ġ vel
cent ury
Ġcom ed
Ġheart s
ĠK it
âĢ ³
Ġrespect ive
Ġscrut iny
Ġplan es
out ing
Ġexplos ive
Ġwhere ver
Ġ' '
Ġmechan ical
P er
Ġun st
Ġhe aven
ĠJac ob
inc ial
Ġ20 21
m oon
ĠG ene
Ġs isters
ĠO M
Ġy a
Ġmet h
Ġeth ical
st ep
ĠRe id
ĠAir port
ĠRed s
c at
Ġperm itted
ĠMag azine
Ġinter ven
Ġgra ve
er ving
ĠMor ning
ic he
ĠAD HD
any ahu
Ġdes p
ec onom
Ġvit amin
ĠLa ure
Ġthread s
Ġo x
Ġinstall ation
ĠMarsh all
C al
Ġnewsp apers
Ġhost ile
EM ENT
ĠMel bourne
ia h
Ġwh ilst
in vest
Ġsp y
y on
Ġpubl isher
Ġ6 9
Ġhe y
ĠMit chell
ĠN atural
Ġlif ted
ĠHot el
b les
e very
ĠComm ons
Ġconst rain
ĠF lynn
ĠL iving
Ġdoub led
Ġj ack
T ime
pe ople
Ġmis under
Ġcomm ands
ĠN az
Ġpress ed
Ġfree ly
Ġsubsid ies
Ġstre ak
Ġhighlight ed
Ġtechn ological
Ġident ifying
Ġpros per
Ġsh ipped
st ock
Ġadequ ate
AS H
ĠFer gus
Ġfort un
ĠF arm
C o
Ġse am
ĠIn v
Ġhum or
ne ath
Ġapp le
Ġfl ower
Ġpre view
u rop
Ġse aled
ĠP ur
ĠMad rid
ĠTod d
iz ard
n amed
ĠSh op
ic ient
Ġtob acco
ĠPlay ers
Ġsw ord
Ġapolog ize
Ġanticip ated
L ast
ke eper
ĠH um
Ġprotect ions
ĠCamp bell
Ġbelie ving
he w
ĠBer keley
ĠS essions
M AN
Ġder ived
is le
ĠR y
wr iting
Ġdifficult ies
ĠTr aining
Ġm ol
Ġpun ish
iz able
Ġnot ably
ĠH P
Ġgrab bed
Ġres olved
Ġtoile t
Ġagric ulture
op en
M O
New s
Ġphilos oph
ĠN at
Ġunder grad
P ost
Ġstrict ly
Ġcl ue
ers ion
Ġpred ec
Ġent ities
oty pes
Ġp ockets
Ġconsum ed
Ġh obbies
Ġr ab
Ġch unk
Ġm igration
Ġorient ation
Ġdirect ors
ĠBr and
Ġhur ting
ĠH uff
ĠB ond
su ccess
rib ly
ĠAr ts
Ġdecre ased
zer land
ation ally
ĠBl u
Ġf ence
Ġaccommod ate
Ġhum ili
old ing
ac ent
ĠSen ior
Ġinfl amm
Ġg ly
Ġdo ctr
ĠPer form
ĠB aker
id th
Ġall ocation
Ġh acking
Ġbr ush
ĠM ust
DA Y
ĠI C
Ġin hib
ĠChristian ity
Ġcrypt ocur
ĠLaw rence
Ġtrans mission
Ġpresum ably
ĠR ice
Ġr ivals
ful ness
ĠWik ipedia
ĠAl t
Ġtransp arent
Ġ0 1
Ġdon ated
ĠF ocus
l if
Ġl yr
Ġpart ial
Ġcomple tion
Ġimp ose
own ers
ĠK yle
ĠW atson
ĠK as
ĠCor ps
Ġsh ifted
ĠJ u
Ġc ups
ĠWh it
Ġre aches
Ġconsequ ence
ĠSpe aker
ĠNever theless
ĠStart ing
Ġcomment ed
Ġhor iz
ow th
Ġa uction
go vernment
ĠK u
ĠL ions
ĠQu est
Ġoper ates
Ġbutt ons
Ġrhy th
ĠR T
Ġbatter ies
Ġp iÃ
le an
Ġgener ating
ĠBen jamin
bo ards
AT ED
Ġz omb
Ġf ucked
win ning
Ġinv itation
F ig
ðŁ ı
L ike
Ġcitizens hip
ĠPok Ã©
ĠM ort
R uss
Ġed ited
is ode
Ġloc ally
Ġche er
ĠEag les
Ġw ings
L D
Ġisol ation
ac ular
Ġattend ance
ĠR oc
Ġkn ocked
ĠAct ually
Ġcon ced
Ġ198 6
ĠS aint
Ġwe aken
ĠPark er
Ġshe d
Ġto ken
m aybe
Ġsevere ly
Ġinstru ments
Ġviol ated
Ġd ated
Ġbase ment
ĠMe et
Ġser ial
ĠGu ide
e b
Ġc odes
Ġaren a
Ġcon j
Ġimag ination
ip her
Ġru in
Ġhol idays
ĠRec ently
r ained
Ġstr anger
Ġf itting
ĠNet anyahu
ĠVlad imir
ĠI l
Ġdev oted
Ġdam aging
p in
Ġd ips
Ġjew el
Ġcomput ing
Ġd ive
2 000
Ġmetab ol
ĠSw iss
Ġwas ted
ĠHe y
Ġdis hes
Ġaffect ing
amp s
Ġdeb ates
ĠFin ance
com ed
Ġstret ches
Ġse ctors
ĠB art
ra it
Ġdemon stration
Ġcl icking
ĠT s
Ġapp et
Ġc her
Ġhope ful
Ġto y
is y
Ġcompass ion
Ġbare foot
Ġ* **
Ġp ics
Ġref lection
Ġste am
ab ling
Ġact ress
ĠInd ex
Ġsc hem
Ġarrest s
Ġfire arms
ri k
Ġf est
- |
Ġmar gins
Ġdistur bing
ĠG a
ĠBar celona
ĠH i
Ġaccur ately
ĠAm b
OO D
Ġreve aling
s ign
Ġout er
D es
ĠUlt imately
ĠMor ris
Ġdon ation
Ġincorpor ate
Ġre duces
Ġbankrupt cy
ĠH o
r ations
oy d
Ġrecom me
Ġpre val
Ġlaugh ing
Ġthr ows
Ġrent ing
ab il
ĠB ird
ĠCongress ional
Ġg rey
ĠFed eration
Ġaud iences
U s
pr ising
ĠN umber
ĠY ahoo
Ġclar ify
Ġg ri
t est
Ġpled ge
Ġoper ational
es ity
Ġ7 7
Ġh ier
and ed
Ġag greg
Ġval ued
Ġb out
Ġprec ious
i ots
Ġcompl iance
Ġc ad
Ġde lete
Ġfor ums
Ġgl uc
ĠC and
ĠA th
Ġtri ple
ern el
Ġsupp orter
Ġl ap
ĠT S
Ġhypot hesis
Ġo we
Ġpri est
Ġcolle ges
T ry
Ġdeliber ately
Ġprop ri
â Ļ
Ġbar riers
Ġas leep
ĠInc re
act or
Ġload s
Ġscream ing
ĠHis pan
ĠTer ry
Ġgr ace
Ġoff season
ate ur
ĠRegard less
c ode
ĠFergus on
Ġcertific ate
ĠHe nd
Ġc ater
Ġoverwhel med
Ġg re
r in
Ġh ind
f ig
at ched
qu ality
Ġamb assador
hand ed
Ġr ushed
Ġle ather
ĠBl og
Ġorgan izing
roll er
Ġshe ets
prof ile
Ġaff air
at in
Ġdiscl osure
F I
Ġeconom ies
Ġbe ers
Ġtreat ments
ĠSte in
ell a
Ġ7 3
Ġshoot er
ĠLyn ch
Ġhand y
S ame
Ġc ort
Ġobserv ation
ĠS em
ĠR A
ĠD ri
ĠF ixed
Ġdet ained
ĠMedic ine
Ġkill s
ĠTe a
Ġclar ity
ĠA wards
ĠSwit zerland
fe e
Ġquant um
ĠCommission er
b ad
Ġh ors
are st
A ct
ĠY ears
Ġvir al
Ġ7 4
Ġdeleg ates
ĠB h
Ġtrain er
ĠDak ota
Ġexplo it
Ġb ucks
Ġdr ones
Ġspecial ist
ĠApp arently
Ġrece ives
Ġchart s
ĠNC AA
Ġtrick y
pe nds
ĠAren a
Ġcrop s
ĠCoal ition
Ã ±
Ġ7 8
Ġsell er
ĠRet urn
ĠCamp aign
ĠS earch
ĠInd ians
Ġpat ience
uss ion
ag ging
ĠBar ry
agon ist
ruct ive
Ġcir cul
Ġve gg
Ġdis par
j an
Ġimp ress
Ġbre ach
ĠOx ford
li ver
sh ot
Ġfrank ly
Ġexpect ation
ur i
Ġsp ouse
ĠD raft
ĠLeg isl
M us
O ver
gg ed
re ck
Ġhe els
ĠPr in
Ġpe pper
Ġcolle ague
Ġmi xture
Ġcount ies
Ġhy pe
om o
Ġes p
Ð ²
ĠAd vertisements
Ġdraft ed
Ġovers ight
h ol
Ġpract icing
Ġlike lihood
run ning
Ġcorrel ation
ee k
ĠF DA
p y
ĠM aine
g ans
i ar
Ġt ier
ĠT a
ĠB ah
ĠP ed
on ia
Ġmeasure ments
Ñ ı
Ġqu ad
sh irt
Ġst raw
ĠEv ans
Ã ¥
are t
The n
ĠK erry
ĠT ampa
Ġmill enn
Ġaccount ability
ĠN i
as m
ĠMil itary
Ġcreat ivity
ĠL ock
lim inary
ĠFor ces
ab l
Ġaffili ate
ĠPolit ical
Ġref using
ĠE mb
Ġass ured
Ġconv inc
Ġdeadl ift
i ology
Ġhat red
Ġhead line
Ġsl a
olit ical
ĠH ide
ĠR C
Ġ14 0
K e
u um
Ġwhe els
Ġsn ap
Ġinst itutional
ĠCont act
Ġfurn iture
ĠGu y
Ġhapp ier
Ġst un
ĠS alt
ĠR ail
Ġretail ers
id ges
ĠS ud
Ġattrib uted
z o
Ġw are
Ġachie ving
Ġtradition ally
Ġhot els
Ġcontinu ous
Ġconnect ing
ĠP retty
ĠM E
Ġpur suit
Th ose
ĠRec ords
Ġadvoc acy
ĠFant asy
ĠIn side
Ġn ode
Ġp iv
iv an
Ġautom ated
Ġess ence
ĠJ S
ĠEn joy
Ġproblem atic
ĠDou g
Ġb ass
az ed
ĠBuff alo
Ġirre levant
Ġd ign
Ġcance lled
M ore
Ġplan ner
b rew
ĠTe xt
â Ħ
ĠK rist
pe red
out heast
Ġdecl are
l ie
Ġunder neath
âĶ Ģ
Ġstruct ural
Ġnice ly
Ġsu ed
ĠAlber ta
n or
Ġmis erable
Ġemer ge
ugg ed
Ġfemin ist
w estern
Ġd read
ĠCh ance
or o
Ġpartic les
Ġch urches
v ation
ĠD ub
Ġren ov
Ġmarket place
Ġnight mare
ĠF ried
Ġp ause
Ġan arch
Ġnon profit
ĠTr ad
Ġm amm
Ġreal ise
Ġ198 7
Ġv est
g ot
Ġany ways
ĠE lection
ant o
add y
ier re
ĠT un
ur ring
Ġsh ifting
ĠD A
Ġcomp osed
ĠBre ak
Ġwel comed
Ġsh aped
Ġm aker
Ġfr ight
20 13
Ġsevent h
Ġvis a
ĠAbb ott
Ġn arc
Ġpen et
Ġsl ave
ĠGr ay
Ġback wards
Ġm ast
ĠMcCon nell
Ġ; )
ĠG er
Ġshe er
ĠBr us
Ġappe als
id ity
ĠW ATCH
Ġt urb
Ġless er
ul pt
Ġform ally
Ġover head
Ġwh ites
Ġch ains
ount ered
Ġh oly
Ġis lands
Ġreal m
Ġarrange ment
ess age
Ġthorough ly
ude au
es is
Ġnet working
r ot
PD ATE
d ata
Ġstimul us
Ġfig uring
Ġcompl aining
ĠR io
ĠKir k
am n
Ġmon op
ĠNe il
Ġsound ed
Ġfl ows
Ġment ality
ke ep
ĠTem ple
Ġparticip ated
Ġt ub
su its
Ġdisappoint ing
Ġun e
ĠCo hen
le ton
ĠD est
Ġilleg ally
st an
Ġcr ude
Ġoptim al
Ġ8 2
ĠStud y
ĠZ ero
Ġcomple ting
AN T
ĠFe el
ĠM itt
Ġfatig ue
ĠpiÃ ¹
ĠðŁ Ļ
Ġsk illed
ĠSol ar
Ġsec rets
Ġenc ountered
ugg ing
Ġteen age
Ġ197 9
Ġdis pro
N ice
Ġch op
Ð ¼
gr ounds
s ur
à ¸
Ġt rop
ibl ings
Ġabs ent
au cus
Ġlist ened
Ġsla very
Ġl oses
Ġdestro ying
ĠHel p
il ateral
ĠC u
pp o
Ġmis leading
Ġmort ality
bu ilding
on ge
Ġiniti atives
Ġgrav ity
Ġremind s
Ġconduct ing
Ġh orn
Ġn it
Ġgrand mother
Ġjust ified
ĠFrank lin
Ġoblig ation
Ġm ock
N G
ĠWal mart
ĠR at
R O
Ġbas ics
se lling
ĠInvest ig
ĠB Y
Ġconserv ation
ĠG PU
ĠNor way
Ġag ing
Ġexp ed
20 12
Ġskept ical
Ġsp am
ll ers
ĠKe ith
Ġstat istical
ec hes
Ġatt itudes
r idge
ĠCon c
Ġrum ors
ĠF CC
Ġobs erve
Ġcow ork
Ġ) ;
Ġperm its
Ġear liest
Ġscreen ing
1 10
Ġ16 0
Le aks
or ia
ĠSus an
ĠH S
st ore
Ġl ined
Ġn ick
Ġnons ense
cons cious
c ulation
ĠAdd ed
Ġle af
ĠPost ed
Ġfold er
Ġincent ives
Ġnav igate
Ġbuy er
Ġindic ating
Ġsh irts
Ġfem ales
Ġsubur bs
Ġ20 22
ĠSc ar
ĠOcc up
ĠC orn
Ġden ial
Ġpos ed
ĠDou gl
Ġagric ultural
Ġinf ring
Ġj acket
am an
ĠU RL
Ġres igned
Ġ198 5
ĠI G
Ġsoc ially
res pect
or ical
Ġb ikes
ĠCh uck
âĸĪ âĸĪ
ĠSch w
Ġreal izing
ĠN av
ĠAn aly
Ġ7 1
ĠDep uty
Ġline back
em it
Ġbud dy
gu ard
Ġt el
r ative
ĠMem bers
ai res
Ġh ike
Ġpop ul
ch ron
Ġhor izon
Ġtouch ing
Ġstraight forward
Ġad min
ĠMet hod
ry ption
on i
Ġ19 30
A w
ĠGl ass
bor ne
int age
Ġd aughters
H onestly
Ġpull s
Ġsuspic ious
qu al
Ġde ce
ist ing
ic ut
ĠR aid
Ġher itage
ĠE li
Ġag rees
fe ld
Ġbegin ner
ĠAcc ount
Ġh ood
Ġp sy
ĠB aby
Ġimper ial
red ict
ĠChrist ie
Ġlau nd
ĠPart ners
m ain
9 00
Ġcy cles
ĠQu ick
et c
Ġwork force
Ġsubstant ially
- $
Ġ- --
ig ma
ĠSe lect
Ġca ffe
Ġinapp ropriate
ĠLinked In
ĠS L
c up
ne red
Ġcons olid
Ġsatisf action
\ _
r c
Ġsoc ieties
Ġtour ists
Ġcred ibility
Ġwood en
ĠColumb us
âĦ ¢
ĠF isher
ow ell
Ġanim ated
val id
Ġcount ed
Ġstr angers
ĠCre ate
Ġd airy
ĠTr udeau
ĠAr ctic
oles ter
Ġ= =
ĠRog ers
ol ine
Ġlast ing
ĠIn it
ĠAd vent
ĠG arden
ĠRe ferences
Ġgen ius
Ġch airs
Ġl uc
Ġg au
im ens
o j
Ġsal aries
Ġli ver
ĠPh one
au c
Ġ Ġ
f old
T IS
t able
Ġinf er
b us
Ġlay ing
or ate
ĠL ost
ĠTH IS
Ġlicens ing
sec ond
ĠTra il
medi ate
o king
ĠTy ler
point s
Ġun limited
ĠCount ry
Ġre he
r ane
au x
Ġwor ship
Ġtw itter
Ġsu prem
m aster
rop olitan
ĠPokÃ© mon
ĠPu erto
ĠLiber ty
Ġsynd rome
ut ical
Ġsepar ately
Ġund ers
T ION
o ard
Ġgreen house
G u
] )
so ever
run ner
ĠW R
Ġannoun cing
fr ame
nect ed
T oday
Ġam pl
ĠSp ot
Ġbr acket
Ñ ĭ
Ġcompat ible
Ġs her
ĠC inc
Ġex agger
IV E
] :
Ġab used
ĠPr om
hold er
e nder
.. ."
ĠPr inc
Ġrif le
ĠVenezuel a
l ash
Ġl aser
raw l
Ġorder ing
ĠC ertain
Ġimplement ing
Ġcreat ors
f a
Ġme g
st ory
Ġspons ored
Ġide ological
ĠN ort
Ġgr ay
Ġemp ire
ĠCharl otte
Ġdeal ers
Ġind irect
ĠOsc ar
s omething
d rop
Ġcor ners
h al
Ġpre ferences
Ġprocess or
ĠN ice
Ġinv ented
Ġaver aged
Ġb um
ĠG O
o ffic
ĠCent ury
Ġimag ined
Ġid iot
20 17
ĠSoft ware
ĠArk ansas
pr ot
Ġgl ob
Ġboot s
ur red
Ġrespond ents
Ġr ides
Ġrandom ly
Ġsepar ation
Ġcondem ned
Ġdif fer
Ġthere by
Ġwind s
ĠM i
ĠC arr
Ġtr icks
Ġtransl ate
Ġremote ly
Ġconclud e
Ġlegend ary
Ġfe as
ed ge
ĠIM O
Ġste pping
Ġeval uation
Ġinc on
d ig
Ġinfect ed
Ġarri ving
ĠH A
force ment
Ġmet ric
Ġdis ability
Ġcontract or
Ġelimin ated
resp ons
Ġrecru iting
Ġdis advant
Ġcorpor ation
Ġg ambling
e u
ul um
ĠB os
Ġcontract ors
ĠB und
ĠB ou
v ar
Ġdem ographic
Ġtrad itions
Ġir rit
p owered
Ġfirm ly
Ġchem istry
Ġh ilar
Ġbel oved
N et
Ġe go
Ġfar ms
Ġyou t
ip h
inn ati
Ġintention ally
ĠF el
Ġcar ing
Ġment ions
ĠO wn
st ruct
ĠBr ady
ad ays
or ig
Ġdraw s
W ould
ĠJ oy
Ġ8 8
ĠH M
Ġphotograp h
Ġsucceed ed
) |
co ins
Ġinev itably
ĠConserv atives
Ġperman ently
by n
m ons
ĠR ogue
ĠG erm
ĠCh apter
ud ge
Ġimm igrant
W ill
Ġshe lf
ĠR aven
ĠC her
ĠCo ach
Ġdesper ately
ĠJ a
AC K
ĠJ ake
Ġwho ever
Ġret reat
ĠB ody
Ġcomp ly
Ġbl own
accept able
n ote
Ġhuman itarian
Ġmotor cy
ĠO pt
ĠCir cuit
ĠRE AD
Ġwhat soever
Ġdown s
Ġdetermin ation
ĠCol lect
Ġmass es
ĠO liver
Ġto oth
Ġrecip es
Ġst iff
Ġmat ched
er d
Ġp ad
back ed
as i
li b
Ġcart oon
ĠAr thur
ĠC ass
Ġcost ly
oo g
ĠSh an
L ove
Ġbet ray
ĠIm pro
ĠWW E
ĠMar ia
ĠP ract
f ile
Ġac res
Ġemb edded
th a
Ġintro ducing
ĠTh under
Ġspace craft
T R
Ġdetect ed
f ox
Ġjud icial
Ġelev ated
Ġover th
Ġroutine ly
L ist
Ġow ning
Ġarm or
Ġt ensions
D C
Ġbra ve
Ġmet a
Ġfun eral
ias m
g ree
Ġde ployment
Ġr ated
Ġquick er
Ġmagn itude
Ġcr own
Ġs iblings
Ġsens or
Ġtermin al
ĠM ission
Ġsol ving
Ġeconom ists
Ġfol k
Ġch ap
Ġth irty
Ġlif ts
de v
Ġtong ue
Ġk icking
ĠM agn
ĠAn im
Ġfunction ing
ĠM ade
umb ling
Ġc ure
o a
ĠS aints
Â Ķ
ant i
ec d
aug hed
Ġwilling ness
Ġinsp iring
Ġter rain
Ġwh istle
. ).
ĠC ann
M od
^ ^
Ġlect ure
Ġqual ities
ĠRel ations
Ġint imate
ĠCr own
ust ers
Ġsub mission
enn a
Ġmem o
Ġre un
Ġfundament ally
p g
Ġinter rog
UT ERS
Ġwh oles
ace utical
Ġlavor o
ist ani
ool s
ĠD anny
ĠTurn er
rib ution
ĠE M
ĠF em
ĠF ab
ĠHar vey
Ġstart ups
Ġcongr at
ĠAn ne
Ġr ushing
ĠV irt
Ġnutri ents
ig ers
Ġch ill
ĠÂ ·
Ġdiet s
Ġve t
ĠMad ison
ob ia
ĠH unt
Ġele ph
Ġedit ors
Ġp seud
ĠSh a
Ġcorrespond ing
ĠSt ars
Ġy e
Ġclos et
d ad
Ġreal ised
f il
g on
i pt
Ġcons iders
wr iter
u ity
( '
Ġr all
b art
Ġal tered
Ġmed al
Ġsear ches
ĠSe ven
Ġst icks
ĠT aking
Ġhold ers
Ġwarn ings
bs ite
Ġform ing
Ġab ol
ver ning
Ġout fit
Ġbus es
S pe
Ġover look
ĠN in
Y ep
ĠJeff erson
v ol
Ġhe m
Ġcapital ist
Ġminor ities
Ġcondem n
he y
Ġdeclar ation
Ġsocial ist
Ġb ounce
ĠW onder
Ġinv ites
ĠP ros
ĠLuc as
Ġspark ed
ĠVer izon
Ġdam ages
Ġcollaps ed
ĠTh or
Ġweight ed
T ER
ĠSe ems
! ).
ĠRe qu
Ġ: :
w au
ĠC hen
Ġaut ism
Ġbr anches
Ġmid night
ĠCl ar
Ġca ut
d irect
Ġ10 1
Ġcelebr ating
ĠMem orial
ĠBrus sels
Ġdisc on
Ġsurviv ors
ĠCommun ist
Ġcatch ing
Ġf ict
Ġan ime
ter ior
Ġblog s
ĠOk ay
Ġinst ruction
form ed
Ġed ges
Ġco at
Ġex ports
ĠPr im
Ġl aughed
ack er
Ġhand les
ĠIm per
ament o
Ġident ification
Ok ay
t oo
Ġclin ic
Ġun healthy
Ġdig est
Ġb un
S ince
b ot
Ġunc ons
G r
Ġtrad em
Ġcr ashed
Ġsequ el
Ġmac ro
ĠK a
Ġcast ing
Ġlin ear
Ġeat en
Ġfar ming
Ġindepend ently
Ġ> >
Ġpled ged
ell ar
ĠJ ets
Ġheav ier
c ost
Ġaud it
Ġcl uster
Ġend e
Ġin ex
ĠM VP
Ġwa ist
ad ows
ĠCle an
Ġro lls
Ġspec ified
Ġconsider ably
ĠUnivers al
ay ed
ĠW ol
Ġenjoy able
Ġconven ience
ĠHoll and
dri ven
Ġmon sters
Ġun ity
ank ed
Ġr ip
ĠT ol
ĠConnect icut
Ġadv ances
Ġequ ation
Ġload ing
Ġtrave lling
ĠCinc innati
mar ks
Ġso da
VER TIS
ur u
Ġinv iting
ĠBud get
ĠUr ban
ac ious
Ġpre st
m ax
Ġadm its
Ġtransl ated
ie ve
s ky
Ġadapt ation
Ġwrest ling
ĠTit le
is ible
ĠUn iverse
re ach
Ġvend or
Ġspread she
c m
ĠWe iss
ow een
Ġplan ets
Ġshare holders
Ġin sect
Ġn ail
Ġdem ol
Ġd ash
ĠCam bridge
c king
Ġbreat he
cond uct
ĠIs lands
Ġpredict ions
ĠP ast
ĠStud io
Ġspe nds
( );
li ers
ĠO ften
ĠD iam
ĠAg ree
Ġeconom ist
Ġste aling
ĠT ob
b ul
N Y
Ġhalf way
ĠCong rats
G ener
ĠRod rig
urn ed
Ġen ables
cl osure
ĠRec ord
Ġret rie
Ġle ap
Ġteen agers
Tw o
Ġoblig ations
ĠS i
oc aly
oc ity
Ġrep et
wau kee
ip ed
g ian
Ġapplic able
Ġtr agic
Ġg ard
Ġpand emic
A dd
ret ion
Ġprov incial
ail and
Ġenh anced
m outh
ĠInt ro
Ġn asty
Ġha ul
Ġ9 8
Ġp istol
Ġ3 50
ĠK am
AR D
ĠRo om
Ġinn ings
ĠWiki Leaks
ĠZ h
Ġ ì
ĠB ears
Ġdr ain
Ġc m
ĠC M
Ġliber als
ĠD R
I O
ĠA G
Ġw ard
ĠO d
Ð ´
Ġlyr ics
ĠVer mont
ĠWar riors
Ġout let
ĠH ills
ĠCars on
ĠP ence
ĠPri ze
ĠP ap
Ġelectron ics
i op
Ġmess aging
Ġover time
n ut
Ġdecl ining
Ġmeas uring
t or
Ġair line
be an
Ġw aking
olester ol
Ġm ush
ĠMer kel
Ġm elt
ĠP O
Ġunder mine
Ġp el
ĠPerson al
Ġsuspic ion
Ġcoc aine
ul ent
ĠP E
Ġanaly ze
J ohn
erv ation
Ġin e
ĠAm y
Ġaw a
ha ul
ro se
Ġregul ators
Ġan ecd
ĠS or
o ons
ĠC ash
/ .
Ġpriv ately
ĠCor byn
Ġestabl ishing
Ġgluc ose
Ġtw in
Ġincl usion
ĠH ub
Ġcomp os
Ġsu p
Ġtu ition
Ġ Ï
Ġtr ace
Ġfix ing
Ġtransform ed
w idth
f ive
Ġcivil ization
ed ed
acc ur
Ġs oup
ĠM B
ĠHind u
W A
ĠG ates
Ġrel ating
Ġunh appy
Ġlength y
ak y
ĠSpe cific
Ġc ub
ĠBelg ium
Ġexhaust ed
Ġaccording ly
ĠBrad ley
Ġdefend ers
ĠProf ile
op ard
Ġm igr
Ġhoriz ont
Ġten ure
elt a
Ġc oding
Ġs lic
Ġn urse
Ġhack ers
Ġmed i
z i
p ur
Ġa in
Ġfl uct
om atic
l ation
ĠCommun ications
h is
Ġcont am
ul ously
Ġspe eches
ĠPol ish
ĠMon th
Ġlegisl ature
pe ction
ĠA ve
Ġsa ves
e or
Ġ8 4
Ġded uct
ĠTr uth
Ġpe an
Ġp add
Ġr am
Ġpay check
Ġafter math
s ki
Ġcand y
Ġf ats
Ġeffect iveness
Ġlobby ing
ĠDou ble
ĠIndones ia
ĠConf ed
Ġre lying
ĠE dd
ential s
Ġdr ill
Ġf ond
Ġloc als
Ġgr ades
Ġ Ø
ĠDI Y
Ġw and
pl an
al og
Ġadd ict
bu ild
Ġrelax ed
Ġarbit rary
ĠS ent
ĠK le
Ġmount ed
ĠF ly
ĠLe af
Ġlad der
ord able
Ġself ish
at on
Ġf ierce
Ġarrange ments
Ġhelicop ter
ĠN ut
ĠW E
ES S
Ġsubst itute
ĠG B
Ġsn aps
per or
Ġwas ting
ĠL ED
Ġalbum s
Ġparliament ary
act ic
Ġcon vey
Ġm all
ĠSpir it
Ġm ph
ue z
af i
Ġd ick
Ġc od
Ġcaffe ine
Ġp ale
Ġloyal ty
Ġmist aken
Ġhi king
Ġ __
Ġ198 2
ĠUb untu
Ġfresh man
Ġvill ages
ĠPet ers
Ġcelebr ity
Ġble nd
Ã© s
ĠEl sa
P T
Ġrec ount
s ource
Ġfe ared
ĠR osen
Ġbas eline
Ġ0 2
ell ing
Ġgr asp
Ġpres cription
IC K
Ġauthor ized
ĠÃ Ĺ
u it
Ġconvinc ing
qu et
Ġexpress ing
ĠG arc
Ġcock tail
ĠGall ery
aren thood
ul se
ĠDougl as
Ġgo verning
p se
Ġdel ays
" ?
Ġbelong s
o ft
Ġquant ity
Ġ8 3
Ġdirect ory
Ġref und
sh ould
Ġthreat en
ĠL ane
Ġnecess ity
f at
ĠL oc
ĠDe pending
ig m
Ġinter ference
Ġdet ain
p ically
Ġ198 3
U SA
Ġlabel ed
ĠB S
Ġr age
ĠH em
ĠDe vil
Ġvary ing
ĠArgent ina
Ġsexual ity
ĠCl ose
Ġinteract ive
Ġbi ology
Che ck
f ix
Ġbr ick
Ġout look
Ġfound ing
ĠAl bert
Ġap ology
st age
Ġstream s
Ġsc ulpt
Ġbot hered
Ã £
Ġg reed
T e
V iew
Ġgam ers
G S
ott o
Ġlaw suits
Ġch asing
Ġpsych ologist
the ning
Ġmet rics
Ġansw ering
ĠSh adow
ank a
Ġcook ed
Ġpro x
ĠGold man
pend ence
ĠCol omb
ĠV eter
ĠRE UTERS
atter ing
Ġab usive
Ġ19 20
ett a
======== ========
Ġn erve
Ġas pir
Ġtaxpay er
Ġcor rection
Ġsh apes
Ġmagn etic
Ġe Bay
ĠJo in
ĠL isa
D r
ĠTh ailand
Ġt il
Ġprote ins
Ġqu ery
H is
Ġtax ed
ĠLuck ily
Ġstro ke
R ec
V A
Ġsear ched
ĠSer ge
Ġpre liminary
Ġco pe
ĠUp dated
ĠV P
ĠMu ham
Ġdoub ts
Ġorgan isations
Ġent ries
IT Y
Ġobs essed
ĠSci ences
Ġrefe ren
Ġart ic
bl ack
Ġ( )
Ġcomp iled
Ġin ability
Ġdark ness
AL LY
Ġregul ate
oot ing
ri en
Ġrep airs
Ġshort age
Ġenthus iasm
ĠR ams
Ġpil ots
IT H
Ġtreat y
Ġwild life
Ġsa il
ĠStud ios
Ġres et
Ġb ind
ĠG A
Ġn an
on el
Ġadap ted
IN E
Ġcush ion
Ġk icks
ĠM ason
Ġwat ches
.. ...
ĠJohn ny
Ġpost p
Ġfort une
ĠG onz
wh y
ĠW oman
Ġpuzz le
ĠEb ola
Ġmusic ians
Ġfil ming
Ġimpl ies
ĠMorm on
ĠN ixon
L ol
Ġt ube
ĠB uck
ĠGl enn
Ġsn ack
a fe
Ġ7 9
Ġaggress ion
er als
Ġdec ks
Ġob esity
m itt
d f
. :
th an
Ġsu ited
Ġdiet ary
C R
iv ic
ĠElect ric
Ġexp ose
Ġsubscrib ers
b oth
Ġinter fe
Ġbe ats
ge nds
ul u
ĠB ash
Ġvib e
ol utions
ĠB P
Ġsmart phones
Ġtra um
Ġparag raph
Ġad verse
Ġk eto
ill o
cc a
Ñ Į
ĠM ember
Ġg rie
Ġf i
ĠIs a
Ġtrans cript
Ġblood y
ĠPak istani
ãģ ®
all ow
ĠJ oh
Ġsp ite
ĠG as
omet er
OM E
Ġpur ple
ĠMil waukee
ĠD ad
Ġn est
ĠJenn ifer
f amily
Ġstr ings
Ġind ef
Ġsm ugg
ĠBrazil ian
ig s
VERTIS EMENT
Ġapart ments
un ks
ĠT E
f ull
ĠD NC
ĠH E
Ġins ure
M ay
ĠA qu
sp ace
ĠEx change
ĠNe g
ere r
P resident
Ġdiscl ose
her ic
ĠT ar
Ġdynam ics
ĠMichel le
m ines
ĠSn ap
ab el
Ġst al
angel ical
Ġcalcul ations
Ġautonom ous
ĠBern ard
Ġvolat ility
ĠG ay
Ġadm ission
Ġsubur ban
Ġsens ors
ĠRes ear
Ġsimpl er
Ġw oke
Ġtem ple
Ġwar fare
^ (
ĠA ld
Ġbody weight
ĠF ortunately
ĠMar g
Ġfr ames
Ġover weight
Ġalgorith ms
Ġun rest
M any
ĠUs er
Ġpred omin
Ġwood s
Ġr iot
Ġcounterpart s
Ġtraffic king
Ġmar ine
ĠT ill
Ġrel ies
Ġcomm itting
Ġim o
ĠWal ter
Ġgr ams
Ġm ant
Ġtast es
less ness
ke ys
ĠB ros
Ġyout ube
ĠThe atre
ab ul
ĠB oo
Ġclass ical
ren gth
ath ons
k ill
Ġman ages
ĠPhot ograph
ĠW ait
ah n
Ġind ict
Ġsum mar
ĠQ B
Ġvulner ability
Ġaggress ively
Ġsens itivity
Ġgr ind
Ġ8 1
Ġper ce
ch air
ĠStr ong
ĠSystem s
Ġa ired
ĠN PR
Ġfree ze
ann o
Ġminim ize
Ġrom ance
ic i
le m
Ġrenew ed
on ut
eter min
ĠC elt
ĠÐ ¿
Ġcommission er
ĠCh amp
aw s
Ġclass room
ap y
ĠB JP
p x
ag g
Ġsur plus
Ġw ont
ĠV iol
oo ps
Ġh ij
omet own
Ġdeb ts
Ġfu els
pl ess
f ight
N ET
ĠÂ »
Ġcrowd ed
Ġv i
Ġvol umes
Ġyield s
ĠB arr
ĠRes ources
new s
Ġinter val
ĠE asy
Ġstri ker
ĠCow boys
Ġur ging
ĠSp ider
Ġ8 6
Ġ9 3
res a
Ġopt ional
Ġliter ary
Ġroy al
B L
ason able
oth y
re nder
Ġinher it
int s
w er
Ġdetermin ing
Ġb ou
ĠâĢľ [
Ġembarrass ing
ĠB A
ĠLeban on
Ġ q
ĠH at
Ġschem es
ĠMar co
it bart
on er
Ġdown v
?? ?
ON E
Ġble w
Ch rist
Ġtext ure
let t
C ar
Ġarr anged
ubl in
oh y
Ġoccur ring
ĠMus k
Ġcont end
Ġhors es
Ġut ilities
Â £
ĠTrans portation
Ġtr im
Ġgrand father
ĠDen mark
ĠIslam ist
Ġpre vention
Ġflaw s
Ġsc i
iss a
Ġche ating
Ġsolid arity
Ġesc aped
Ġinhe rently
Ġgod s
Ġuns ure
ograp her
Ġcompl iment
Ġdefin ing
un ted
ĠStud ents
Ġhe ter
Ġgall ery
Ġexcept ional
Ġinsp ire
Ġqu arters
U I
Ġval uation
Ġle agues
Ġprotect ive
Ġspec ify
Ġprohib ited
Ġsh ore
ĠCal gary
ĠF M
Ġnegoti ating
P ress
Ġsl aves
ĠED IT
Ġread ily
Ġlean ing
Ġrecover ing
ĠL ol
un ct
ian ces
l ay
Ġd ent
Ġfundra ising
wr ite
om p
ĠUp on
Ġcontin ent
ĠJ obs
ĠJ ar
ĠBr un
ĠRS VP
Ġrep ublic
Ġnew est
ĠÂ ĵ
at able
ott om
Ġrap ed
- )
Ġproceed ings
Ġple aded
ĠRe ed
Ġ198 1
Ġ9 6
Ġun le
Ġsw ift
Ġa isle
do ors
ag ged
Ġmin us
ĠSil icon
ĠD iet
Ġi T
ĠM MA
Ġn ost
at hetic
Ġvac uum
Ġearthqu ake
ĠHall oween
Ġtheoret ical
Ġsp ike
ĠN ex
ĠN AS
do ing
Ġp ub
w ed
Ġsket ch
ĠB us
ĠAr n
ĠPro per
ale y
ĠTH AT
Ġins ists
Ġbillion aire
miss ions
Ġg aps
Ġ9 7
Ġcomm ute
Ġpot atoes
Ġsp ill
st ick
Ġdes ires
ĠDo ing
ĠLt d
Ġele g
se mble
Ġt a
V ery
Ġcomb o
B ER
Ġanalys es
ĠG ear
ĠG ate
ke nd
Ġattract ion
Ġsupp lements
ĠEd ge
ĠAn alysis
Ġo d
. âĢľ
Ġsal ad
t ake
Ġf ame
OR T
Ġtour ist
rep resent
cont rolled
ĠH ero
Ġslee ves
H P
Ġentertain ing
ĠF B
Ġexerc ising
H aha
Ġman ually
m us
Ġclos ure
ou st
Ġle nding
ĠOb ject
Ġran kings
S te
Ġa while
al ph
ĠH ab
Ġsw ap
le nd
oub ted
orient ed
Ġinc omes
ĠAct iv
ĠL iter
ĠDe fe
d isc
ĠB ed
Ġunve iled
ĠAut o
Ġden ying
ĠAss istant
Ġcr icket
Ġindic ator
ĠSer ver
Ġsk ull
Ġunem ployed
ĠK el
oll ah
ĠT C
ĠSuper man
Ġth roat
Ġattrib utes
fund ed
Ġlaund ry
Ġh alt
ue ller
Ġfavor ites
Ġvar ied
Ġb atch
20 11
R em
Ġresign ation
ĠBr ig
Ġpr one
Ġ19 40
Ġre jection
ĠB iden
Ġm aj
head s
Ġlack s
ĠE sc
ĠD ennis
Ġple asant
ĠBill y
ri pp
Ġind igenous
ĠF ern
arth y
Â ®
O K
Ġrebu ild
ĠCarl os
ĠBl ues
ĠSer iously
ĠP il
Ġham mer
Ġutter ly
ĠC reek
ie val
Ġemp ower
Ġmidfield er
iss ance
ze ch
ĠD ays
ocr atic
u u
id o
Ġbe aring
p ly
Ġcontain ers
Ġprem ise
Ġarri ves
Ġin sec
Ġres ent
ĠH ud
Ġbuff er
Ġspect acular
Ġ8 7
Ġmem or
Ġdet ection
ĠI v
D B
Å ¡
Ġl b
ull ah
ĠC li
ĠGar min
Ġsuper hero
ĠS oul
Ġres cu
az ines
Ġro pe
Ġbeh ave
c ked
ĠI BM
ĠG it
ĠN early
ĠBu zz
ĠAnge l
port ant
Ġse al
ĠP as
Ġ196 7
s im
Ġoff shore
p ath
ĠC art
ĠP ere
Ġag g
Ġdesign ing
Ġuncons cious
Ġb inding
ĠS el
Ġpl aint
Ġse iz
ĠE t
Ġcur iosity
s ight
Ġbes ide
ant ing
Ġdepos its
ug ar
ĠR an
Ġprev ents
Ġsurve ys
k n
Ġbi ased
Ġfortun ate
Ġdown side
Ġorig ins
pe lled
ĠP AC
20 10
Ġout lined
Ġdub bed
Ġmo ist
Ġvers at
ĠPD F
Ġs ab
Ġefficient ly
ĠBenn ett
Ġo ven
Ġ9 2
ĠSo x
Ġmid st
ĠHarr ison
ĠHigh way
ĠR ic
Ġspecial ized
ĠAC L
Ġwond ers
ĠMove ment
Ġsc al
ĠIs s
Ġignor ance
Ġpush ups
Ġtouchdown s
Ġendors ed
Ġd iox
p arents
Ġund erest
ĠJ uan
Ġstat ue
Ġlegit im
Ġm g
ĠD rop
g ov
ather ine
Ġm im
ĠF ile
ĠSp encer
Ġorganiz ers
Ġrehe ars
p os
Ġunder way
Ġdisappoint ment
rane an
Ġle aks
f ar
ĠBe aut
mun ition
um my
Ġch olesterol
Ġc u
Ġal beit
ĠShe l
Ġphys ician
Ġb ay
Ġn od
ĠWork ers
an as
ĠH orn
ĠSh ar
Ġinc oming
ĠF itz
Ġl ump
ĠTra vel
Ġaver aging
ĠMar cus
Ġlic enses
ĠPl anned
ĠGerm ans
ĠUn it
Ġmod es
Ġcomfort ably
ĠR ou
ĠLe gend
ĠE ight
Ġa qu
ĠSac r
Ġj am
ĠRac hel
k ens
Ġ196 8
ĠL arge
ĠCl in
Ġr ust
Ġobject ives
ĠL em
Ġv on
Ġfacilit ate
ĠR out
ok er
Ġur gent
r ating
Ġvegg ies
Ġf lesh
Ġcr ush
Ġpack aging
Ġdisp ens
Ġc ord
Ġattack er
im age
ak u
Ġso d
f our
ĠSe ah
â ĪĴ
ID S
Ġdig it
ĠE R
ĠBron cos
ĠMuham mad
Ġmem orial
ĠSim ple
there um
Ġtr ump
Ġshut down
ĠBull s
uk i
Ġdis k
Ġor al
greg ation
Ġgr am
Ġhapp ily
Ġpre jud
olph ins
ah l
g thening
Ġcompet itor
s pr
amp ed
Ġsc are
ĠKar l
IG HT
Ġlone ly
ĠF ew
Ġdid nt
Ġrec alls
Ġpubl ishers
Ġpublic ations
ivid ual
m ake
Ġreview ing
Ġd angers
Ġve to
ĠT ory
ĠDoes n
ĠJam ie
we alth
Ġresearch ing
ĠPalest ine
ĠFour th
ĠK ate
Ġref res
Ġbo ats
Ġun acceptable
0000 0000
Ġt ire
Ġex tending
ĠAD VERTISEMENT
Ġfin als
ĠWall ace
ĠA gr
ĠTer ror
Ġinhe rent
Ġpro ving
ĠRepresent atives
Ġproc rast
ĠSim ilar
Ġart work
me ga
ĠP B
Ġin mates
ok a
Ġsince re
k h
Ġb ent
ĠOrig inal
ĠAr men
ĠQu estion
Ġst ones
RE E
ĠLaur a
Ġenc ryption
ag ain
ĠTrib une
ĠMalays ia
ĠWhat s
ĠQ aeda
Ġmob il
Ġver dict
ĠSt ra
ĠEp isode
oubted ly
ĠC ant
Ġten ant
G M
Ġshoot ings
m ph
Ġc ab
l iter
Ġyear ly
t em
ang o
Ġsher iff
Ġcool ing
C ould
cl usion
EL L
ĠIce land
M ark
Ġsatur ated
ĠSc he
âĢ¦ âĢĿ
Ġsymbol s
Ġsac red
Ġspl its
Ġaccess ories
ĠD ublin
Ġattach ment
RE S
Ġfavor able
Ġ0 3
head ed
Ġb er
Ġair pl
ĠF ish
Ġspons or
Ġblack s
Ġslow ing
med ia
uff icient
Ġout break
Ġflo at
Ġautom ation
Ġlabor atory
ĠK och
ĠR aw
b ird
Ġris es
ra ham
od ge
Ġcar go
Ġdefin itive
Ã£ o
Ġthe sis
ĠR ah
ĠJo ined
ĠR R
ĠB ear
Ġreg istry
Ġsatisf ying
ast ing
Ġinf amous
Ġgl oves
ĠEd wards
Ġk et
ke es
uls ion
Ġcar riers
be y
ĠCom ics
Ġdef er
ĠAdd itional
ull ivan
ĠPal in
Ġflaw ed
Ġvar ies
Ġachieve ments
o ad
Bl ack
Ġac ute
Ġcook ies
Ġmod ify
ade qu
n ik
Ġexam ination
Ġevolution ary
effect ive
ĠEx cept
Ġ12 5
Ġins ur
ĠCh ile
Ġun real
ä ¸
s ocial
ĠList en
ed uc
Ġevent ual
ĠGM T
A cc
Ġlad ies
ĠC ool
Ġlock er
ĠVill age
Ġhyd rogen
Ġobst acles
ĠComput er
Ġmention ing
Ġstead ily
Ġor che
O s
Ġbuck et
ons ider
ĠM ack
ĠC ape
Ġsl ice
Ġdomin ate
Ġmet res
Ġ197 6
Ġsur pass
ĠBl air
Ġa pt
ĠMc L
he art
he rent
oca ust
Ġcos m
l ass
Ġtun ed
Ġglob ally
Ġfl owing
Ġabsor b
Ġp ione
Ġpro claim
ri ages
Ġemp athy
ĠM I
Ġun anim
Ġtable ts
Ġper sec
Ġhilar ious
Ġ197 3
Ġmaxim ize
Ġpaper work
w ould
Ġre ct
ĠLeg al
ĠOper ation
ir k
Ġ197 2
ig nt
ĠOffic ials
B ook
g reat
Ġcolon ial
ment al
Ġret ro
Ġche at
Ġopt ed
Ġins ert
Ġrev ised
app ro
Ġpers istent
Ġfin es
ĠSh ield
Ġk ernel
a ired
Ġsu ic
r ational
ĠH ockey
ohy dr
heim er
Ġp orts
ĠRich mond
on o
Ġdr astically
ĠVis it
Ġqu o
ĠCont ent
ĠS B
ĠH BO
Ġs ized
Ġmem orable
Ġart istic
Ġves sel
port ion
umb l
Ġtour ism
ĠSur vey
. ](
Ġmaintain s
M r
v iol
ĠiT unes
Ġconfront ed
Ġmod ules
bel iev
Ġrel oc
Ġpos es
Ġim pe
Ġmart ial
Ġbe ast
Ġal iens
Ġcloud s
ĠGriff in
ĠK ill
Ġar ise
Å į
Ġch ick
Ġsad ly
Ġd ot
Ġbroad band
Ġb inary
Ġ197 5
Ġformer ly
bs p
Ġw ounds
ĠAl f
n ames
Ġdig ging
i ological
Ġdemonstr ates
ĠCub an
in formation
Ġhold ings
Ġun aware
G od
IM E
Ġtrib al
ĠA x
Ġr ats
it ated
Ġinv alid
ort ions
ocument ed
ĠT u
y y
Ġsec urities
av id
Ġhero in
ĠWe re
Ġdoctr ine
Ġtax i
Ġarch ae
Ġinter cept
Ġcur rencies
ĠClass ic
St ate
ĠF o
Ġantib iot
al in
Ġris en
Ġsu cc
ĠLiber als
ĠFer r
Ġex tends
Ġspot light
aus ible
Ġstrength s
Ġattrib ute
ĠB obby
ĠG am
im ated
ĠBarb ara
ĠR ing
ĠCom plete
iv o
Ġwhe at
ĠP un
M B
Ġyoung est
Ġcoast al
ĠVi kings
Ġe ighth
Ġdi ver
ĠS old
Ġauthent ic
Ġsquee ze
ĠC T
Ġthr illed
ĠBre itbart
Ġsn acks
Ġte aches
Ġbo oth
) ](
ĠLe ave
ĠBoe ing
Ġsubject ive
ĠP arenthood
asc ular
ĠHome land
ĠApp lic
ĠSe x
Ġint ens
Ġh ust
Is rael
ĠWe lls
ill ery
Ġexc luded
worth y
ĠMc D
ĠH ence
g reen
âĶĢ âĶĢ
Ġsk i
e ks
Ġnom inated
Ġdr ought
ĠPet e
Ġ0 8
ĠP oke
Ġname ly
Ã Ĺ
O ut
S m
Ġfil med
Ġhoney moon
Ġspons ors
Ġmanip ulation
Ġfact ories
Ġindivid ually
Ġdistrib ute
Ġinv isible
Ġtest ified
Ġad vers
ĠTe h
ĠO t
ĠG reens
Ġquestion able
Ġo un
Ġin accur
Ġstruct ured
lement ary
Ġbudget s
K S
cl osed
Ġdisc ont
ĠP ath
ĠMach ine
Ġ Ù
Ġbicy cle
ĠL ower
Ġdr agon
Ġvict ories
ins ula
ĠL ooks
Ġemb assy
ĠRaid ers
ĠMcC arthy
Ġmix ing
Ġvig il
ĠFA Q
Ġwar r
Ġcr ashes
ĠSur v
ĠDef ence
Ġconcent rated
Ġcor rid
im um
Ġrest ing
ĠLe v
Ġh ometown
att o
Ġqual ifying
ĠPro cess
ĠG R
ĠEngine ering
Ġregul ated
Ġfac ial
ĠBry ant
Ġdiox ide
ĠM IT
ĠW a
Ġ" [
ĠPlan et
ĠR ico
Ġmag azines
Ġinflu ences
Ġpro ves
ĠC ab
ĠZ ion
Ġpar ade
Ġsport ing
Ġstr ap
ĠSeah awks
Ġking dom
Ġprofess ors
Ġobser vers
Ġwild ly
h um
Ġhead phones
s qu
Ġtre asure
ĠVal ue
3 50
ĠR AM
Ġment or
Ġst er
Ġâ Ĩ
Ġb ang
Ġf oul
ĠBry an
ĠM aj
Ġtri be
ain able
au er
Ġd ining
........ ........
Ġconfident ial
ĠL ate
Ġterrit ories
Ġpo le
Ġdeter ior
Ġinter f
Ġtact ic
Ġ197 8
Ġre iter
ĠP oly
Ġcl ause
let ter
d el
ĠAn imal
br is
Ġr ou
Ġp p
Every one
ol er
Ġam munition
supp orted
ignt y
Ġam ateur
put ed
ĠFor um
EC T
Ġh urd
art isan
ĠM ueller
ĠPal ace
Ġdownload ed
Ġc ared
p aid
ĠL OT
Ġexhib it
ab ad
ĠBrother s
Ġmon ument
ri el
ĠC zech
Ġn odes
C or
j u
Ġanaly zed
Ġinhab it
Ġgovern ance
Ġbl owing
be lls
ĠBang l
as ma
Ġincl ined
ĠGirl s
ik o
iment al
ĠC AN
Ġport ions
Ġbu ys
ĠId ent
Ġd are
On ly
ĠN DP
Ġphilosoph ical
Ġg el
Ġsu ite
Ġhas h
t ic
) (
ĠR ush
econom ic
duct ions
ĠThrough out
Ġbre ed
ogen ic
Ġproceed s
Ġnotice able
ol an
Ġtrack ed
Ġdiam ond
Ġn ort
Ġhon our
pt ic
ĠReg ional
fl u
Ġpost ers
Ġm ud
Ġcomple ment
omed ay
Ġp ills
Ġf oster
Ġprop ose
Ġal umin
ĠNew ton
St art
ĠSt ring
Ġdr illing
Ġmer it
Ġhistor ian
Ġcred ible
ĠP ull
Ġ8 9
ĠN athan
Ġple a
de velop
ĠHur ricane
v able
Ġreluct ant
Ġbe nd
Ġexhib ition
ts y
ĠCl ay
Ġan che
Ġinter section
Ġwas hing
Ġdemonstr ations
ĠCh ase
Ġd in
Ġsub way
ĠT ib
ĠF ix
ote ch
Ġhe ated
B ig
Ġ9 11
Ġs ie
ĠBut ler
Ġun ch
Ġkill ings
Ġgl ance
Ġwe aker
itt ees
d ale
Ġadjust ments
de gree
com merce
val ued
ific ant
ĠWe ight
ĠPot ter
ĠE VER
Î ±
Ġc age
Ġtw elve
Ġst airs
Ġa ide
Ġcont ing
b ull
z illa
am ins
Ġen abling
Ġback lash
Ġne ural
ĠG and
Ġd inos
ov ic
Ġtrans fers
Ġdu pl
ĠM all
Ġrest ored
ro d
Ġal ot
os ures
Ġpat rol
Ġple as
ĠQ atar
ĠSh aw
Ġcommit ments
Ġd ess
co very
Ġpred iction
ĠM M
Ġflood ing
Ġgl ory
Ġm es
anc ies
Ġpit cher
Ġpron ounced
N ever
ĠP ad
C ur
ipp er
ĠAl ice
Ġb oun
ĠZ one
Ġfict ional
ĠO ri
Ġ ),
Ġdiv isions
w ick
Ġaest hetic
art z
Ġbr idges
ma o
S ure
ĠCast le
un s
ĠP red
ĠT ogether
in v
Ġpro long
Ġdisc om
gg ing
ĠC SS
Ġbroad ly
Ġprot agonist
ain er
ĠWe bsite
ĠA verage
Ġ\ *
Ġtri umph
Ġtreat s
Ġintegr ate
reg ard
Ġanonym ity
ro ots
Ġst aring
ĠK ay
Ġsan ct
ĠML B
Wor ld
M en
Ġhyp ocr
ĠResear chers
ĠM ul
qu er
d id
Ġbehavior al
ĠS ens
it ches
Ġ0 4
S emit
e an
Ġsatisf y
r ams
Ġr ipped
ul ator
Ġdistingu ish
Ġfix es
ĠToy ota
er ver
Ġrecre ational
Ġshel ves
ĠSp urs
Ġr anges
ill es
osit ory
ĠI Q
Ġassign ment
ĠR ule
ĠPhill ips
Ġcondition ing
Ġfart her
Ġwe ighed
Ġbon uses
Ġblank et
Ġdim ensions
N ote
Ġadjust ment
Ġun lock
In st
Ġassoci ations
ĠS ales
Ġlineback er
ĠF ame
ach ment
Ġplace ment
ĠDiam ond
F l
Ġappet ite
roph ic
v ised
Ġev olve
p ical
ĠAr c
rem lin
f o
ING TON
ĠMin or
Ġstar ters
am y
Ġnurs ing
Ġcur ric
ĠW ire
Ġsex y
Ġbreak through
Ġsp at
Ġdiscl osed
Ġtoug her
oc ide
Ġcar n
Ġcru ise
u v
cont rol
ĠJul ian
Ġtheir s
Ġl inking
1 30
Ġcollect ions
Ġc alf
ĠD aw
Ġch in
Ġbrief ing
i per
Ġembr aced
Ġ9 4
ĠPro sec
Ġsuccess or
B u
se en
ĠSh ah
ĠCh ap
Ġves sels
Ġinf inite
ĠBe er
Ġres ur
Ġutil ize
Ġnot orious
pect ives
Ġun related
Ġtrib ute
ĠPet erson
Ġjurisd iction
Ġcigare ttes
ĠSoc cer
b at
if ully
wit ch
Ġdil ig
Ġvill ain
Ġres id
Ġl as
ru it
ig a
ĠDe al
Ġwe ars
er ting
Ġun ited
ir i
con y
Ġpresident s
ĠW A
Ġab oard
Ġres il
Ġuncom mon
ĠGener ally
ĠN ancy
ĠK ell
ĠPolit ics
Ġneur ons
Ġfel ony
ĠB UT
Ġpresent ing
Ġupgr ades
Ġhe ck
Ġ9 1
ĠK ids
Ġboss es
Ġcon cess
ĠD B
ĠU PDATE
ĠâĢ ĭ
Ġsecret ly
Ġse min
ĠLear ning
Ġrender ing
Ġneg lig
Ġin k
Ġover haul
Ġconstrain ts
Ġplay back
ĠBe ast
Ġrhyth m
ĠAust ria
Ġkilomet ers
Ġdisc retion
ĠP ink
Ġtact ical
h ner
col or
ĠHol mes
ĠNash ville
ob i
Ġun int
ĠM is
ĠG rey
Ġles bian
Ġru ined
Ġ Ñģ
Ġcontinu ously
Ġsubject ed
Ġ ic
Ġelimin ating
h ots
ĠSun ni
Ġ9 00
bor ough
Ġswe eping
Ġch ron
oss ibly
iz ers
ĠFl ight
Ġsign atures
ĠB order
Ġc yn
re b
Ġre lied
ri ved
p it
ĠR ud
ĠAlp ha
on ies
ĠTO DAY
ĠPortug al
qu is
m el
ĠCh amber
it le
ĠM ans
ĠðŁ ĳ
os a
Ġsm arter
I X
Ġp enny
Ġrel ent
Ġcounsel ing
Ġ0 9
Ġ* *
out ed
Ġsub mar
ĠScient ists
ĠU A
os i
Ġcomp ounds
Ġcommod ity
ĠStud ent
ĠS pl
Ġenc rypt
Ġdress ing
th ree
t ro
ĠSand y
On ce
ĠC BC
Ġdign ity
Ġgu ided
ĠI L
Ġcred entials
Ġlot tery
ĠCom merce
Ġinc umb
Ġa ston
Ġtack les
Ġlandl ord
ĠWr ite
Ġvolat ile
ict ing
ĠZ en
Ġnon etheless
man uel
Ġcost ume
ĠImper ial
dis play
ĠBa gh
ĠS EO
Ġfound ers
Ġban ner
in ery
em ail
ĠCle arly
ist ed
Ġsw ear
ĠK ath
Ġ197 7
ain ted
Ġaff irm
Ġvolunt ary
Ġreven ge
Ġso y
ĠS pect
Ġinterpret ed
ĠJ ob
ĠA V
ĠÐ ²
ĠBrown s
Ġsl im
P E
ĠB ishop
Ġbattle field
Ġdomin ance
ri ving
Ġelement ary
ĠSw ift
ĠL ang
Ġprem iere
Ġmis conduct
Ġstren gthening
third s
Ġcop per
ier ra
Ġ196 9
Ġcert ified
ling ton
Ġst ap
âĢ ĭ
ick ets
Ġtroub les
Ġremem bers
Ġimpact ed
Ġb ru
Ġfor k
ĠP in
Ġmar athons
Ġen vision
ĠD awn
at isf
200 9
ĠF an
Ġpart isan
ĠC ell
ĠJ av
Ġ~ ~
Ġembarrass ed
ash i
Ġastron aut
Ġl ur
M ake
Ġret iring
am o
Ġmilit ant
ra h
Ġint ensive
Ġst agn
Ġfore sts
ĠPack ers
Q aeda
ĠPsych ology
Ġsu e
ĠChron icle
ĠT igers
K K
ĠChallen ge
ĠV M
ãĢ Ĥ
Ġb og
ĠJes se
Ġroll er
d ro
if iable
Ty pe
Ġprof iles
n esty
ming ham
Ġt ennis
Ġencour ages
ĠC abin
Ġref uses
duct ive
* ,
ry ing
Ġdri ed
Ġanal og
H O
ĠAdv anced
ĠPict ures
Ġcharacter ized
ĠI R
ai ro
Ġliber tarian
Ġun success
Ġp up
ost ic
Ġpreced ent
pl ant
Ġ# ##
Ġterr ifying
ĠM ode
ĠG P
Ġcaut ious
r ise
E l
T ake
Ġoffer ings
ĠM es
Ġsell ers
ĠWeek ly
ĠAtt ack
ĠF idelity
ĠE rd
Ġorgan ised
Ġmeasure ment
Ġneighbour hood
Ġref usal
= âĢĿ
Ġa unt
Ġviol ating
Ġmet ro
om i
offic ial
ĠPict ure
Ġrepl ies
ourn als
erc ise
Ġhear ings
Ġpre y
Ġfire arm
Ġvar iant
Ġspe lls
Ġbusiness man
Ġcontin ually
Ġassemb led
ĠM asters
Ġint act
ĠContin ued
ĠIn valid
ĠAth let
Ġeduc ate
Ġchar ter
Ġviol ate
ĠS ources
ment ioned
Ġa ug
Ġslow ed
ĠQu inn
Int erest
ib les
ĠB annon
Ġ( +
Ġred ist
ott a
ul ates
ĠCh and
iÃ ³
id as
it utes
ap hor
Ġli ed
ch at
Ġportray ed
Ġexc uses
b as
Ġsmall est
ĠN ord
ĠN ep
ĠGarc ia
Ġen roll
f its
ĠOr thodox
Ġdis like
s ay
Ġse ct
ĠRe lease
Ġ197 1
h ad
ĠG OOD
ĠOut side
b one
Ġsc ales
n ick
r ors
Ġha i
Ġprem ier
Ġelev ation
Ġdiscom fort
Ġn ap
Ġluc rative
Ġtrad ers
Ġtr action
12 5
Ġmanufact ured
Ġst ark
v ance
Ġunw illing
Ġad oles
te lling
ĠW ade
Ġ197 4
Ġbul lets
Ġover see
Ġtroub led
Ġmal ware
Ġcontrib utor
Ġincorpor ated
et a
ĠC of
ĠL G
Ġmurd ers
Ġtradem ark
Ġsurv iving
ĠY e
Ġdef ines
Ġinter im
Ġcrit ique
Ġin adequ
Ġund oubtedly
Ġins pection
Ġe uros
Ġpre season
ran ium
Ġrece ipt
Ġ 000
Ġexplo itation
atern al
Ġcol ored
S O
ĠPriv ate
ĠCar ib
ĠM ath
ment e
Ġintern ationally
Ġsubscrib ing
ĠFire fox
om on
ĠProt est
Ġman eu
ĠArab ic
ul k
Ġdoes nt
c all
ĠR B
Ġacc using
by e
ĠChe m
Ġg y
ĠB anks
ĠM itch
Ġtou ches
Ġexpress ions
Ġart if
Ġproject ions
uster ity
Ġpro xy
ĠEx ample
p al
Ġcool er
Ġle mon
uff y
cl usive
ern ame
ĠAgr icult
Ġrent s
Ġfre ak
het ical
ĠL ic
Ġm old
Ġsovere ignty
Ġrevel ation
ĠJess ica
ĠWhe never
âĢĿ âĢĶ
ĠJo el
Ġol ive
ĠR ot
Ġbe lly
Ġ15 00
ris k
Ġbarrel s
Ġeru pt
Ġhum ble
ĠCard inals
z b
av ailable
f ood
M ed
Ġremain der
ĠRe form
Ġbrew ery
Ġst ole
ĠPerform ance
ĠM AR
b ucks
Ġc otton
t hen
Ġv ine
Ġanch or
Ġno on
Ġso ap
ĠCom pet
ĠSe nd
Ġst ub
Ġacc idents
ĠGl ad
Ġdest ructive
Ġpharm aceutical
Ġby pass
orn ings
Ġjust ification
Ġcred ited
Ġstand point
Ġ17 0
Ġhorizont al
V al
Ġ0 7
on al
Ġte nder
ĠN HS
#### ####
D L
ĠYOU R
Ġlight ly
ĠBe gin
ĠSud an
Ġcur b
Ġreward ing
Ġover r
Ġdist ress
H C
re ated
an ne
Ġliter al
Ġpitch ing
Ġmas cul
ĠSam uel
Ġoffe nded
Ġext ensions
Ġfav ors
Ġcent ered
b b
Ġcomprom ised
Ġw ow
Ġcasual ties
Ġcance led
Ġspreadshe et
Ġcal culation
Ġb aking
âĢĿ ?
omet ric
Ġsc roll
Ġendorse ment
n ational
ĠD ynam
Ġc ache
or us
Ġignor ant
M on
ĠF ac
Ġsem ester
Ġfar mer
ĠBr ain
am iliar
atch ing
Ġban ning
Ġlegisl ators
ĠEnter prise
Ġpress ures
Ġde bris
Ġver bal
Ġconcent rate
ĠCol in
D ata
ft y
ĠPant hers
Ġtravel s
Ġtrib es
Ġgau ge
Ġfire f
m ans
Ġnorm s
F orm
Ġm aid
ĠN as
iter ranean
Ġiniti ated
ĠFin n
f u
Ġdecl aring
for cing
ĠK az
Ġpredict able
ĠNob el
Ġt bh
ĠSh i
Ġsand wich
Ġvalid ation
Ġware house
H ub
ĠSh in
ĠL ot
Ġhel met
Ġassault ed
ĠN ine
Ġflav ors
Cong rats
Ġdu o
Ġspecific s
Ġsett lements
h ou
Ġident ities
Ġre bell
Ġrent ed
te am
Ġmal icious
os pel
a is
ĠMont ana
Ġj ar
Ġnav igation
Ġdiscour se
Ġnation ally
ĠS ach
Ġunderstand able
Ä į
ĠUS S
Ġscript s
Ġv intage
const itutional
Ġder iv
exp ensive
Ġadj acent
in is
ĠK or
Ġspir its
Ġtourn aments
ur l
Ġmic ros
Ġ{ \
Ġcat ches
su per
ĠAs ide
ĠE le
ĠA irl
Ġa ster
ĠL uther
t aking
Ġdispro portion
ĠN ag
Ġcryptocur rency
cast le
Ġgal axy
ĠJ oint
ĠT rav
Ġcolumn s
ĠWe ather
Def initely
ocr acy
ĠBase ball
r itional
Ġcou pled
Ġv owed
Ġbip artisan
s ite
Ġcle aring
Ġcry stal
cul es
Ġsum mon
Ñ ĩ
and ez
m atic
Mus lim
Ġconfront ation
atern ity
ĠBir mingham
Ġne o
Ġthe or
B R
ĠFin land
Ġid k
ĠP ic
Ġhaz ard
Ġtra ject
ĠW ii
ĠTeh ran
b ast
ĠCom ment
Ġli ps
et e
Ġcr ushed
D is
ov o
ubl ished
Ġill usion
ĠAnge la
L ATED
ĠWhe el
ĠCost a
P art
ĠL ore
Ġbl unt
ĠV ide
ĠE A
ĠAss ange
Ġdefend ants
Ġ0 5
vel t
Ġp ens
ĠG S
' )
ĠHispan ic
o qu
ĠSpecific ally
or r
Ġthe aters
ĠK os
Ġpredec essor
own er
Ġworth while
Ġepid emic
Ġco vid
ĠNex us
Ġimport s
ĠM ut
ĠJ ong
Ġfeas ible
Ġmanip ulate
ĠRod gers
bal ance
ced es
Ġse gments
ĠE P
print s
âĢĶâĢĶâĢĶâĢĶ âĢĶâĢĶâĢĶâĢĶ
as ive
Ġsurf aces
ond e
Ġsubst ances
Ġswe pt
ĠSim ply
ne apolis
Ġjoint s
ĠC ro
Ġout perform
out ube
ĠC ox
Ġactiv ation
br and
ex cept
ĠB TC
L ife
Ġassist ed
Ġsupp lied
Ġscholars hip
st ruction
Ġdop amine
ag ne
Ġrepe ating
ĠB ab
Ġbit ch
i ating
av i
Ġvirt ue
Ġcateg or
ĠR oose
ou ble
Ġf itted
Ġb od
U P
ĠH ait
ke eping
Ġhas ht
l ining
Ġjewel ry
Ġal igned
ĠCompan ies
ac hers
atic an
Ġlight ning
Ġp iano
Ġ20 23
Ġdes irable
Ġfam ously
am ation
M art
Ġnegative ly
Ġincl usive
ĠM atter
Ġattack ers
mont on
ĠAff ordable
200 8
Ġback yard
Ġble eding
B re
A K
ĠF oster
Ġpray ers
ĠB elt
Ġthought ful
Ġnot ified
ĠD ise
Ġalph a
i w
ĠE at
ĠÐ ½
B ack
id y
cul us
Ġw ished
Ġprec ision
ĠDun can
Ġcertain ty
ĠA A
Is lam
ĠR PG
ĠPrin cess
ĠP owell
child ren
Ġf isher
Ġp ant
Ġmetabol ism
Ġplug in
Ġb our
ĠE thereum
Ġveget arian
Ġu mb
Ġhe ating
Ġp ets
" ;
n ia
Ġmos que
ĠAl ban
ĠD oc
Ġhorr ific
ĠL l
ĠO z
ick r
Ġunp redict
Ġdim ension
ĠD rew
ĠMov ie
Ġto kens
Ġgrad uates
Ġfl ies
Ġan throp
00 1
Ġexpl ored
Ġnot ification
Ġshe ep
Ġpick up
Ġcl ash
ic er
Ġtatt oo
Ġdis respect
in ces
ĠD im
ĠF S
Ġaccount ed
ĠHug hes
Ġdon or
Ġban ana
Ġde ar
Ġcomp ression
ĠOrig inally
Ġeconom ically
Ġp ars
ĠGl obe
uten ant
ASH INGTON
ĠN um
uc le
Ġor b
b ank
Ġback ers
umbl r
Ġhold er
ĠA er
Ġenjoy s
Ä ĩ
y ang
p ound
ĠC ou
sp oken
ĠR acing
Ġover view
Ġv ag
Ġpun ished
V R
ĠH onda
ĠCat al
if iers
Ġarch ive
Ġlower ing
m essage
ĠZ ach
Ġdistract ed
Ġje ans
ir med
ĠIndian apolis
Ġd ice
ĠCitiz ens
m ary
Ġsm iling
Ġinher ited
ĠMoh ammed
L ooking
Ġmathem atical
Ġ0 6
Ġpl ag
Ġteam mate
ĠC P
ĠL ocation
m and
Ġc ables
Ġt ags
Ġw reck
Ġter ribly
st airs
e g
Ġincon ven
Ġl ing
ĠMart ine
ĠH ousing
ĠK aren
the m
ĠBrew ing
ir s
Ġrevel ations
Ġdrag ged
Ġunder min
Ġpict ured
Ġpost ure
R ed
Ġface book
Ġcompan ion
Ġh acked
ĠH SA
Ġrevers ed
br aska
ĠH aven
Ġcrew s
Ġel bow
Ġintu itive
Ġdiv ine
am bers
Ġrecon c
h u
Ġguarant ees
ĠAgree ment
Ġpremium s
Ġcomp act
Ġassess ed
Ġsupp liers
Ġanaly tics
ĠPal mer
u ments
Ġg rief
Ġpot ato
Ġmort g
f y
Ġflo ors
ĠCO VID
ĠNiger ia
Ġen v
â Ī
ĠIndust ry
ĠY ellow
Ġliquid ity
Ġadvent ures
Ġent ers
Ġapplic ants
Ġa ides
ER Y
ĠCong ratulations
Ġbox ing
Ġmin ers
Ġamb ul
Ġfe ver
Ġp ave
ĠC arm
Ġweigh ing
ĠZ immer
ĠB og
ĠM Y
ĠK remlin
ie ce
r ator
Ġro gue
ĠON E
pl ates
\ \
Ġmil estone
P erson
Ġdo ck
Ġdiss ent
Ġcon ferences
Ġsur render
ĠM ong
eto oth
ĠH im
G L
ĠApp ro
ĠEm ploy
Ġinfect ions
ĠAN Y
ĠMon ster
Ã¼ r
im o
Ġpodcast s
ri ans
ĠAr med
Ġun believ
Ġoffe nders
Ġcon form
ern ess
Ġtri v
ĠAle ppo
ĠClar ke
ĠMed iterranean
Ġt as
Ġd ough
Ġimpl icit
ĠV T
ĠT ree
ĠPoke mon
D I
Ġrat ios
ĠRodrig uez
ĠEdd ie
ĠCom ing
Ġlight weight
ĠYan kees
Ġlow ered
Ġdeliber ate
Ġoil s
Ġhuge ly
ĠStat istics
ĠSing le
ĠIsrael is
ĠðŁ Ĵ
ar u
Ġmass acre
ĠT ask
Ġinj ection
Ġgu ides
e nding
op ping
Ġfin ale
ĠV atican
Ġc ate
ĠJ UST
ĠCoun ter
im eter
ĠT M
ĠLad en
ĠS ullivan
iz ards
w ife
ĠAirl ines
Ġve il
ĠA ven
ĠC F
Ġto gg
Ġgest ure
s le
ĠV oice
ĠM aur
op ular
ĠChief s
ĠU P
ĠFr an
P oint
AM E
Ġquant ities
Ġsens ible
Ġind ul
Ġcul min
Ġst arring
ĠSub ject
ed e
Ġgrad uation
Ġpat ents
Ġimpro ves
Ġtoler ate
Ġannoy ed
Ġcl ips
R T
ah an
Ġc attle
âĢ į
X T
ĠPlan ning
Ġdecent ral
IC O
Ġmor ality
Ġdet r
Ġobsc ure
ĠM U
ir ation
Ġscrew ed
g ie
Ġdefend ant
ĠC ulture
ah o
ĠOccup y
Ġfant as
Ġunc overed
ĠSacr amento
C ap
Ġvast ly
16 0
he astern
m itting
Ġcol ours
ĠRes ults
Ġpass port
Ġliqu or
ĠOM AD
Ġpromot ions
ĠCh ip
in ho
Ġli king
ĠHol ocaust
Ġjud ging
ĠS ierra
Ġc ried
p ublic
gg y
Ġhead er
ne x
Ġbelong ing
Ġassum es
ĠLim ited
ĠE RA
t age
ĠH ost
Ġel ites
Ġobs ess
ĠWr iting
ĠK an
Ġem pir
Ġout doors
Ġtal ents
Ġthr ust
Ġnow adays
r us
Ġp ork
ĠW ITH
ĠPresident ial
Ġg ently
Ġro oted
Ġt ires
M E
" ).
al one
Ġappoint ments
ĠI gn
mer cial
ĠBM W
list ed
Ġinter pre
Ġpublic ity
Ġ Å
iny l
ĠCarib bean
ĠA F
c aster
at ivity
ĠNE W
Ŀ ¤
ĠSad ly
ĠBroad way
Aw esome
ĠImm igration
Ġclean er
ond o
Ġbefore hand
ĠP aper
Ġrece ivers
ect or
Ġstud ios
Ġsharp ly
ĠA K
ĠMin neapolis
Ġe rect
Ġind ie
ĠCr iminal
Ġamb ig
ĠQueens land
Ġprov inces
Ġpositive ly
ĠC ov
Ġback grounds
ick er
Ġneutral ity
ĠD L
g irl
Ġcoc onut
Ġfr idge
oot s
ĠC V
ĠTh ai
Ġpus hes
Ġper fection
Ġcrit ically
ĠEd monton
ĠRoose velt
ĠDr ag
ĠCo in
ar se
Ġw ives
Ġjo ins
tr ue
ĠBangl adesh
Ġoff line
ĠJeff rey
Ġbull ying
v oc
m em
ĠT ouch
Ġforeign ers
Ġpr isons
ĠCreat ive
uff ed
Ġassass ination
Ġ\ ~
Ġweakness es
reg ular
ĠB orn
Ġm ornings
Ġgener ates
ĠBe en
Ġd orm
ĠAh med
Ġn aming
Ġfut ures
Ġque en
ĠD ere
Ġcompar isons
Ġ196 4
Ġ196 5
Ġmed ications
Ġe cc
le ased
Ġdiscipl ined
Ġparam eter
II I
os ph
Ġhome work
Ġmet aphor
Ġrend ered
Ġrelig ions
ange red
S C
Ġor gans
ĠA RE
Ġind oor
Ġs add
Ġp uck
Ġar rog
G C
Ġme ga
S ometimes
ok u
Ġmulti player
ĠW alt
ĠAlex and
Ġth igh
Ġsing les
Ġpoet ry
Ġsp ine
Ġvacc ines
act ory
Ġnarc iss
Ġtow ers
Ġ> >>
ĠB ald
Ġacc ent
Ġstret ched
ĠMot ors
Ġpean ut
az ione
Ġopp ression
ĠC it
Ġtyp ing
ĠS weet
Ġang les
________________ ________________
umb ai
l ength
Ġbl o
ĠPre vious
ĠCh ad
ãģ Ħ
Ġretain ed
Ġexpl oded
Ġencoun ters
us cript
min ent
ect ive
Ġintrig uing
Ġunder go
ĠR af
ot on
ch ief
ĠW es
ĠS K
Ġphotograp hers
ĠHer itage
Ġexam ining
Ġmole cules
Ġnav al
ĠCons umer
ov ich
T F
ĠL an
Ġsh ade
OS E
Ġdes cent
tt p
Ġinc arc
opp y
ĠThanks giving
ro le
ĠJ ared
ĠR ivers
Ġpay roll
ĠTry ing
s n
Ġfather s
Ġrecord ings
OR K
Ġmult ip
Ġref ined
Ã¡ n
c d
ĠNe braska
ed i
Ġconsult ation
Ġmulti pl
leg al
Ġnote book
Ġfif ty
oc y
ĠFI FA
ot ics
Ġr ivers
u ctions
Ġrent als
raw ling
el ong
Ġm um
ĠM ix
ĠPal m
Ġporn ography
Ġadd icted
Ġcomm em
Ġdeli vers
Ġle thal
ĠL E
ĠVis ual
Ġstri pped
Ġadm ire
AS E
Ġtim er
Ġsh aking
Ġrob bery
Ġadministr ators
ĠH TC
gener ation
ĠAll ah
Ġequ ities
ĠUlt ra
ĠMarg aret
ĠW inn
Ġbound ary
Ġlaw n
Ġdis gu
iction ary
ĠWal k
it as
Ġdis ast
Ġneighb oring
col m
Ġborrow ing
Ġsc attered
pro cess
ĠWood s
ĠM urd
ur ge
ĠC over
uss y
Ġgrand parents
{ \
m ma
Ġsle pt
ĠWe ap
p iring
terror ism
ĠW elcome
ĠMer cedes
ĠT on
Ġcor ps
Ġh ipp
ĠSl ow
Ã ²
pr ises
Ġdes criptions
Ġtroub ling
ĠS ett
Ġsuc ked
7 50
Ġbet ting
G oogle
un ique
Ġb ans
Ġab uses
ãĢ ģ
Ġnost al
Ġjudge ment
Ġsystem atic
ĠBr ight
Ġup ward
ĠAn a
Ġlaun ches
ir us
Ġpark ed
S ource
Ġdys function
Ġd war
ĠComm ander
cl ip
ĠCom cast
ot ive
Ġinj ust
Ġcur s
Ġpres cribed
Ġtel es
F eed
ĠNorm an
Ġhorm ones
oll o
ĠEl ite
ce nding
Ġfil ters
is co
Ġexplan ations
Ġw itch
Ġhy dr
Ġne uros
ograph ical
est a
Ġchap ters
Ġupgr aded
ĠBoy s
ur ally
ic ates
Ġch im
Ġj ournals
ĠE vil
Ġdes erved
D amn
Ġac ids
Ġall erg
ĠMS NBC
d oes
com pass
ĠG ore
D s
ĠChance llor
Ġth rive
ĠÂ °
ĠW orth
hold ing
Ġle nd
Ġir ony
Ġnational ist
own s
f un
Ġmess y
Ġinstall ing
Ġsatell ites
ĠT ak
am on
Ġf og
ĠCom ments
Ġst yl
Americ ans
âĢ ¢
play ing
Ġsovere ign
Ġb ats
ĠShort ly
Ġnot ifications
orig inal
ĠMet al
ĠP ush
izz ard
ĠSt u
ĠSc reen
ur as
T ech
Ġiss uing
Ġbl at
ĠDep ression
Ġun con
Ġro d
Ġsuper visor
Ġpl um
c ill
are z
us ually
se arch
Ġsh ine
Ġs idel
r aged
Ġr ugby
Ġprop osition
ĠA bsolutely
ĠA ub
ock er
Ġpriorit ize
Ġdark er
Ġminimal ist
Ġpers pectives
ĠLu is
A FP
p her
ro v
ĠE L
p ired
Ġactiv ated
ĠYou th
pro bably
red ited
ĠBrother hood
ĠForm ula
ĠBoe hner
op ath
Ġpract iced
Ġbl ade
Ġca f
ĠSt ream
ĠW ing
uff le
D ay
Ġbench mark
Ġw ipe
en za
li o
Ġ19 45
ĠB O
Ġcheap est
Ġs omeday
Ġsl ides
m ount
Ġgr ains
Ġsp ont
Ġpros pective
iz oph
ĠAut om
Ġpot ent
ĠInt egr
ĠFO X
Ġev olving
ĠH erald
Ġincons istent
Ġadvis ers
ĠBagh dad
Ġpres erved
ĠEx am
Ġz oom
Ġlog istics
ĠGo al
Ġextrem ist
Ġball ots
ĠHung ary
Ġimag ery
Ġcl iff
Ġprison er
p ose
Ġev angelical
augh s
se nd
ys on
Ġoff ence
ĠPoint s
ĠH app
Ġpast a
Ġmortg ages
Ġrecru ited
Ġlack ed
Ġbatt ling
Ġsymb olic
Ġdownt urn
Ġop ener
Ä ±
Ġso ber
ĠOffic ial
ĠHe avy
Ġli b
Ġskin ny
Ġinc ap
Ġdism ant
Ġded ication
Ġ10 5
Ġsufficient ly
Ġrein force
> <
Ġsec uring
ens ed
Ġcarb ohydr
rav a
Ġhomosexual ity
il ogy
u pp
ĠDet ails
Ġapp les
oc cup
ĠSy n
ia z
Ġmet er
Ġd ug
Ġrest rain
ac cess
Ġrestrict ion
Ġa usterity
est on
re lla
Ġcustom s
c amp
ĠVal ent
Ġimport ed
Ġpu pp
ol k
ĠDid n
ĠLight ning
Ġsod ium
Ġcompens ate
oc o
Ġimpl ied
ibl ical
oph obia
ĠCabin et
Ġtrop ical
ress es
Ġjud ged
Ġprosper ity
Ġne arest
Ġshall ow
om ore
Ġener g
Ñģ ÑĤ
Ġaccord ance
Wh ich
Ġsocial ism
Ġout line
ĠErd ogan
E uro
Ġsub urb
Ġpl ausible
us hes
izoph ren
De pends
ĠL ives
ud ed
ĠTr ack
ĠSen ators
Ġpast e
' '
ĠD elta
ĠM iles
ks hire
ĠTib et
ĠNor we
ur ious
ĠX L
ĠF ear
Ġbac on
Ġdisp utes
ĠA part
ab i
B uy
Ġoverwhelming ly
ok ia
imp se
t alk
Ġcond o
Ġsli pped
ĠB att
Ġper ch
Ġgl impse
ĠK er
Ġimp ly
g om
Ġshout ing
Ġy og
C NN
Ġpurs ued
Ġcar pet
Ġtra it
ĠB le
Ġden ies
Ġhand stand
Ġmusic ian
ĠAh mad
ĠX i
ask et
ĠK ash
Ġpersonal ities
Ġtriv ial
u cc
Ġunp opular
sh aped
Ġp ond
Ġcous ins
Ġinte nds
R un
Ġcorrespond ent
Ġtop s
am as
Ã º
p riv
Ġcomment ing
v ity
St op
ĠB omb
ĠCertain ly
Ġmotorcy cle
ĠCry stal
ĠMarket ing
Ġz oning
Ġswe ep
B E
Ġd ur
other apy
Ġcommission ed
ĠSteven s
Ġworth less
Ġlegal ization
ĠSpr ings
Ġposition ed
ĠCy ber
Ġconclud es
ĠIn iti
L a
Ġjo king
ĠSu ccess
Ġtri o
Ġclean ed
Ġver b
ĠO m
Ġche ss
Ġcent res
Ġacadem ics
iv ated
ĠRe act
ĠMartine z
Ab out
Ġboo king
iÃ³ n
he arted
sh ow
Ġpen is
ĠEm ily
Ġsh in
I ts
Ġfreel ance
T Y
Ġcomm ittees
Ġalter ations
Ġmin es
Ġcommun ist
Ġfree zing
Ġsynt hetic
ten ham
Ġcl ashes
14 0
ĠM ob
Ġsan ction
ĠD ian
prising ly
ĠHT TP
ĠC ancer
Ġcl oth
ĠTe levision
Ġamb ition
Ġemphas ized
st ill
ĠLe x
Ġlit igation
Ġprom in
ĠM ons
Ġche f
U G
Ġp enn
c ers
Ġresist ant
Ġintr ins
F ree
ach t
Ġcelebr ities
il ia
Ġdivor ced
Ġstr ide
ĠEmer gency
ĠN W
Ġcurric ulum
ortun e
ĠC urt
Ġvit amins
ĠVin cent
Ġfulf illing
Ġforg ive
ĠW ang
S en
M C
min ster
ĠSa fe
oc used
âĢĿ :
Ġthank ful
is en
rape ut
ĠMil an
Ġfore most
Ġvel ocity
M ENT
ĠC rypt
dep th
ĠYes terday
ĠV it
ĠOper ations
Ġinter mitt
en ly
ball s
ĠHud son
Ġterr ified
Ġoverlook ed
ĠGr owth
Ġc ripp
inf o
Ġport able
Ġperce ive
om ers
Ġextrem ists
Ġ2 20
Ġcowork ers
c ould
Ġdiam eter
ÃĤÃĥÃĤÃĥÃĤÃĥÃĤÃĥ ÃĤÃĥÃĤÃĥÃĤÃĥÃĤÃĥ
ĠConsider ing
Ġland mark
Ġmed ieval
ĠInterest ingly
ĠNaz is
Ġunst able
H R
Ġsens ation
.âĢĻ âĢĿ
Ġeleg ant
Ġconcent rations
att ed
ĠMe g
St ring
ĠHy per
ĠRec ent
ĠAnt ar
Ġque ue
em et
ĠIns urance
Ġdispos al
E ng
ĠH ERE
Ġst all
ĠRep orts
Ġsequ ences
lud es
ĠBas ic
ĠInter ior
Ġm apping
ĠEurope ans
Ġal right
Ġnut ritional
ĠF am
st ud
Ġb arr
ĠL ar
ĠEvery body
Ġintern ally
ĠB ak
anche z
Ġemail ed
Ġcomb ining
m ay
re cy
Ġp enc
Ġfav ored
Ġcome back
Ġsup reme
Ġgr an
Ġcontem pl
ĠM atch
à¤ ¾
Ġv ic
Ġpriv at
Ġcere mon
Ġpract ition
Ex actly
Ġnav ig
ĠD w
z el
Ġintention al
sp ons
Ġal erts
ĠRe yn
Ġrecomme nds
Ġinflamm ation
Ġconfir ms
ĠD ifferent
ĠB T
w ait
h at
sy stem
ĠT W
od a
Ġagg rav
Ġan om
iet al
Ġd ile
ï¿½ ï¿½
Ġsne ak
ĠStar bucks
ĠS QL
ĠK on
Ġcigare tte
Ġa fore
Ġdis gr
ĠB ent
Tr ans
Ġcoinc idence
Ġj azz
ĠAss uming
ust ed
ot ally
Ġaffili ated
undred s
Ġash amed
Ġfemin ism
Ġpat ches
Ġcoll ision
Ġinvestig ative
Ġsimpl icity
Ġamb itions
ort ing
Ġun constitutional
Ġdeal er
Ġsun light
Ġcert ification
year s
ĠN J
ol ics
ĠL ion
Ġenact ed
Ġlast s
ĠS eth
Ġconst itute
v or
Ġobs ession
Ġinfring e
Ġwas hed
yl an
ĠMal colm
Ġop io
Ġsyn c
Ġow ed
ĠDemocr acy
Ġnin th
Ġassoci ates
Ġdistract ion
k ar
Ġad ul
Ġmar riages
ens on
Ġhand gun
Ġlo ver
Ġzomb ie
Ġ[ ]
Ġpar as
ous ands
ab lo
ĠG aming
ĠArch itect
Ġcreep y
Ġst akes
Ġrehears al
Ġautonom y
Ġveget able
D em
Ġadjust ing
Ġdis ruption
Ġenthusi astic
Ġprotect s
imens ional
Ġschol ar
Ġmass ively
Ġturn out
Ġ\ [
% ),
ĠLast ly
Ġgo dd
C are
s ervice
ĠCon clusion
Ġwar mer
ĠK il
Ġlog s
ĠM umbai
Ġinterfe re
ĠInde pendence
Ġrev is
ĠFred er
Ġmethod ology
Ġhier archy
re ally
Ġaw ake
Ġmeaning less
ur ry
Ġrep ay
Ġsn ake
Ġg em
Ġport rait
ĠSt ories
h im
Ġbar bell
ĠAd vis
Ġdo ses
B rien
gh ai
et on
Ġcont empt
Ġafter ward
Ġbal ancing
am pton
Y ea
im ity
Ġpr inter
oster one
ter ing
Ġrout ines
Ġcon gest
Ġto pped
Ġassert ion
M s
Ġpro l
p res
Ġred irect
ĠCub s
ĠJun ior
se in
Ġappropri ately
ĠCast ro
a que
Ġl aps
Ġrec urring
Ġdisast rous
Ġj ets
el ed
Ġhonest y
Ġancest ors
Ġcons cience
Ġlog ging
ĠT B
u er
ĠS ter
Ġcontrad ict
char ged
Ġhabit at
Ġcoll ar
Ġ Ã©
Ġ10 80
ĠH az
Ġmount ing
Ġl ining
Ġemphas ize
Ġn avy
ĠTer min
Ġdisgust ing
ĠArm strong
Ġtrig gers
ok o
Ġbless ing
Ġfool ish
Ġbud d
ĠB ren
Ġboo ster
ĠThe ory
Ġj aw
ĠUn ity
Ġsp here
Ġyell ing
Ġshow case
T L
ce ans
Ġc el
Ġpe e
Ġsh ark
ĠWord Press
ĠC rew
S ports
sh irts
Ġâ Ī
ĠTom my
ĠS ale
Ġbl aming
ĠW S
ĠCom ic
ĠW ow
ĠK ane
Ġit er
Ġw ary
Ġmon et
Ġass ure
ĠUlt imate
Ġclear ance
ĠM UST
ci um
Ġfrag ile
ched ule
arm ing
Ġalumin um
ĠSqu ad
ĠF resh
f iction
Ġdown ward
ann ers
Ġflee ing
Ġdict ators
Ġback pack
Ġbrows ing
U K
Ġinstruct ed
ĠN ad
h ouses
Ġcens orship
Ġthe atre
ĠNew castle
** *
Ġprec ip
omet ry
os ity
acer b
ad os
Ġinter mediate
Ġen light
M I
ĠCh a
Ġrespons ive
Ġcorrect ed
ĠCh an
ĠAb raham
Ġnegoti ated
Ġmy st
Ġnurs es
Ġs way
l av
Ù İ
Ke ep
Ġdev il
Ġ& #
g ars
Ġpit ched
Ġpiss ed
Ġkilomet res
Ġvo iced
Ġcommun icating
ĠSt re
Ġlung s
ĠP os
Ġco h
with out
ĠK um
ĠW ake
ch ant
s ince
Ġcat aly
B en
Ġgr im
ns ic
Ġpar an
it ives
ĠN ar
Ġa ffe
Ġto dd
ĠLo ading
Ġstr aps
ud a
ues e
Ġrespond s
zb ollah
ĠY ale
Ġmathem atics
Ġmonop oly
Ġreflect ing
ig o
ĠS HA
Ġcycl ists
ĠD j
ĠGr ad
az or
spr ing
Ġinv itations
Ġsim ulation
Ġtrack er
Ġcal ves
Not hing
Ġfe ather
ĠAn onymous
ĠSim pson
ve ment
Ag reed
ĠGib son
ĠStr ange
Ġround ed
M obile
Ġcont race
18 0
ĠY u
Ġrecruit ment
Ġrock ets
ĠGreat er
Any one
ĠOffic ers
Ġpo ke
ĠObs erv
b ows
ĠLe aders
Ġshut tle
Ġh ates
th ouse
ĠWal king
Ġfound ations
Ġphys icians
Ġreli ability
Ġpa ired
lo or
Ġst agger
ĠCar roll
Ġside walk
ĠPr ison
Ġt ide
ĠL ay
Ġindict ment
vel ope
Wh ite
ĠStr ateg
Ġsh adows
Ġsimilar ities
ĠSt alin
AS S
r ade
ĠMajor ity
ĠB ac
ident ified
Ġgas oline
ĠW AR
Ġsymp athy
Ġdef enses
cl ick
Ġdetect ive
Ġcampaign ing
Ġman uscript
r ill
ab lish
Â Ģ
Ġp ains
Ġpedest rian
Ġbur nt
ĠTele graph
Ġjump s
ĠD ear
Ġstorm s
ĠK id
ĠT rip
Ġreward ed
ĠGr ound
emet ery
Ġhome owners
ĠLike wise
v ascular
ĠS id
Ġrecogn ise
ĠJ ama
Ġic ons
osh i
Ġhand ing
Ġs q
ĠAm azing
Ġtransport ed
ĠS leep
Ġcoord ination
Ġna ive
n els
Ġadvis ory
amp ire
ĠCol lection
Ġforth coming
Ġcharacter istic
im en
ĠM ale
Ġborrow ed
Ġb ast
ĠPro blem
b ag
ĠÃ ł
ke ll
Ġconv ictions
Ġrall ies
Ġdep icted
Ġcirc ulation
ĠR ules
per m
ne ys
ĠColomb ia
Ġv icious
Ġc raz
Ġattend ees
ĠB ach
al ine
Ġt ense
Ġexp on
ĠGr an
Ġinput s
ĠArn old
Ġth y
Ġprem ature
ĠK urt
ast ics
Ġp estic
Ġpop ped
Ġpol ite
ut able
Ġsh ook
ĠK end
Ġapolog ized
Ġbe es
Ġclim bed
Ġfif teen
om mend
Ġ20 24
Ġthreat ens
Ġspin ning
Ġfriends hips
Ġcr unch
O H
Ġseason al
Ġspread s
ett le
Ġhel m
ik er
Ġgar lic
ĠDel aware
ĠTw enty
Ġne l
Ġcatast rophic
ĠH ern
ĠL akers
ĠLeon ard
Ġincom pet
b usiness
b ands
ĠM end
er ie
Ġshout ed
Ġt in
ĠS anchez
Ġfl ames
Ġlog ged
Ġcook ie
ĠM akes
p ark
Ġa ka
ht ml
Ġtraject ory
Ġplant ed
ĠLat ino
ig ion
ĠTrav is
og yn
ĠBelg ian
Ġextensive ly
Ġsc iences
ĠDere k
Ġide ally
O ff
ĠNot ice
W ar
Ġd y
Ġir rational
ĠOr d
ĠLO VE
Ġpoint less
se xual
ch t
Ġinv ention
Ġout dated
um bs
Ġmess ed
akes pe
sh ine
m ember
pro v
ĠC lear
Ġgenet ically
Ġse ating
Ġsu ms
Ġcritic ised
asc us
B ar
Ġim minent
Ġcollect ively
ĠKen ya
un less
ot ine
ĠHell o
ĠF alls
Ġaer ial
iat ric
ĠC I
Ġfact ions
ip ing
ber ries
W as
ĠInter view
Ġdirect ing
Ġcomp iler
ĠPro duction
ĠV ersion
Ġcle arer
anc ers
ĠBul gar
ĠCh i
Ġfre aking
ĠAuthor ities
ad ian
ĠM ol
Ġhook ed
Ġreb ounds
Ġtogg le
Ġex acerb
ĠPart icip
Ġup wards
ĠG or
ĠStep han
Ġsynt ax
Ġcater ing
ĠE ye
sm all
Ġfr ug
es ville
d est
ĠPar ks
S et
Ġgi ants
Ġr im
ĠMin i
Ġmem e
ĠAdd ing
bn b
Ġflags hip
c led
ĠInd ividual
Ġab rupt
Ġcinem a
ĠE N
ĠC OL
Ġun law
Ġtrave lled
Ġs ir
ĠP orter
Ġgood ness
R P
ĠÂ «
Ġdefin itions
Ġencour agement
ĠV el
Ġelectro ly
G I
ĠD ust
ĠS ell
Ġhigh s
How ever
Ġpo em
ĠM aterial
ĠN OW
y eah
ĠH ack
ĠUs ers
ul ed
Ġtw ent
Ġcompet ent
Ġimmun ity
ĠSwit ch
Ġcrack down
ust ainable
Ġslee ve
Ġ196 6
em pl
Ġbr on
Ġmark ers
Ġn ails
ĠM add
Ġoutrage ous
Ġhorm one
ĠN okia
d ollar
L ooks
Ġoverl ap
l iv
Ġabsor bed
Ġsuccess es
respons ible
ent ric
Ġinaccur ate
A bsolutely
ĠSat an
Ġloc ate
Ġrepro ductive
ĠSum mit
Ġraid s
h art
Ġa irst
Ġunre asonable
Ġretail er
ĠP ub
Ġb tw
ĠTex ans
ri kes
Ġte lev
ic ularly
Ġfat ty
Ġg ifted
Ġm s
ĠDan ish
p ol
Ġaccompl ishment
Ġ( Â£
Ġactiv ate
Ġinfer ior
ĠNo ah
Ġconnect ivity
Ġabund ance
ĠB our
ĠA CC
Ġind o
Ġm asks
ph is
Ġvari ants
Ġdies el
Ġab ortions
cu le
Ġchoo ses
ĠB io
ens en
op es
Ġhon ored
ched el
Ġinstrument al
Ġaffe ction
ĠMO H
Ġtight ly
ĠG L
d ed
Ġcast le
An other
Ġdispl aced
Ġtend ed
ĠE aster
Ġanticip ate
v ote
ĠL anguage
Ġh ollow
Ġcontrib utors
ĠL iqu
Ġafore mentioned
Ġcolumn ist
Pro bably
ĠSchool s
Russ ian
work ers
Ġschedul es
Ġinf ilt
r ators
G ot
ĠO T
Ġdefic its
ĠB ills
Ġt v
ĠNich olas
ÑĢ Ð°
Ġsh ove
ĠVirt ual
Ġillustr ate
Ġmet als
ĠGener ation
Ġconsist ing
Ġin expensive
Ġdis puted
ĠB apt
B est
Un fortunately
ĠMid west
Ġg ates
Ġstat istically
Ġsound track
ĠHe zbollah
r r
v ice
ID E
s un
Ġfor wards
arn ess
il ight
Ġhypot hetical
ĠF ine
Ġu ranium
gh azi
akespe are
Ġl ion
Ġconsider ations
ny der
ĠW ILL
Ġsl aughter
Ġsurvey ed
ĠC AP
ĠMon te
Ġam azon
ĠP and
product ive
ĠIn come
Ġspir al
Ġconc ur
Ġpit ches
Ġview er
Ġgener ator
Ġnic er
ys ical
Ġtour s
Ġr ider
f air
ĠS ie
Ġtem p
ĠV ent
ĠJ ur
as cript
AC T
Ġoptim ism
Ġbr ace
ĠAg ent
Ġburn s
ĠT ab
Ġli vest
ĠLabor atory
if i
Ġplan ners
ĠS ite
b augh
Ġob ese
Ġw iped
un ts
]( #
ĠNews letter
Ġqu ot
oul os
ĠG ET
Ġfeed s
Ġfert il
Ġscar ce
ĠM oss
Ġbrand ing
Ġund ocumented
Ġmark er
Ġappl aud
Ġprompt ing
af fe
l ove
Ġl ace
ĠSt age
Ġdr ank
Ġliber ties
b ane
Ġanal ogy
âĢĿ ).
ĠNorwe gian
rit ers
ĠVide os
ud s
lo at
Ġqu itting
Ġconsist ed
ĠMar ie
Ġparticip ant
Euro pe
ĠDar win
f illed
Ġass hole
Ġcalcul ator
Ġpredomin antly
Ġrespect s
Ġpat ron
ĠT A
ĠRaven s
ĠRe pe
ĠD ale
w age
Ġtang ible
ĠG N
th s
Ġmar king
Ġunpredict able
ĠÂ Ń
ĠDam ascus
% ).
Ġupload ed
gom ery
Ġpolic ing
Ù Ĩ
ĠId aho
ĠRE LATED
Ġpre tending
ise xual
ix els
ĠB eth
ĠF ans
ĠL P
Ġ( -
ich t
Ġd itch
ĠR are
Ġdistinct ive
Ġactiv ism
âĢį âĻ
ĠSt rip
Ġsl ated
Ġg rooms
EN D
Ġintegr al
ĠIs n
Ġded uction
Ġwh ale
Ġsc aling
aut h
Ù Ĭ
Ġcas ino
ro ads
Ġpersu ade
Ġmon itors
ĠM ann
ĠFor bes
Ġw ield
Ġch rom
W r
r ans
st ation
Ġstat ute
Ġu b
ĠW itness
ad ata
me aning
ĠFin als
Ġhead ache
Ġstr ides
ĠShan ghai
Ġlegitim acy
ili ation
Ġperform s
Ġrel ates
ract ion
Ġadministr ator
UL L
pr iced
******** ********
ĠW als
cer ies
m or
s hips
Ġcol ony
Ġprox imity
Ġbre wing
V M
Ġacadem y
Ġauthor itarian
Ġp oured
ĠThank fully
Ġmin erals
ĠP ain
ĠD ame
Ġingred ient
Ġsus cept
ĠM ull
Ġrecogn izing
el p
ĠR ab
ind e
Ġper ipher
b t
Ġno ble
um ed
Ġadv ancing
TS D
sa fe
ope z
Ġa zie
Ġinadequ ate
il itation
ĠUC LA
ĠO culus
Ġalloc ated
Ġvan illa
Ġl ag
Ġbarg ain
ĠPortug uese
Ġrail way
abb i
D own
ĠInvest ment
Ġw olf
uff s
Ġadvoc ating
Ġval ley
de al
Ġmerch and
ach i
Ġcamp ing
ĠPer fect
Ġfaith ful
Ġtempt ed
ĠJosh ua
Ġmetab olic
ĠChamp ion
ĠB rett
Ġrep ository
Ġjer sey
ĠWe nd
ĠBuff ett
ĠMo ving
Ġbe ard
Ġve ctor
ww w
ĠGand hi
Ġinsist ing
Ġm p
IN K
ĠCrit ics
f riends
ĠCof fee
\ ]
Ġdo c
l ance
ĠG E
ĠS ri
Ġexc er
utter ing
Ġball oon
dri ving
ĠPR O
ĠL um
Ġloo ph
ateg ory
Ġshow c
Ġdoub les
ĠA ur
Ġobtain ing
Ġunw anted
Ġexp ans
ĠRichard son
Ġcont ender
Ġmod s
Ġgen ocide
Interest ing
ĠR M
Ġeval uated
ar in
on gh
ĠH ass
ĠFerr ari
ĠAud io
Ġbl essed
clip se
Ġins ufficient
ash a
Ġconce aled
Ġexplo ited
ĠG ing
Ġl inem
Ġst ems
ect ed
st ated
ĠT X
f em
Ġ196 3
in ters
Ġcommer ce
me al
Y up
at us
Ġdiscover ing
Ġat omic
Ġunder water
ice ps
Ġaccess ed
Ġtal es
ĠLe ad
Ġat op
ĠN uclear
Ġju ven
Ġrecogn ised
ĠM ills
ĠExper ience
Ġobst acle
ell ed
ple asant
Ġphys ic
ow itz
Ġâ ľ
Ġdep uties
Ġpromot es
Ġinsec ure
il ers
op ing
Ġrein vest
ĠBre nd
Ġacceler ate
ĠUS C
ĠRepresent ative
ĠD at
ĠCommon wealth
Ġkn ocking
Ġred es
ĠEag le
Ġtw ins
Ġfundament als
Ġrepl icate
ĠK ap
Ġnot or
cu its
ĠAd vert
Ġair ports
ĠSol id
Ġturn over
els h
ĠNorth west
ĠM t
ĠW ings
ĠGr ace
Ġprov oc
Ġpartners hips
Ġdelight ed
Al though
le en
ge ls
Ġgl uten
Ġd urable
Ġmat urity
ĠTy pically
Ġsch izophren
ĠAd rian
Ġsl am
Ġpost season
Ġp anc
ĠH off
ĠQu arter
Ġd ull
Ġreact or
ĠH ob
Ġhas sle
Ġrecip ient
Ġver ified
mid t
Ġen forced
an ity
ĠCol ts
ĠHend erson
be fore
Ŀ¤ ï¸ı
Ġbl ows
Ġacc laim
ĠRand y
Ġdump ed
th reat
ĠC av
Ġgl ac
ould er
Ġ12 8
Su per
and y
w ent
Ġflood ed
Ġaer obic
r ising
ĠK o
ĠCase y
Ġupd ating
yn asty
Ġbre eding
Ġexcer pt
gr own
str om
Ġover load
Ġproceed ed
ĠBeh ind
Ġsmooth ly
person al
Ġdelic ate
ĠCD C
Ġadm itting
Ġvis ibility
.' "
p aper
ĠR ust
ĠC ort
Ġsuprem ac
Ġgl ue
ĠBen ghazi
ĠWH O
Ġcost ing
Ġreg rets
ĠM int
Ġsupp ress
ĠKenn y
is ure
Ġdist urb
\ -
Ġrescu ed
M et
Ġadd itions
Ġhyd ro
Ġrespect ful
Ġinter ventions
Ġlo vers
Ġsk ate
s ens
ick y
ĠEconom ics
ĠT umblr
ĠCrime a
Ġout reach
Ġboy cott
ĠEll is
ĠS r
Ġunf old
cour se
Ġy o
Ġbund le
Ġst ew
Ġc aucus
Ġu m
W atch
Ġl od
Ġacqu iring
ĠR ut
ĠR alph
Acc ording
ĠCe lebr
ĠBudd hist
Ġhard core
Ġhint s
Ġmit igate
Ġl ingu
ĠS outheast
ĠQual ity
ir ies
ĠJ in
Ġo z
ĠA br
ĠMatthew s
ent ry
Ġbail out
Ġillustr ated
l oc
ĠG RE
ĠPriv acy
" ),
ĠM AN
Ġimpro per
Ġpull ups
Ġrig id
coh olic
k it
Ġc ite
orn s
Ġgrass roots
Ġclin ics
Ġexp osing
set t
Ġrest art
ĠAl z
Ġmet eor
ĠDise ase
in it
Ġpsychiat ric
Ġsl ammed
Ġblog ger
b ach
Ġmor ph
ract ed
P re
g one
i ott
ĠT weet
ĠGl as
ĠV a
Ġstaff ers
Ġindic ators
it ous
Ġgam ble
Ġfr ied
Ġ24 0
G l
ope fully
Ġv ivid
Ġappe aled
ĠTw in
Ġentire ty
Re ally
ĠR ew
ĠSocial ist
Ġbr ow
ĠLouis ville
Ġselect ing
bu ilt
it ating
ĠC el
ĠR OM
ĠS nyder
n is
Gener al
Ġclass ification
ograph ics
Ġal lev
J S
Ġcomb inations
im ination
Ġanaly zing
Ġcr acked
Ġcompl ications
ĠShe ll
ĠIsa ac
ĠAsh ley
ĠMos ul
Ġdat as
ĠIndust rial
le ague
Ġremark ably
Ġdatab ases
C T
ĠIniti ative
Ġincom plete
ĠMost ly
Ġconj unction
Ġdo s
Ġen rolled
ĠS add
most ly
Ġreal ities
Ġan at
Ġprolong ed
sh aring
Ġmed s
Ġfor ty
} ,
ÃŃ a
Ġdo able
ĠVeter ans
th anks
Ġreal ization
Ġm u
Ġintern ship
ĠTot tenham
l ocal
ĠS aw
j ah
ĠPear l
ener gy
ĠE gg
ĠEm peror
Ġwholes ale
Ġexc lude
Ġ18 00
Ġprop osing
AC A
Ġinform al
Ġcongr ats
ram id
Ġprivile ged
ĠFind ing
$ $
Ġimm ers
Ġdemonstr ating
w ic
ĠHop kins
Ġins ider
Ġsoph omore
ge ois
g ling
ĠIn g
ĠL ed
ĠY am
Ġup right
ĠBarn es
M al
ĠSw an
ĠEVER Y
Ġe ld
Ġmir acle
ĠCur ry
Ġoff enses
Ġdown hill
Ġcolor ful
ĠSt rength
Ġa kin
Ġvac ant
are a
Ã³ n
Ġconnect s
Ġincumb ent
d ist
C r
ĠB ark
ðŁ ¤
Ġdis regard
ĠV C
ĠPar ad
Ġcl ues
ĠReds kins
ĠLegisl ature
Com p
ĠReg ister
er k
Tr ue
Ġcoord inated
Ġp und
ĠC ities
Ġmor ally
RE D
Ġalt itude
ĠW ent
OU R
Ġloc ks
nd ra
ĠS it
ĠC amb
ape l
Ġmag net
g ard
Ġen compass
Ġuns afe
r ays
ĠMem phis
Ġto ast
Ġimp osing
ĠEr n
Ġremember ing
Ġprob ation
e ous
Ġprogram mer
ĠEm ma
Ġpop ulated
ĠE ug
ĠN GO
ĠNon etheless
Ġd awn
Ġ11 5
ĠReg ion
ĠV o
W he
ĠInn ov
oret te
am ount
ĠMont gomery
Ġcompet itions
Ġdiv ing
Ġbeaut ifully
ĠChe ers
he ster
ard i
Ġelect orate
ĠA AP
ĠAbd ul
Ġt an
ĠSh akespeare
ĠP ierre
op hy
it an
ĠP ul
ia o
uss ions
Ġrest oration
atur ally
ot er
Ġmer ger
ĠL ux
ĠPen gu
Ġrecip ients
Ġ ë
Ġwho lly
H H
Ġopt ical
? ).
ĠBlu etooth
y ers
Ġc i
Ġaut op
Ġsupp lier
Ġpro jection
st eps
ong yang
ĠPr ide
Ġparad igm
Ġn ucle
Ġfl or
ĠC raw
ĠPH P
P aul
f ed
Ġp pl
ĠU l
Ġmoder ators
Ġsie ge
Ġpaint ings
ĠSteel ers
I B
Ġvib rant
ĠK ush
ĠTrad itional
ĠEv an
nder ing
op oulos
Ġv om
Î ¿
Ġeleph ant
Ġconver ting
Ġcapt uring
ĠA j
Ġtime ly
Ðµ Ð½
ĠSch olar
! ),
ĠCath olics
Ġrelax ing
ĠWh ole
ink le
Ġbed s
ich ael
Ġcr isp
ĠStu art
L ink
id i
Ġmic row
Ġdec isive
Ġpast or
Ġste ering
im er
uc ing
ĠMult i
ĠSt rike
s ix
Ġinhabit ants
Ġcoordin ate
m ot
Ġje opard
ĠGab riel
Ġhistor ians
Ġun b
ĠSC P
ill ary
ĠWest minster
Ġh over
Ġn odd
ĠKas ich
ĠSpot ify
Ġversat ile
Ġsh iny
Ġrese ar
ĠU pper
ĠD ylan
Ġparad ox
g ay
AN G
Ġprob able
Ġneuro log
ĠAmb assador
,' '
ĠS gt
Ġâ ĺ
Ġagree ing
Ġex ams
g ow
av ior
h it
Ġcad ence
\_ \_
Ġ| |
Ġunf amiliar
AT H
Ġens ures
cl ock
Ġback ward
Ġam azed
Ġk its
Ġschedul ing
ĠMet ropolitan
Ġpass words
Ġwel coming
ĠF riend
Ġt abs
Ġbachel or
Ġcor related
Ð¾Ð ²
Ġstamp s
Ġbe e
ĠP oor
at ches
Ġbelong ed
ĠJen kins
Ġamend ments
Ġ iv
ult z
AC E
Ġpredict ing
Ġcro re
Ġmonit ored
Ġpal m
Ġconstitu ents
ĠP ew
ĠHer oes
Ġimprison ment
ad h
IT E
us k
Ġk idding
Ġph ases
orth y
ĠAdvent ure
ĠL ars
Ġdemonstr ators
Ġre ductions
Ġgrad uating
Ġmind ful
ĠProf essional
l ift
Ġprotest ing
Ġby tes
Ġred e
ĠMun ich
ĠD olphins
ĠTun is
S ub
. (
d b
Ġtro phy
Ġim aging
c ertain
Ġret ention
Ġsuff ers
ah ah
ĠT iger
ĠG az
Ġhighlight ing
ĠBudd h
ĠAgricult ure
is se
Ġther mal
Ġseek ers
Ġdr ills
Ġe ats
Ġposition ing
Ġle nders
ĠM our
Ġdeleg ation
ĠFa ith
Ġairpl ane
ĠH ear
Ġgrat itude
Ġm int
ber ger
ipp le
F e
com pl
Ġphr ases
Ġinterven e
Ġshr ink
ĠKle in
ĠInit ially
Ġyog urt
names e
Ġlic ence
Ġbl oc
ĠNov a
B ro
Ġcooper ate
Ġman ga
ĠG ross
Ġmatch up
Ġprohib ition
ion i
ĠSch ne
Ch ina
ĠF redd
is i
ĠCourt esy
Ġsm iled
Ġdr own
ĠC hes
Ġg ad
ĠJ os
ĠIS BN
c ock
ment ation
tech n
Ġpropri etary
Ġjail ed
Ġdr astic
ĠAv oid
ĠAp ollo
Ġphenomen a
Ġfin ishes
ĠGene va
a ic
ĠAct ive
Ġpool s
Ġd up
Ġspecial ty
Ã¶ r
Ġtas ked
Ġgenet ics
Ġmast urb
Ġis nt
ĠPre p
Ġcompe lled
man y
ĠSpace X
ar ak
Ġaggreg ate
ĠEn forcement
Ġg f
Ġann i
Ġfore see
ĠCl int
Ġsystem ic
ĠHuff ington
Ġhur ricane
ãĥ ¼
ĠW rest
P ar
B ron
Ġdis abilities
P ol
ĠWhats App
Ġr iots
Ġsoul s
[ ^(
Ġ4 50
Ġte x
Ġform ats
ob ody
Ġdetail ing
Ġassess ments
Ġprotocol s
ĠBa iley
Ġrif les
Be fore
p ict
Ġsort ed
Ġthe rapeut
Ġcal oric
ĠRe x
U nder
un ci
Ġha w
S im
p resident
Ġworks hop
ĠN y
ĠTr ain
Ġs arc
Ġl enses
OR D
ĠW elsh
Ġmir rors
ĠHe aven
Ġinherit ance
nd ant
Ġpreval ent
ĠWild life
Ġsmo ked
Ġtwist ed
Ġbank ers
Ġawa iting
ĠC E
Ġnever theless
Ġher s
ĠA W
OT H
Ġhom icide
que z
P O
Ġfair y
Ġse ize
ĠACL U
Ġdeb ating
Ġfact ion
ĠFood s
ĠSc ript
Ġpartic le
ĠG ang
Ġp ine
Ġrot ate
Ġaccept s
s pan
oph obic
Ġb aked
ĠDes cription
Ġfair ness
ĠP or
b id
ĠLeg acy
or um
B Y
Ġinvestig ator
p ad
ĠImp act
rock et
Ġmot ive
Ġen rich
Ġv apor
Ġbl ah
che m
ĠA FL
ĠC airo
W ait
Ġe ternal
e le
Ġsing ular
Ġp unk
Cl ass
Ġt ant
Ġsound ing
ĠPay Pal
ĠHe brew
ĠB rent
Ġreg ain
t ier
Ġp s
qu est
Ġref rig
ĠM ak
ĠL opez
Ġgen ome
bet ter
Ġ\ (
Ġsw ings
Ġwork load
Ġre nown
ĠSur face
Ġvers a
Ġhum idity
Ġsl ots
Ġorigin ated
Ġwrit ings
h aw
Ġsens es
ilit ary
ĠPrem ium
ĠM ile
Ġp ipes
i u
ĠGT X
C OM
ĠW ag
Ġext inction
Ġs om
Ġun supported
ĠPre vention
Ġpo ised
ĠAnn ual
ĠEll iott
ĠBer g
ĠThr ones
Ġsl ump
Ġinsect s
hed ral
ĠR ank
ĠS print
ĠPy ongyang
ator ial
Ġchar m
ĠCom pl
Ġexcl usion
Ġde er
ĠAl ready
Ġcamp uses
ĠCole man
ĠL OL
ĠTit ans
ĠS aid
ĠDub ai
verse ly
c ross
Ġun pleasant
Ġg ren
Ġsen iors
ĠB un
Ġcritic ize
uls ive
Ġencrypt ed
Ġathe ist
Ġill ustration
ins ki
Ġcontrib utes
Ġtow el
Ġst ain
ex per
ĠAb ove
\ /
let te
E r
Ġmotiv ate
] ;
Ġstri ve
Ġo ct
P H
ĠEx pect
and als
Ġw ax
Ġrefres hing
Ġtur key
I ES
ind ust
ener y
an throp
ĠI o
V C
ĠA ch
ĠR idge
ĠPere z
Ġcr ashing
Ġprompt ly
Ġ ....
ĠC W
ĠQuest ions
Ġsl ogan
O ct
Ġc ivic
Ġ19 00
Ġwar rior
ch anging
IC S
b illion
Ġneed le
Ġmilit ia
ĠC ob
ĠT ru
empt ion
Ġstuff ed
at al
Ġpri ests
ĠPl ant
ĠLa unch
ĠEm ir
ourn ament
Ġpl ots
Ġwr aps
Ġd uck
ĠB in
ĠConfed erate
ĠF E
ine a
ĠMult iple
Ġsent encing
Ġsp ying
Ġh ug
ĠCir cle
Ġreact ed
G e
F ile
Ġenjoy ment
Ġre per
ĠExt ra
Ġrequest ing
Ġp ensions
ĠK iev
ĠBen g
ĠD ownt
rop he
Ġind uced
Ġcon ventions
ĠStart ed
ĠQ ur
Ġmem oir
Ġcan s
Ġdo d
Ġcat alog
c rit
Ġfl own
Ġen velope
Ġz ip
ĠV illa
Ġc ensus
Ġst umbled
Ġint oler
ĠA SA
Ġaccommod ation
r ab
ĠGing rich
Ġfin est
Ġvis ually
as a
Ġpour ing
Ġf ist
f alls
Ġstere otypes
Ġrab bit
ĠGreg ory
Ø§ ÙĦ
ĠT i
c oun
M c
ĠI ve
ðŁĺ Ĥ
Ġaston ishing
Ġwarn s
ĠBur ke
Ġlength s
ĠR ange
cell ence
Ġrecy cling
in ers
Ġspec ulative
Ġatmosp heric
ĠV ERY
ĠM az
ĠD ash
Ġcry st
ĠMc N
l at
ĠN aval
sh are
op y
ĠAlf red
Ġspe ar
Ġ196 2
form er
D ude
Ġart illery
ĠRoberts on
ĠThough ts
ro e
ĠAt hens
Ġwhistle bl
Ġto pp
OW N
uter te
Ġo ath
' :
Ġinterview ing
Ġair lines
ĠH od
Â ·
Ġscreens hot
Ġne p
ĠFR OM
ĠG oth
Ġoccup y
ĠJ up
Ġprest igious
Ġmis ogyn
ĠRe be
Ġdiscuss es
ĠS lo
Ġplace bo
Ġn er
Ġbe am
Ġtest osterone
ĠFal cons
Ġgang s
Ġtrain ers
Ġorgan isms
law s
ĠSee ing
ind uced
Ġse ated
board ing
Ġcomp ile
os ion
ĠDr ake
ĠH ood
li ent
ĠTri ple
Ġf ade
Ġecho ed
ĠN am
f inal
Ġr ans
ĠHig her
Ġend angered
Ġsymp athetic
Ġfuel ed
Ġreck less
i encies
AN S
ĠMill enn
Ġar row
d imensional
Ġorient ed
ĠÎ ¼
Ġcraft ed
Ġsam pling
Ġ20 25
Ġ ï¿½
Ġvar ieties
Ġh ref
Ġpromot ional
k ov
role um
Ġprofess ionally
OC K
Ġcur tain
ĠFl a
Ġdom ains
Ġst aged
Ġreferen ced
ĠC roat
ate gy
Ġexempt ion
Ġan ten
Ġn ause
ĠLeaf s
Ġmos qu
Ð ·
Ġemer gence
iber al
ĠSach s
ĠSal v
Ġaccomplish ments
Ġst oring
Ġmin eral
Ġlog in
Re al
ĠF uck
Ġfoot print
ĠBre aking
ĠHus sein
ĠBon us
ĠH Y
ign ment
Ġmin ors
Ã ¬
Ġmass age
ett i
h n
Ġp aces
ent e
Ġmat rix
ĠN ear
Ġaccompan ying
ĠH om
Ġord inance
Ġpl un
ĠE tsy
ĠSil va
Ġaccum ulated
int egr
Ġr ant
Ġport al
Ġspl itting
ĠHold er
itz er
Ġdiscont in
Be ing
Ġel imination
Ġl oot
Ġumb rella
Ġpar a
l ower
Ġcr ushing
Ġthe at
ĠFl int
ant om
ĠSU V
Ġsal mon
ĠInd y
Ġnew com
rib uted
cl ub
ĠViet namese
Ġdiscour aged
Ġprint s
Ġsl og
Ġun equ
oint ed
Americ a
ĠTrans port
Ġide als
he ard
ĠP OL
b ps
Ġt urt
lev ard
bro ok
cur rent
Ġh ats
Ġchar ities
Ġm igrant
Ġnick name
ĠC able
Ġp ads
Ġmodel ing
m und
Ġwell s
Ġc ows
Ġdess ert
ie ves
Ġtoss ed
ess a
Ġret ros
ale z
Ġconstit utes
âĢ¦âĢ¦ âĢ¦âĢ¦
Ġindef initely
q a
ĠM aps
ĠIns ider
ĠAlz heimer
Ġo v
ĠL if
un al
Ġapp re
ĠE ST
add afi
ĠPubl ished
ĠWals h
ĠD ana
Ġcardio vascular
---- --
ĠMor oc
ĠAC A
l ings
Ġpack ing
Ġax is
ĠI CE
ĠH C
E s
Ġgra pp
G H
Ġkid ney
Ġadminist ered
Ġ~ $
ra fting
Ġtr aps
ore st
ĠTrans it
Ġadop ting
Ġty r
h ma
Ġl amb
Ġstagger ing
Ġsk ipping
Ġintermitt ent
Ġdeb ated
Ġunder wear
D ec
ident ally
ĠG raph
Ch ar
we b
ĠY outube
ĠC inem
ĠL ogan
Ġl en
ĠWin ston
Ġstick ers
Ġn urt
Ġab st
Ġbarg aining
ou x
Ġquarter ly
arr ow
Ġquarterback s
Ġdile mma
I Z
ĠS ugar
zz le
udd enly
ĠKurd s
Ġtre as
Ġsp ikes
ri um
4 50
Ġre im
Ġand roid
Ġsurround ings
ĠAustral ians
ĠF Y
asp berry
Ġgrab bing
atin um
Ġperform ers
Ġcell ular
Ġpop ping
Ġcle ans
Ġdiscount s
Ġmole cular
re view
ĠH ang
Ġvalid ity
Ġout we
ĠPel osi
Ġcra ppy
Ġgro ceries
Ġambul ance
Ġbi king
Ġch uck
c in
um i
ocaly pse
Ġcommod ities
ĠSch umer
ĠS ak
Ġgym n
Ġdecl ines
Ġalle ges
Ġshot gun
ĠF uk
Ġunreal istic
ĠD uterte
ĠJ ays
Ġsm ok
l as
ĠSc ore
ĠJul ia
Ġcha otic
ri ad
ĠT roy
ĠThe resa
fl ation
Ġsl ap
ĠQu ant
aw ays
con nected
Ġsurpr ises
Ġstub born
l anguage
ĠEd in
200 7
ĠF REE
Ġtest ify
Ġinterrupt ed
st ant
Ġc ites
ĠEth iop
U TC
Ġcap ita
ĠB irth
Ġsymp ath
Ġdoub ling
Ġs ung
N O
inent al
Ġal mond
ĠSt rava
Ġtrans mit
let ion
Ġdisadvant age
P ac
Ġpl asma
Ġmaneu ver
tr aining
def ense
Ġband width
ĠAppe als
ĠU T
Ġlos er
Ġstim ulation
Ġo st
ĠOr acle
ard on
Ġex cel
Ġend ure
ĠO mar
Ġmach inery
Ġ: -)
ĠE sp
Ġqu eries
Ġup front
ĠL amb
ĠTurn s
Ġth a
Ġsc ra
Ġrem inis
ĠO dd
Ġpr ag
Ġs acks
Ġnot icing
e val
r ates
n ings
gu ided
10 1
ĠDod gers
c reat
Ġcompr ised
ĠSky pe
Ġobject ions
P ut
S er
Ġsepar at
Ġv irgin
Ġpet ty
Ġst acked
if le
ĠSom alia
sequ ently
ĠAn sw
OU T
ĠEl on
ĠA IDS
ĠLind a
l oss
am el
ĠBal ance
ĠBet a
duc er
en es
Ġus ername
bl ue
Ġrelie ved
ĠFif th
Ġconstruct ive
ros so
fund ing
Ġdisapp ro
pie ces
Ġass erted
it Ãł
ĠEss entially
Ġh arness
Ġlif es
Ġric hest
Ġo ve
ĠReyn olds
?? ??
oy le
Ġdeleg ate
ĠT ories
G R
Ġ ×
ĠM ik
Ġcomed ian
Ġ196 1
Ġprocess ors
m os
Ġhack er
Ġ12 00
Ġmechan ic
Ġnep hew
Ġwh ales
Ġl ent
Ġb inge
Ġl mao
ĠF F
at ories
ĠStand ing
Ġtheoret ically
Ġhasht ag
Ġcandid acy
ire ment
ĠâĨ Ĵ
Ġexceed ed
ve t
de ep
Ġsec recy
Ġbrand ed
Ġdesp air
Ġchar itable
ĠL ith
Ġcal cium
Ġcan cell
ĠP f
Ġmain land
Ġdeter mines
ĠS ask
ĠProp het
.' '
Ã ¸
ustom ed
T or
Ġacknowled ging
Ġman a
ster dam
Ġa ven
Ġfr iction
ĠU nd
ĠP le
Ġ3 000
ĠRec ommend
a verage
ĠLl oyd
ĠT ap
Ġ17 5
ĠLGBT Q
iss an
Every thing
Ġnot ices
b ay
Ġdevelop s
el and
ĠKnow ing
udd y
Ã© e
Ġro de
Ġrig orous
Ġ13 5
ĠL ag
Ġinjust ice
ane y
ĠW el
ov an
Ġpun ct
ĠS oph
fe ed
Ġsab ot
ÂĢ Â
Ġtransl ates
iche ver
Ġox id
Ġplate au
Ġcont ention
Ġunsuccess ful
the se
op ed
Ġrec onsider
Ġnegoti ation
Ġnum er
ĠHar bor
Ġneighb ours
Ġp ixel
Ġdevast ated
ĠWhere as
n um
ĠH ook
Ġst ellar
_ {
H er
ĠM illion
ĠHe ights
Ġlif elong
an alysis
Ġaver ages
ĠIM F
ut ton
ĠUs ed
ĠPolit ico
Ġconf ined
Ġbo asts
Ġserv ants
Ġcons oles
Ġdict ate
display style
place ment
Ġcounsel or
Ġex otic
Ġp ap
ĠBash ar
Ġantibiot ics
Ġinflu x
ust ral
Ġspe cially
ĠNS W
ren ched
Ġstab bed
ĠNe igh
Ġstick y
read ing
Ġcort ex
he nd
Ġse as
Ġassault s
oun ge
ener ation
ob a
Ġun named
Ġteaching s
iv ia
ass uming
ib al
Ġbur ger
Ġcap ac
Ġrev ision
Ġl ament
Ġfr amed
Ġco ff
Ġreserv ations
B B
Ġshut ting
ĠIde ally
Ġprogram mers
ian i
Ġrele g
l it
ĠInf o
ĠJ ill
Ġgrad ual
Ġ# #
Ġselect ive
ĠPre viously
Ġint ric
Ġlobby ists
Ġprem ises
Ġz oo
ĠSu z
Ġunp aid
ĠGl en
Ġeye br
Ġinteract ing
Ġcorrid or
Ġcher ry
W est
Ġwarr ants
Ġs idelines
Ġsk irt
com mon
Ġrec laim
Ġsoc io
ĠTh inking
Ġpath way
Ġc ough
Ġch unks
ĠÐ ¸
M in
H mm
od s
at ri
ĠÐ ¾
ĠKn ights
D avid
ĠðŁĺ Ĭ
Ġ< <
p arent
ðŁ Ĵ
Ġpop s
Ġru ins
R R
be h
g mail
ĠSecond ly
Ġempir ical
Ġm esh
Ġham string
Ġyell ed
Ġg ases
Ġcr ust
Ġdecre asing
s ic
ĠL av
Ġexperiment ing
s ided
ĠInd igenous
ist hen
Ġprin cess
ount ain
s an
iet h
AA AA
Ġj ugg
ipe g
Ġtax ation
Ġalarm ing
Ġdetain ees
Ġl id
Ġab normal
Ġstory telling
H a
P ER
ĠRe venue
Ġbro kers
Ġground ed
ĠS V
ĠPer iod
a urs
Ġb ore
Ġth under
ĠB ever
A G
ĠElect ronic
Ġdeadl ifts
Ġper tain
Ġmot ives
T T
qual ified
Ġsad ness
ĠA bs
Ġword ing
Ġfiref ighters
Ġk arma
d ue
Ġinst ability
ĠBro ck
com plete
Ġub iqu
Ġout fits
c uts
ĠN FC
UC K
Ġadvert ised
Ġ19 0
Ġsur g
Ġmerc y
Ġtort ured
ĠCh oose
ãģ «
Ġconf isc
L ong
ĠRoll ing
Ġdisplay ing
m ajor
Ġcan on
Ġdo omed
Ġrebell ion
ĠBurn s
Don nell
Ġb ree
ĠArab s
F ace
bl og
Ġ19 48
Ġinaug uration
he ll
ĠFrank en
ĠGu ild
Ġcal ib
Ġreb ound
Ġp ins
E X
ĠJul ie
Ġ å
Ġillness es
sec ret
O ther
ĠSt ef
ĠMar ines
ON G
Ġpsych ologists
Ġst are
se at
com pet
~~ ~~
ne ction
h ops
ĠN RA
Ġav iation
ĠHor se
it ime
Ġunbeliev able
ig el
ĠW izards
Ġannounce ments
ĠU FO
Ġste ak
all a
hol m
ĠK in
Ġun ified
Ġcr ises
Ġgreet ed
Ġbenef ited
ĠH alo
ĠP it
Ġcontest ed
Ġenthusi asts
author ized
Ġimprison ed
ĠSe bast
Ġiron ic
ot le
Ġcontract ed
Ġcomp ares
Ġf usion
ind ex
b ia
| :
ount y
c ro
Ã ª
Ġposs essions
Ġkind ness
Ġho ard
stan bul
ĠCh at
Ġo ceans
H igh
Ġterr ific
ĠKind le
Ġp ac
ĠC ards
ĠM ist
Ġtr ilogy
ĠFil ip
ĠO C
ĠC atherine
ĠI van
ad vert
Ġc ues
Ġin ning
ĠB oss
im pro
Ġjun gle
et z
ĠTh ing
ĠTim othy
oc re
Ġ* /
ĠL anc
ĠS hip
im edia
ì Ŀ
ĠDani els
tend ed
S y
om ical
intend ent
Ġdiplom ats
ĠX P
ĠJ agu
x on
dem ean
oo o
ĠResp ons
Ġeval uating
ĠFal con
) -
AN K
f ill
Ġam en
Ġp ier
ĠE rik
ĠMem ory
Ġpsy chedel
Ġobser ving
ĠTh read
Ġdep reci
Ġfin ed
Ġw iki
Ġdecre ases
ĠW on
Ġcritic isms
ĠN est
B it
onge vity
ĠCh in
d ogs
Ġende av
ĠCore y
Ġconfir ming
Ġgram mar
Ġcop ied
me an
sh ort
ĠVol ume
Ass ad
pr im
Ġmer its
es ar
Ġur ine
ĠD ow
ĠChampions hips
Ġswit ches
Ġg it
ah ar
Ġvulner abilities
Ġstun ned
m ass
ĠC ensus
wal ks
Ġtack ling
ĠFre eman
ĠTh an
Ġwithd rawn
J an
Ġw ishing
Ġhome made
Ġdece ased
h in
Ġfur ious
Ġlear nt
Ġprejud ice
ĠC ad
count ry
l ane
as is
ĠRom ania
Ġsol ic
Ġsustain ability
Ġdis asters
w s
ĠM ental
Ġbrows ers
Ġshe lls
xt on
Ġtherapeut ic
ick ers
Ġrepe ats
uk a
Ġsn apped
Ġfl ame
Ġhost age
Ġcirc ular
ĠWr itten
V I
Ġtraum atic
Ġsw orn
Ġbur gl
ag le
Ġrecogn izes
ĠM T
Ġstr ains
s um
Ġdig its
Ġrebu ilding
ĠBen ch
Ġhust le
Ġback drop
re rs
Ġpreval ence
Ġmaj ors
er ated
Ġprim aries
m oney
Ġperson a
Ġur gency
Ġsoc ietal
Ġstate wide
Ġ^ |
ĠPhil os
b ial
ĠVictor ian
osp here
Ġinsure rs
Ġde portation
eng ine
ĠR uth
Ġspecial ists
commun ications
W ork
Ġb isexual
Ġam ended
U RE
play ed
ĠDam age
ĠJ ump
ĠGu ant
Ġhesit ant
Ġs perm
l ate
oo ld
ĠCon n
Ġpower lifting
Ġco vert
ind ers
ĠEver ton
Ġhead aches
Ġle nder
Ġsy rup
h ig
Ġpres ervation
ĠHon or
ĠM IL
Ġtem plates
ĠT IME
ĠR hod
ĠA WS
Ġerupt ed
Ġeven ly
Ġhelicop ters
att ack
ĠS ize
Ġshow ers
Ġimp air
Ġ2 30
g ro
Ġunder cover
ĠAven gers
ĠGr ass
Ġ7 50
Ġdistingu ished
Ġun just
B oth
Ġver se
Ġst a
he avy
Ġbat ting
L ear
ĠE urop
Ġpump ed
Re illy
AR S
ĠN ode
Ġsuper market
Ġb ri
l ol
Ġad vertise
âĢĿ ),
Ġcur se
Ġdistrib utions
IS A
ĠSh ot
not hing
Ġmac ros
ĠW ish
f ocused
Ø ±
Ġd un
ĠOw en
Ġv ows
Ġg oog
Ġ20 30
Ġthere after
Ġskept icism
ĠB uc
Ġpay load
ĠConst ruction
Ġexp ired
ĠAv ailable
Ġsever ity
ĠFl ag
as se
ĠG y
IN T
Ġterrit orial
Ġcont ests
Ġloc king
ĠAd obe
Ġce ment
Ġmiss es
ĠGlas gow
Ġdivers ified
Ġan them
ĠMor rison
gg er
ĠMan ufact
ĠE arn
c ision
ang led
het ics
l ists
Ġemb ry
Ġnational ism
Ġdev ote
Ġanticip ation
ĠK i
ĠKash mir
w ald
ĠP TSD
ĠB uch
ush i
Ġch ore
Î ½
ĠF it
... )
ĠAny ways
ĠO UT
ĠSe oul
ĠGr anted
ĠDem on
ĠH arm
Ġmerchand ise
Ġsex ist
ãģ Ĺ
ĠAltern atively
ro b
ĠSim mons
Ġph osph
Ġforb idden
Ġex empl
ĠChar gers
Ġcy l
Ġaut umn
h oles
ĠV I
ĠLet ter
mm et
ĠU g
Ġhour ly
Ġjer k
Ġvalid ate
Ġm att
ott le
ĠAM A
Ġright ly
p olitical
Ġhun ter
Ġd well
ĠB ee
Ġsl iding
ĠT PP
Ġste alth
ĠAM Y
Ġneg atives
ĠJ et
zz y
ire ction
ĠF ri
Ġque er
Ġinstruct or
ar ium
K ey
Ġdep ressing
Ġchampions hips
ĠSum mary
Ġhy ster
ins ky
Ġexplos ives
Ġsuic idal
Ġmanage able
{ "
Ġstrateg ist
ĠPat rol
ĠðŁĺ ħ
if a
gr owing
ĠLe gends
ĠGonz alez
Ġindirect ly
ĠN an
Ġliber ation
ol ith
Ġplaint iffs
Ġuniform s
Ġundergrad uate
Ġshel ters
Ġalign ment
ĠTill erson
or ically
Ġre print
Ġattract ing
ĠWinn ipeg
ĠEdin burgh
ĠInst all
Ġsc rolling
ra vel
ook ie
ĠWH AT
ĠSch midt
Ġprosec uted
Ġbet s
ĠP om
Ġbal ances
ĠC OU
p c
Ġsurf aced
Ġs ights
b ling
H aving
ĠBapt ist
ĠSh ane
Ġsyn chron
Ġadequ ately
ĠS R
ĠNot re
10 5
ĠRe ality
ĠRe ce
Ġcomb ines
ela ide
ĠH oney
ĠFe atures
ĠJup iter
ĠF ighter
Ġconced ed
Ġcontro llers
ĠR andom
ĠHA VE
Ġpur ported
Ġnation als
ĠTop ics
ĠT ournament
ĠLib yan
Ġrenown ed
ĠBr is
Ġex h
Ġde lla
Ġshoot s
Ġsuper vision
ows er
conf ig
he res
Ġstat istic
ĠEv ents
abul ary
ĠG ir
n bsp
ĠFr ame
ĠAub urn
ric anes
ĠPract ice
Ġl ord
Ġback door
ĠN ak
ish a
Ġgl oss
n c
Ġprivile ges
Ġh r
ĠR ate
ĠN L
Ġfemin ists
Ġcritic izing
Ġpump ing
Ġgall ons
N ope
Ġt apped
ĠD ell
Ġde af
ry s
ĠScient ific
Ġpul se
Ġf ost
vas ive
Ġmon key
Ġup rising
ĠV ision
ass ed
ĠD ocument
ĠAn cient
f ax
Ġtrans mitted
Ġo re
ĠAndre a
F W
Ġhe ights
ĠMy ster
Ġhome land
ĠPh ase
Ġfe ud
isp here
Ġhesit ate
Ġye ast
Ġgr in
Ġvolunt arily
he ed
Ġn erves
Ġsh aping
ĠRe b
ĠPlay ing
S QL
Ġinst itute
Ġacceler ated
Ġup hill
ĠH O
Ġneglect ed
ĠG ur
Ġpopul ist
Ġmer ge
ĠBack ground
al most
Ġrem ed
be e
Ġacc ustomed
ĠM ig
Ġpen al
t f
ä º
ĠLe o
in qu
un o
Ġv inyl
Ġpred ators
Ġ ï
Ġric her
on ial
od ied
R ef
Ġpit chers
ĠPl atform
Ġprohib it
Ġacknowled ges
vid ia
Ġmicro bi
Ġl aughter
ĠD h
Ġpri zes
ĠAnge ls
Ġsimpl est
ĠEv olution
Ġunus ually
ĠWe e
ĠAR M
Cong ratulations
ĠId k
ĠSher man
ĠMe yer
ĠAdv oc
ĠSat urn
Ġexc av
ĠF ail
ors i
ĠThe ater
Ġbig ot
y et
ĠÃ ®
or p
ĠM oto
Ġcl icks
Ġhypot hes
E m
Su pp
Ġan nex
in ist
ĠTreat y
Ġunlaw ful
Ġst air
Ġtravel ers
ans on
ĠFried man
Ġincorpor ating
Ġkidn apped
Ġintro duces
bur se
Ġat roc
ĠWe instein
Ġsuper b
D uring
pl aced
Ġstory line
Ġn as
Ġbegin ners
Ġtast ing
j ar
Ġarm ies
se min
Ġbureaucr acy
Ġhand c
ine ment
ĠR ating
Ġsett ling
ic ans
Ġtun nels
ĠH ours
atter y
ĠBrend an
Ġhead set
Ġlaugh s
ĠIns pect
ĠRegard ing
Ġf ren
Ġdec ay
Ġca fe
ĠAm sterdam
B et
ĠCov id
ĠSp icer
ĠH undreds
ing le
Ġnort heast
aw i
Ġrecru its
pe ace
Ġmus cular
Ġentrepreneurs hip
iv able
Ġconcept ual
Ġener get
Ġroom mate
ĠTurn bull
Ġ^ (
ĠD raw
ĠL L
ĠSe xual
G ame
Ġremind ing
Ġimmense ly
spe aking
ĠT ul
Ġside bar
Ġcon ceived
Ġde hy
c ir
oun g
s cript
Ġapp arat
Ġnutri ent
Ġfore nsic
Ġloo ps
mark ed
w ave
it ational
az er
ĠJ P
Ġcomment ators
al iation
ĠB W
Ġ10 4
Ñ ħ
h l
Ġrad ically
Ġar che
Ġdepend ency
Ġweigh s
Î ¹
Ġprogram mes
Ġir responsible
Ġbour geois
ĠR ide
ĠDis covery
Ġdeb uted
Ġaddict ive
ĠR ent
nes ium
Ġmis demean
ĠSter ling
ĠCr isis
Ġexpend iture
Ġtro ll
ĠCons ult
af ia
ĠPH OT
ĠPop ular
att i
OO K
Ġmod ifications
Ġrele vance
Ġfun nel
Ġpos ing
Ġb arn
ĠPC s
Ġin effective
Ġman kind
ĠCr ist
Ġgl orious
Ġmanip ulated
Ġcan vas
ĠFor ward
IS S
Ġor th
ĠV TI
ĠCustom er
th ank
ĠTe ams
Ġc it
m ult
r ina
Ġrot ating
R el
ne ed
the ir
down s
Ġembarrass ment
Ġcommand ers
Ġl ob
Ù ħ
Ġpig s
Ġpedest rians
viol ent
Ġm ansion
ar us
c orn
mod ern
ĠMed ium
Ġrad ius
Ġsurge on
Ġd ots
! '
Ġst int
A ut
Ġdefe ating
Ġmeth ane
ĠG em
int o
ĠRe ason
id av
Ġhost ility
e ff
ve red
ĠCoun sel
ĠW ave
Ġunch anged
Ġth ru
M edia
Ġcr acks
ĠGOOD MAN
aze era
Ġtall er
Ġspe lling
Ġex terior
ac s
Ġhe s
ĠA be
ĠZ ucker
Ġprop he
Ġwrong doing
ĠB ottom
are l
Ġsu gars
c ity
Ġper ceptions
Ġengine ered
ĠF itness
Ġident ifies
isthen ics
ĠC ord
re ra
ĠW edding
Ġdownload s
keep ers
Ġpsychiat rist
Ġgl ow
Ġphilosop her
Ġparent al
Ġfulf illed
Ġintrins ic
Ġb idding
Ġembr acing
Ġcuck old
lif eration
ĠGit Hub
ĠPer l
ĠP SA
Ġbe aches
oc hem
Ġreal istically
Ġne ut
Ġreb oot
Ġiniti ate
Ġp ixels
Ġaw aken
an ed
af ort
ĠAir bnb
Ġsk ies
Ġspec ulate
ĠR iley
ãģ §
ĠPan ama
Ġmush rooms
Ġcell phone
Ġst unt
Ġsub conscious
ĠB ing
Ġlandl ords
Ġoptim ize
Ġdepend ence
Ġw ires
C ity
ĠC er
Ġer ad
Ġdraw ings
Ġunder going
r ue
Ġutil ized
gr and
g ic
Ġsuscept ible
Ġund is
Ġle isure
ĠLe Bron
at che
ĠChe v
f light
Ġfact o
ĠF X
Ġkey words
mo il
Ġbub bles
ĠP RE
Ġfest ivals
it ures
Ġ} ,
ĠP G
Ġfright ening
act ed
Ġcolon ies
ĠHern andez
Ġelev ator
Ġvisit or
ĠK iss
am ic
Ġfor fe
ĠProper ty
ĠTh ousands
Ġpl at
Ġresear ched
ĠC ert
ĠR F
ĠO L
ĠD ance
Ġob jection
bl ood
Ġridic ulously
Ġsand wic
ĠI stanbul
Ġ19 44
p sy
ett es
C AR
b uster
at ism
ĠH erman
ĠMe ga
Ġbar red
we re
M ax
ĠEar l
ĠBl izzard
pat ible
ĠW u
Ar t
Ġbroadcast ing
In ter
ĠGo als
Ġd amp
Ġmind fulness
Ġtend encies
ĠCor rect
C ons
ĠCon way
A nt
Ġrefe ree
Ġst igma
B ox
ĠB ass
17 0
ãģ ¦
ĠGil bert
ĠMcC l
Ġincorrect ly
Ġprost itution
Ġtour ing
ld a
Ġassign ments
ĠDay ton
Ġfreed oms
Ġp ent
ĠMir ror
ant on
Ġartif acts
ĠRE ALLY
Ġav oc
ĠIntern al
ĠV ince
AR Y
Up date
E U
ĠAm anda
Ġhel pless
ĠC ork
Ġpersec ution
A ug
Ġ2 25
Ġsympt om
ĠM ets
Ġbit coins
Ð ¹
ĠE cho
ĠL C
em a
ĠI B
ot he
Ġcelebr ations
! âĢĻ
ĠR ugby
ĠPrinc eton
Ġproud ly
Ġmy riad
Ġle aking
ĠSp art
ĠHait i
ind a
yn c
Ġlisten ers
Ġimper ative
Ġtake over
t z
ie u
n ar
Ġreg ression
ĠMc A
Ġcapt ures
Ġmet adata
Ġball istic
Ġchar ism
Ġinspect or
w ire
Ġpseud o
ĠAdvert ising
ĠL ance
Ġint est
ĠAust rian
Ġrenew al
m ight
Ġgrand ma
Ġl act
Ġthr one
Ġdrag ging
J ew
l ive
T ext
ĠBou levard
ĠVi enna
im portant
ters on
art en
Can ada
Ġexch anged
ĠCost co
pl aces
Ġdiscour age
Ġexped ition
u ber
Ġclos es
Ġm arsh
Ġpo orer
i enced
Ġatt ain
Ġend ured
ig ar
Ġend uring
Ġdr ift
Cal if
d et
Ġbrut ality
and ing
ĠY or
Ġ io
Ġspl ash
ĠE cu
Ġdiscount ed
ĠR ift
Ġmedi ocre
ĠChar acter
Ġs ack
Ġcertific ates
l ived
Ġacc use
Ġconflict ing
B el
Ġillustr ates
ĠPhys ical
Ġdub ious
Ġpin ch
Ġmed als
ĠZ oo
Ġextrem ism
Ġlearn s
J o
Ġher b
Ġbou quet
ĠSN P
Ġaccum ulation
ĠPers ian
Ġl ongevity
Ġbron ze
ins pired
ĠDo ctors
Ġoverth row
Ġd unge
Ġpre fers
Ġemb ark
T ex
Ġfr acking
G en
I AL
ĠAn k
al ong
old en
Ġstap le
W ind
li ber
12 3
pl er
Ġ} );
Ġinaug ural
Ġapp ra
Ġoccur rence
Ġorganiz er
Ġr uth
ĠN u
ĠExam ples
Ġstri ps
Ġadoles c
Ġdish onest
e on
B erry
Ġvoc als
Ġinnov ations
Ġexpl ode
Ġd ental
Ġbo il
ĠFight ing
re v
ĠN B
Ġref resh
200 6
Ġmail ing
w art
Ġt ilt
ĠL B
ion age
our cing
Ġvol can
ous ed
Ġg aze
spe c
ĠMan uel
ãģ ¨
ĠC aval
ĠMon ica
Ġeth ic
Ġor ph
ĠK ob
pay ing
Ġton nes
Ġadvoc ated
Ġh ikes
re a
Ġaspir ations
ĠGe off
t itle
ĠP ra
Sh are
ĠH ogan
Ġunc ont
Ġshr inking
ĠNorm ally
T om
ĠNep al
ĠD ON
Ġrestrict ive
Ġ10 2
Ġconcess ions
Ġo mn
str ings
Ġhous ed
is al
stand ard
r ance
us ers
Ġsl ope
Ġsm ash
Ġign ores
ag in
Ġtr aces
yn es
Act ually
just ed
Ġsanct uary
ver ts
Ġvis as
Ġdecentral ized
ĠS tern
Ġnomine es
Ġdo ve
Ġmicro phone
ĠE state
m ia
Ġmis ery
Ġsl ack
Ġequ als
Ġlist ings
ĠStr ategy
Ġb olt
Ġg um
Ġmar ched
ĠG W
Ġmod eration
abl ished
Ġca us
ys s
Ġp ess
Ġrational e
ĠCraw ford
Ġinfringe ment
ĠEx xon
Ġcur l
ĠS hen
ott est
Ġins ign
ĠMan afort
ĠP ars
Ġtend on
Ġvol tage
Ġgun man
ĠRich ards
Ġenroll ment
tr ad
Ġpe cul
ĠP arents
ĠCitiz en
ĠF en
ĠDownt own
Ġpres erving
ĠT ier
ĠZ imb
ĠCan yon
Ġacqu aint
ess ors
Ġvir uses
Ġinsane ly
ĠB ug
ĠBr istol
Ġforecast s
Ġsubsid iary
ĠQu ite
t urn
ĠRel igious
Ġread ings
Ġsh am
Ġcooper ative
Ob viously
ĠF T
ðŁı »
Ġcontam ination
ĠRout e
cl ose
Ġcongest ion
Ġcompat ibility
ĠRest aur
Ġdisagree ment
gr aded
> </
Ġhe x
Ġsk ipped
ĠMons anto
ĠE instein
he e
Ġconcept ion
Ġit eration
bet ween
Ġoff ences
Ġill um
J apan
ĠRebe cca
tr ade
Ġep it
ĠK oh
ãģ Ł
ĠTom orrow
Ġcur ls
Ġwar riors
ĠAC T
le aning
Ġmyth s
Ġl ith
Ġsett lers
ay an
Ġobser ver
ĠTechn ical
Ġauthent ication
+ .
Ġscreens hots
ĠMoh amed
ĠOpp osition
al ion
Ġtext book
Ġmisunder standing
Ġ ive
Ġm ats
ĠSouth west
ĠSchw ab
ĠH U
spons ored
S omething
D ER
ĠS uddenly
Ġexp ire
ĠB ert
our ing
Ġdump ing
Ġenter prises
Ġf aint
Ġrese mble
Ġr anged
ĠMerc ury
in el
ĠMap le
ĠR ising
ind i
ĠT ow
gu ards
sh adow
ĠCom edy
ĠBren nan
Ġv ault
ĠG C
Ġst ing
Ġorche str
ĠSt ick
ĠSt yle
Ġpl ague
ov ak
Ġcost umes
Ġa rose
Ġparan oid
Ġmel ting
Ġramp ant
Ġtom atoes
Ġw it
Ġt aper
Ġsky rocket
Ġc uz
Ġincap able
Ġ( ~
Ġmom s
Ġout field
Ġcas ually
ĠKenn eth
ĠR ise
ĠT rent
For ce
umb ing
Ġdimin ished
ĠAd elaide
ĠTh row
Ġlever aged
Ġprogress ed
ĠSadd am
Ġtur moil
Ġlos ers
Ġphenomen al
ĠGu ess
Ġla ure
ĠNe o
ãģ ª
R Y
ĠKeep ing
Ġel bows
ĠF ortune
Ġexist ential
Ġpath ways
M D
ĠF ell
ĠN ate
Ġcollect or
ĠKum ar
Ġchop ped
cast ing
Ġgl am
âĢĿ ;
Cl ick
S outh
ĠDO J
Ġsuper f
rav ity
Ġcr acking
Ġmoist ure
ĠJackson ville
st y
i ob
Ġsuper natural
ĠNE WS
Ġcore s
Ġk in
whe el
200 5
Ġlect ures
Ġste er
od er
ĠHel en
ĠKn icks
11 5
ĠE pic
ĠS ke
B as
ĠSure ly
Ġâ ī
Ġli able
erv ative
il ot
Ġacceler ation
Ġinterf aces
com put
Ġbom ber
Ġknowledge able
ĠV ers
ren aline
Ġaccess ing
ĠP ure
ith ub
à ´
Ġver ification
ĠB U
Ġt am
Ġrelent less
N F
Ġec ological
Ġelig ibility
Ġund o
Ġpr ince
op ened
ĠConserv ation
Ġcoun cill
Ġda unting
Ġreg imes
Ġpod ium
c ool
Ġaff idav
Ġtransfer ring
olit ics
St ep
ĠEmb assy
ĠP P
att a
Ġimm ort
ĠTra ffic
ĠMa o
Ġam ple
Ġ( .
Ġyou re
Ġor gas
ĠB ot
spe cial
Ð ¿
Ġviol ates
Ġt ighter
nd e
Ġemb ar
ĠJ azz
ĠE lder
Ġover c
ĠPartners hip
ĠRock et
ĠG U
Ġcorner back
Pl us
ĠBudd ha
Ġschizophren ia
Ġele ven
H ouse
Ġhall uc
Ġlab s
a ft
ĠPan el
Ġgood bye
Ġplum met
Ġapparat us
Ġon ion
Ġdefe ats
Ġprim itive
ĠWeb b
ĠIP O
ĠPl aza
ĠInvest igation
pt ive
ĠV ia
ĠR isk
Ġfilm maker
ĠHaw ks
Ġinsult ing
aw ned
Ġ" "
ĠExpl orer
Ġ: /
ĠL ud
H as
ĠKit chen
Ġresent ment
ĠAd mir
ĠGen esis
e nds
educ ated
Ġbachel orette
Ġtail ored
ĠCharl ott
th ose
ĠKush ner
ĠL T
Ġrob otic
Ġstick er
N orth
g os
ĠCON T
A pr
ĠHay es
ĠAP Is
Ob ject
ĠD D
Ġbull y
av in
Ġposs essed
ĠK ot
Ġeffic acy
ĠD ot
Ġmad ness
Ġexcept ionally
Ġsurviv or
Ġvine gar
ĠAbd ullah
Ġpersonal ized
ill on
Ġpsych o
rec ord
Ġlo oming
Ġparent ing
Ġgall on
Ġimp ulse
Ġret aliation
p i
Ġpress ured
aa aa
an za
Ġadvis ors
Ġsex ism
ĠP ors
ĠCh anges
W W
ĠMurd och
ĠR apt
Ġsubmar ine
Ġdet on
Ġtex ting
ĠScient ology
fol k
s q
ĠB ened
Ġcontam inated
Ġfli pped
Ġdefin ite
Ġwithd rew
Ġal coholic
Ġmod ification
ĠM R
ĠCan on
ĠB oot
port ing
O G
Ġbre asts
Ġmerch ants
ĠViol ence
ĠEx ercise
il ib
ĠBut ter
ĠL un
Ġsm ashed
ood les
squ are
Ġsign aling
ĠH our
Ġcul pr
ĠDar ren
Ġb is
ĠT ah
ab we
Ġinto x
OU S
Ġb ilateral
Ġv ow
Ġfert ility
Ġforget ting
H E
ĠPri x
ĠSe vent
Ġnic otine
ĠTre vor
Ġplay list
ĠAli en
Ġb ury
Ġtro op
ĠPr adesh
Ġreb al
Ġult ras
ĠAc ross
ĠNY PD
Ġth irst
ĠG iant
ĠNation als
Ġreli ance
Sec ond
Ġt ally
Ġb aff
Ġcl utter
ĠV ir
Ġf ills
ĠGr am
ĠG ig
Ġb art
re i
load ed
Ġth riving
Ġcra fting
Ġon set
ĠCl aire
ĠM ead
Ġco hes
l ia
g io
Ġrem edy
rap hs
ass ium
Ġinf ants
ĠCl iff
N P
Ġpave ment
c ot
Ġat oms
Ġwatch dog
amer a
Ġscan ning
im an
Ġsub po
Ġcomment er
Ġtr aced
ĠCh icken
Ġrival ry
c ation
Ġun cover
Ġgoal keeper
Ġsp oon
all ah
li able
ĠR ol
ey ed
Ġrein forced
Ġrem oves
b ard
ĠR um
Ġclick ed
Ġdem ise
ĠH oo
Ġpo ker
ĠSc roll
Ġcomm issions
vention al
ĠBris bane
ĠJ edi
bu y
ex pl
ĠP ale
ĠU TC
Ġcourt room
ĠInvestig ators
ck er
ĠC raft
Ġswing ing
Ġar senal
Â »
cour t
ĠIS IL
Ġfraud ulent
m atch
ur st
ĠAr row
ĠProgress ive
Ġal ley
ĠC ave
S W
Ġcard board
ĠG ul
Ġcongrat ulations
ani el
ĠRel igion
Ġsuper st
ĠLaure n
Ġoff spring
ĠComp lex
ĠNut rition
ĠV ote
ĠKat ie
Ġastronaut s
pan y
ĠZimmer man
Ġad orable
Ġdisc rep
Ġren amed
ro lls
pe x
Ġpo inter
Ġarch ives
Ġhon ors
c ape
ĠPod cast
Ġcontent ious
Ġfore front
Ġunique ly
Ġreiter ated
ol ation
ĠBr ing
ĠCh oice
ĠÂ §
Ġjuven ile
ĠFar go
T op
Ġdirect ive
A tt
Ġdistract ions
Ġcop ing
ĠMy th
ĠL il
ĠFl ickr
Ġprop s
r il
âĢ ²
ot ers
amm ad
Ġcos mic
Ġs unk
NE W
Ġnarr atives
Ġche ering
Ġinterrog ation
Ġver ge
it us
Ġpoison ing
ĠBr anch
Ġundert aken
Ġt iles
osp ace
Ġres olutions
Ġinqu iries
ĠL I
ĠP am
oy s
Ġdetect ives
Ġchick ens
ãĤ ĭ
Ġdict ator
ĠIntro duction
ĠFl oyd
Ġden ounced
Ġge ared
Ġhands ome
int ro
ĠB ast
Ġad vertisements
ĠAw esome
Ġprogress ing
ĠDisney land
ump s
Ġbad ge
ĠTe en
ĠEconom y
rest rial
cent er
G erman
Ġst d
ĠSch ultz
Ġg reens
Ġch illing
Ġjo ked
ĠM ate
ĠJack ie
OR Y
| |
ĠEl se
Ġsens ory
ĠCelt ics
c ry
Ġdisc ern
an ol
et ics
ĠHe ath
ody nam
Ġur ges
Ġseiz ure
Ġt apes
lect ed
Ġtiss ues
inn amon
ĠPir ates
Ġco erc
ĠWy oming
Ġshare holder
Ġnodd ed
P ass
Y S
Ġadjust able
Ġcour thouse
Ġtear ing
o ven
ĠB rief
Ġsun ny
Ġâ Ķ
P retty
B s
Â ´
ĠO ption
c ulture
Ġstake holders
Ġhun ters
Ġcross es
Ġgovern ors
ĠS onic
Ġcountry side
Ġdiplom acy
ĠZ omb
Ġmamm als
we ather
Ġexagger ated
ĠT as
k owski
Ġbr ig
ĠLe ices
pher d
ĠOrig in
Ġexhaust ing
Ġpal ace
Ġch lor
Ġins erted
ox ic
ĠRe play
ĠL inks
ĠBen ef
enc ia
Cl oud
ĠUn cle
ĠT ip
ĠCurt is
Ġrock y
ĠBeat les
Ġgen res
at um
ĠC oc
ĠStat us
ĠV as
Ġl av
o ids
ĠVal ve
Ġdon ating
ĠSh ares
Ġdownload ing
T oo
ĠAr s
ĠMe chan
r t
or f
Ġdetr imental
Ġtr unk
Ġs rc
d ream
ff iti
Ġre ef
Ġreact ors
Ġine fficient
ĠLyn n
Ġblog gers
s ometimes
ish ops
Ġconc erts
Val ue
n n
Ġl akes
ĠPen insula
Ġcyn ical
IL E
Ġcollabor ative
Ġsw all
Ġt ac
Ġan gel
ĠK ub
Ġtast y
Ġdiscover ies
Ġtwe ak
Ġreminis cent
Ġ19 47
Ġ2 10
ĠW ash
Ġdivers ify
Ġlike wise
Ġreal izes
Ġcoll ateral
Ġfemin ine
Ġv ou
Ġsp ider
v ideo
Ġ19 41
ĠRes istance
Ġdi agram
ĠCent ers
ĠMount ains
ĠChe ney
Ġrepet itive
bor o
Ġfr inge
Sh ould
Ġmet aph
Ġdest ined
y en
Ġdial ect
t arget
Ġdi ary
Ġup hold
Ġspec s
Ġdepend encies
Ġsub missions
cop y
Ġunl ocked
t ical
Ġcl one
ro be
Ġrum or
Ġcoh ort
th inking
Ġmind ed
Ġcyber security
on so
Ġretrie ve
Ġill icit
Ġan th
Ġconting ent
Ġh rs
ĠG ent
c am
Ġabund ant
ĠK N
st ress
ĠDevelop er
Ġpl anche
Ġb ounds
Ġdecor ated
Ġt ed
l ins
Ġs ang
Ġout law
Ġfranch ises
ĠH ugh
ord ered
c asters
ĠV OO
Ġhur ry
Ġslic es
f ired
in formed
Ġh alls
Ġnew born
Ġind uce
Ġbi ography
ĠK em
ĠCamb od
ro ot
Ġdraw er
Ġext r
Ġpe aks
Ġpredict s
Ġs or
Ġdepth s
ĠJe b
Ġimag in
Ġreserv ation
ĠD LC
Ġopio id
Ġoper a
ee red
le ys
Ġexc luding
Ġar ises
per ing
Ġpun ched
Ġqual ifications
Ġm und
Ġfalse ly
Ġfli pping
se re
urd y
Ġaccount ant
Ġlapt ops
ĠSy nd
Ġc er
ĠConst ant
Ġboard ing
ul ators
Ġdem ons
ĠExper ts
m ails
Ġheight ened
Ġdis able
Ġalleg ation
ĠCom mercial
Ġgard ens
Ġstress ing
Ġfrequ encies
w ild
ĠDav ies
Ġ10 3
ill as
ĠComp ared
at ured
Ġo lig
Ġun used
ĠRE IT
t al
Ġrev ival
OS S
Ġid ol
Ġexec uting
Ġsp awn
Ġank les
qu arter
ĠRay mond
Ġtub es
Ġhumili ation
ĠMar riage
ĠBald win
rict ed
Ġmut ually
N obody
Ġcler k
Ġex ert
Ġs inking
Ġsacrific es
ĠP ine
over ty
ĠBl ade
Ġv andal
e fficient
if ference
ment ia
Q U
" ]
ĠEug ene
ĠOr b
h aha
ĠEcu ador
ĠIS O
Ġge ographic
Ġstar red
Ġfire works
Ġexplos ions
Ġathe ists
Ġt outed
Ġbr ass
ĠDe uts
Ġcr us
Ġbe verage
ch in
th y
ang a
Ġcatast rophe
ĠSh ut
Ġdevelopment al
ĠAnd ers
ĠReg ist
Ġcalcul ating
Ġsuccess ion
ĠB ag
Ġsc ans
Ġdom est
Å ¾
Ġreserv oir
ĠBM I
Ġp acing
Ġpart ition
ĠZimb abwe
Ġrecept or
or ian
Ġdiscon nect
Person ally
t ails
ĠFle et
Ġresemb les
Pl ay
ĠM aid
n umber
ack ets
ich i
Ġdisrupt ive
Ġradio active
m ove
Ġbol ster
Ġslight est
Ġd rafting
f alse
Q Q
ĠFe ed
F E
Ġdis charge
Ġg li
ĠIr ving
ĠH aha
Ġreject ing
Ġb f
Ġwh ip
oold own
Ġbroad caster
udd le
Ġsav vy
ĠCont ract
Ġinflamm atory
,âĢĻ âĢĻ
Ġrecept ors
ĠFro st
Ġbe gging
ĠM oses
Ġspat ial
Ġl amp
st atic
ĠS ans
ĠT ool
Ġqu ir
ĠP ierce
Ġextract ed
ere rs
Ġconscious ly
ĠDes ert
ĠMot ion
Ġhus bands
Ġdem ographics
Ġse af
Ġâ Ļ
ĠRock y
Ġutil izing
G T
Ġfall out
Ġextract ion
Ġmar vel
Ġup held
Ġhind sight
ĠSchne ider
ĠWar rior
ĠCharlott esville
ĠJ ak
ĠLi u
Ġproport ions
id ate
Ġpiv ot
Ġjog ging
Ġinform ative
Ġhang s
ĠWor st
ĠMour inho
g les
Ġs ul
ĠCh art
Ġpercent ages
Ġbuff et
Ġout spoken
Ġlivest ock
Ġphotograp hed
ĠBru ins
Ġr apper
Ġmerch ant
m t
ĠMy ers
Ġoun ce
ĠASA P
ort ium
Ġguess ed
Ġrest ruct
Russ ia
Ġlater al
Ġm ans
ĠRO I
Ġw olves
ĠB il
Ġsp ur
lin er
ĠC ultural
Ġheter osexual
Ġthan ked
Ġaccident al
Bl ue
ĠA gg
ut ory
ĠJS ON
Ġh ast
s ch
Ġrestrict ing
Ġnarrow ly
Ġloud ly
Ġl ows
Ġ195 9
age l
ĠâĢ ķ
bro ken
ĠP v
Ġpharm ac
Ġhe mp
D O
Ġlun ar
ĠT ickets
ĠBah rain
ĠD one
Ġcl utch
Ġunexpected ly
ĠIss ue
ik ers
ĠRock ets
elect ed
ĠBeaut iful
ĠRef uge
M arch
Ġquest o
ĠS ah
Ġpo orest
Ġblast ed
Ġgovern ed
oust ic
Ġcand le
ou g
Ġtempt ing
Ġunivers ally
ĠComb at
iv ities
ĠArt ist
ĠM oy
Ġdest inations
Ġst alled
Ġemploy s
ĠPh illy
isc her
ĠTal king
ĠJud iciary
Ġpe as
so ld
Ġbuild er
Ġregul ator
Ġcorrespond ence
fe ll
l ace
est eem
ĠEn large
Ġher d
Ġcompet ed
ĠAbb as
ĠTer rit
Ġ[ ^
Ġtodd ler
Ġbu lls
rav ings
Ġspeed ing
Ġpess im
ĠBlack Berry
Ġdo om
Ġpol ish
ĠTechn ologies
b ons
en ment
Ġfrug al
Ġsli pp
ol ia
Ġam ino
Ġpack et
neg oti
cent ric
ĠCont rib
st ad
ĠSp ark
Ġir regular
ĠW aters
Ġmicrow ave
z ero
ĠAtl as
ĠHist orical
Ġchar ming
ĠEmir ates
Ġdo i
Ġtutorial s
ĠHass an
ĠL EG
Ġsmell s
ĠCol onel
ĠW ald
Ġbr akes
Ġbe an
ĠMel issa
Ġall ied
ĠT ag
, ,
c ano
Ġinfl ated
the med
qu ire
ĠTh ought
bel ief
em er
Ġbod ily
F ollow
ĠBr itt
Ġpat hetic
Ġdesign ation
ĠP LA
Ġkey word
ig ger
Ġt apping
H ome
Ġenerget ic
ĠBer ry
ib ling
Ġtrans cend
Ġweek day
Ġadvert isers
Ġedit ions
Ġant it
Christ ian
so lete
Ġref rain
ĠHe ather
Ġun ite
Ġdom ination
ger ald
nd o
Ġd udes
H oly
id ian
G reen
ĠV ern
ĠAl ger
iv ism
ĠRep ly
ra f
Ġsun set
T ell
Ġrans om
Ġexpend itures
Ġdisappear ance
ĠT ik
gi ene
Ġcruel ty
f aced
rel igious
og ram
Ġdifferent ial
d ead
Ġb enc
ĠS ed
Ġmem br
ĠBuzz Feed
ĠH B
ãģ ¯
Ġkn ives
ĠJohn s
Qu ery
Ġshort ages
ott i
ĠLe h
c igare
ĠBor is
ĠD uty
Ġthr ill
P ort
ific ent
ĠNort heast
ĠP sy
ĠCamer a
ing es
ate l
Ġdial og
Ġnorth west
ĠP rest
ĠSm ash
Ġmis con
ĠON LY
Ġoutwe igh
Ġcollect ors
av an
Ġprosec ute
Ġto re
we i
iss ue
Ġleft ist
Ġclar ification
ĠL SD
Ġfantas ies
Ġrest s
Ġdisp ers
Ġsh attered
Ġsur real
Ġearn est
ĠSh arp
char acter
Ġw ig
Ġprefer ably
Ġevac uated
Ġsw allow
ĠO H
AY S
Ġfold ed
ĠW ide
lar gest
ĠN om
Ġres h
Ġdifferent iate
ĠW ear
20 18
Ġlim itation
ĠP izza
V s
Ġpe aked
ĠBeng als
gener al
ĠLeban ese
AT A
Ġbomb ings
Ġw ool
inc re
ĠPer u
Ġr ag
ĠT SA
ĠEll en
ĠA ce
Ġtom ato
f ashion
ĠC ause
Ġdispos able
Ġcos a
ĠW enger
its u
Ġs outheast
Ġassess ing
C all
Ġund en
ĠA zer
ĠBur ton
Ġh ottest
Ġdefic iency
Ġther m
Ġnom inal
f uel
Ġdr ums
,âĢĻ âĢĿ
Ġgr inding
Ġfundra iser
Ġ11 2
ĠTro phy
ĠPors che
Ġext rad
ĠSau cony
Ġzomb ies
ĠM BA
Ġkill ers
ro ls
Ġ19 42
og ene
Pac ific
ĠDian e
qu estion
ĠH av
ĠResp onse
Ġty ing
Ġinstinct s
Ġp ussy
he id
Ġsh ining
Ġbl onde
ĠInt o
h on
Ġisol ate
Ġrepro duce
ef ined
[ /
Ġvague ly
Ġto mb
Ġmillenn ials
ee le
Ġfinanc ed
ĠObserv atory
ĠC ros
Ġmarket ed
ĠAm nesty
Ġske let
Ġde le
Ġgig antic
Ġpenc il
ĠHe in
15 00
ĠN aturally
ĠL az
ĠRh ode
ĠCh arter
ij i
r ine
Ġhell o
ax ies
ne e
Sp ace
Ġha iled
is ch
Ġhigh ways
N ah
uc es
Ġsc out
Ġecc entric
Ġ10 6
ĠTon ight
Ġmil er
ĠD iaz
In fo
ĠE ston
ĠðŁĻ Ĥ
Ġm ig
gr owth
ĠIron ically
Ġad am
Ġ10 8
Ġaccum ulate
Ġmyth ology
ĠN ormal
ĠSp o
he rence
ĠC oy
Ġtit an
Ġoptim ized
17 5
Ġweaken ed
Ġ19 39
Ġalle ging
am ina
Ġperform er
Ġe ch
Ġess ays
ĠAng ular
Fr ank
r and
r ar
Ġcongress man
Ġdisag reed
M ac
Ġtruth s
Ġres c
ĠS I
Ġrun way
Ġw rec
Ġchat ting
Ġtrigger ing
Ð ±
Ġoblig ated
ĠAc cept
Ġh ooks
ĠG olf
ex isting
Ġreli ably
ĠW ine
Ġwarrant y
ĠH uck
ĠR SS
Ġperch Ã©
Ġm asc
Ġwild erness
Ġoptim ization
ĠP owers
6 50
per fect
ĠD anger
ĠCre ated
Ġg ast
f act
Ġrehab ilitation
Ġdest iny
Ġjust ices
Ġdilig ence
ĠN vidia
Un less
Ġun armed
ĠT yson
Ġdumb bells
Ġsquat ting
pr act
ĠE is
Ġdownv oted
ass ing
ĠJ i
Ġsy mmet
ĠRun ner
ĠMean ing
Ġst ip
c ause
Se pt
ĠG ut
Ġext ras
Ġbelie vers
s kin
Ġt ucked
r int
Ġmight y
ĠSav age
)]( |
Ġtrans plant
ĠAl cohol
Ġa we
aur us
ĠMar ijuana
C ome
Ġin advert
rosso ver
cre ate
ga e
ĠThat s
reme ly
ĠJ ab
ĠV ik
p atch
cc oli
ĠRep orter
ĠPh arm
Ġb ots
Ġsurg ical
j ury
Ġr aced
ĠCard inal
ffect ed
v ic
S H
ĠWag ner
Ġgl owing
ĠT T
umn i
cont ent
Ġaster oid
r aining
em y
he a
Ġperpet rators
im i
ĠD uck
ou der
Ġv oy
Ġtot als
Ġvoc abulary
Ġhint ed
IC A
ĠBar rett
VID IA
ad ic
ĠL iz
25 6
Ġmer ged
ject ed
Ġthick er
ang ular
. ;
ĠSt ri
ĠDevil s
un ity
ĠPl enty
ĠM W
ĠCharl eston
Ġabsor ption
Ġcoun ters
Ġsqu ir
t re
ne xt
Ġmotiv ations
W elcome
ĠIS Ps
Ġin security
Ġper t
Ġim balance
Ġcand les
Ġv anguard
Ġcommun al
ĠÐ º
enh agen
ĠD ogs
ĠWheel er
Ġprop onents
Ġscr ub
Ġcl o
Ġrecon struction
ĠS chedule
Ġaccess ory
Ġgrant ing
ĠBen gal
Ġmax ing
Ġ15 1
U se
Ġtoug hest
ĠG w
ĠLeg ion
Ġoffe nder
Ġhe fty
Ġinc ub
ĠRhod es
ĠSol o
pre hens
ĠH I
ĠRam sey
oun cing
ĠW AS
ra its
ĠD OM
rugg ed
Ġspecific ations
ĠS ara
Ġsubsid y
Ġimp art
ven ant
Ġsc andals
Ġsub set
Ġplag ued
Ġen velop
Ġ16 5
ĠRem ove
J une
Ġtele com
f est
ĠH EL
Ġceremon ies
Ġrecomme nding
cop ic
ĠVen us
ĠF ury
( $
un ky
ĠP s
ph p
h m
W ASHINGTON
Ġdream ed
Ġthick ness
Ġbrew eries
Ġout raged
ĠL ac
ĠSuper ior
Ġf al
Ġlabel ing
part isan
Ġsupp ression
es que
B ased
Th ink
ra ud
Ġclass mates
Ġwor s
ĠFem ale
Ġthem ed
Ġdest abil
Ġnotor iously
Ġ5 000
ĠFitz gerald
Ġli k
Ġsu ing
Ġcircumst ance
Ġg ays
ĠH OW
ĠJud a
Ġrespect able
Rep ublic
Ã© t
Ġtor rent
fe eding
Ġch ased
Ġres idency
Ġmim ic
Ġant agon
Ġsystem atically
Ġunder went
ih il
ÑĤ Ð¾
qu in
Ġrob bed
io let
Ġshoot ers
ĠApplic ation
ĠS we
de pendent
Ġpuzz les
ĠLeices ter
Ġdinos aurs
Ġch ambers
ĠRe y
Ġsal v
Ġn ude
Semit ism
oot er
Ġhero ic
Ġim pending
Ġco herent
Ġinfant ry
lling ton
ĠR ig
Ġus able
g re
Ġcra ving
10 4
ĠSebast ian
Ġbr ake
ĠThe rap
Ġimper fect
Ġorganiz ational
Ġtremend ously
ĠCD s
ĠL enn
Ġgreed y
ba um
ĠChrist ine
Ġg end
ĠCustom s
Ġinst agram
Ġairst rikes
els en
TH E
Ġconsult ants
ass es
ĠCr us
ĠBul let
ĠFact ory
Ġt ipping
Ġprepar ations
id able
ĠV O
Ġstim ulate
ĠLab s
edd y
Ġimag inary
The ir
Ä Ł
Ġf ox
ĠCl aim
Ġdeep est
k t
in ian
ed o
Ġsent iments
ĠM K
Ġun even
Ġcompan ions
Ġsu do
ĠCreat ing
Ġbi ases
Ġde ported
ĠY o
eth ical
ĠA id
ĠK re
ĠCelt ic
ĠDet ective
Ġclar ified
Ġg n
ĠB ike
Ġsit u
iqu ette
Ġro oft
Ġbl ur
Ġsh arks
f ires
Ġillustr ations
Ġprom o
Ġauthor ization
ĠE c
ĠP av
Ġsu pers
Ġtri angle
ĠC arn
Ġ10 7
Ġsol itary
Ġresp ir
Ġteles cope
ĠEv idence
ĠProtest ant
ass is
ĠLiter ally
Ġmilit ias
ĠA ck
Ġpar ole
acc ount
Ġ ion
Ġv a
Ġspons orship
Ġwh opping
Ġubiqu itous
ĠAst ron
Ġen forcing
Ġtr act
-------- ----
Ġfear ful
p lex
t im
Ġ( #
Ġse gregation
ĠD ocker
ĠK ur
ĠSh ir
bour g
Ġl ame
Ġphys iological
Ġout going
Ġho ax
Ġc apped
Ġkidn apping
ĠV ic
Ġsl ate
h all
e vent
et r
ĠBuddh ism
p ull
Ġnostal gia
Ġbl ues
ĠCy cling
ol iberal
Ġob liv
Ġunt o
Ġdiplom at
is ans
Ġper f
J ack
Ġauthent icity
Ġthe ology
Ġcontend ers
ĠKurd istan
ĠCar bon
P age
Ġadul thood
Ġ/ *
Ġbur ial
av oid
ĠCal vin
S an
ir teen
Ġentrepreneur ial
ub a
ĠE ating
Ġcar ved
reg or
act ivity
Ġpro se
ĠR aspberry
Ġsouth west
Ġast hma
Ġpair ing
St ud
Ġbom bers
Ġn g
ver ages
Ġd ime
Ġche ated
Ġfast s
ĠGar rett
Ġcl usters
Ġcont r
d raw
ĠGall up
de ath
Ġharass ed
Ġg ospel
ĠD y
ĠOp ening
Ġperiod ically
R et
Ġ195 8
Ġintimid ating
Ġcomp ilation
Ġge op
ĠBel fast
ed ience
oci ated
Ġmant ra
ĠVict ory
Ġg own
Ġco ached
ĠIndust ries
w on
Ġforg iveness
Ġgrab s
ĠMoh ammad
Ġg inger
r ots
b led
Ġarchitect ural
Ġmol to
ĠI A
Ġ19 17
Ġhe ir
Ġplug ins
ĠPir ate
19 90
az ie
Ġpol es
Ġvac ations
Ġharm ony
Ġ5 29
App le
Ġsm iles
Ġstress es
à¥ ĩ
200 4
Ġsli pping
Ġconce al
wh atever
ĠA FC
Ġsynt hesis
Ġwra pping
Ġcustom ize
ĠFl ore
Ġrecip roc
Ġbl ades
Ġpray ing
Ġlim bs
ĠL akes
Ġp ear
Ġrul er
Ġaccus ation
fe el
Ġsc outing
Ġpecul iar
Ġfirm ware
ist ence
medi ately
Ġanarch ist
Ġout ward
ĠSh ia
Ġfrag ments
ot ional
in se
Ġworld view
or ously
Ġbrow se
st ed
Ġl ig
Ġcontact ing
Ġrail road
ĠO val
ĠDis play
l ich
ch oice
ide press
ĠFor get
Ġimpress ions
if ax
Ġconf essed
Ġtrad er
ĠCan ucks
Ġm ai
] ]
Ġf atto
Ġsh ades
Ġbath rooms
ĠD NS
P ay
Ġgo v
Ġdead lines
ĠRe ich
ĠN olan
an mar
Ġâ Ŀ¤ï¸ı
Ġwh ichever
R M
Ġf ing
Ġge ography
ri o
Ġsuper star
Ġresist ed
ĠB ath
Ġo bey
Ġ195 6
Ġsqu ares
ĠAr ist
ari at
urch ase
p enter
ĠF D
Ġcouncil s
aa S
Ġupgr ading
ĠHans en
rent ice
Ġovert urned
ĠAd idas
Ġproc ure
Ġconvers ions
Ġ( [
Ġsuprem acy
ĠJ azeera
ĠN V
Ġconstitu ency
ĠSt ats
ĠJ as
Ġh acks
p rop
c as
Ġinstall ment
Ġdream ing
Ġkind ly
Ġpy thon
ĠTest ament
ĠAmeric as
Ġnom inations
Ġsynt hes
Ġconf use
ĠâĢľ âĢ¦
ak is
Ġprop oses
Ġrec ap
lar ation
,' "
ĠStephan ie
Ġsa ga
Ġfilm makers
Ġprogress ions
ĠJac obs
b ud
ĠN issan
ĠEx c
ĠN PC
Ġ14 5
F TA
Ġsimpl ified
m uch
ĠN are
ĠJo an
st ro
ĠHum ans
H and
ul atory
Ġtrail ing
ĠMin utes
ĠLic ense
Ġreconc iliation
Ġcircul ating
Ġbl ink
Ġp es
Ġk o
st reet
Ġve in
im ation
ov able
âĢ¦ ]
hy l
ĠC ream
z an
ret ch
Ġp ly
r als
Ġdiscipl inary
Ġthank fully
Ġf aded
ĠNew man
whe ther
Ġn ud
ĠSP Y
ne eded
ĠTw ilight
Ġp ony
Ġad here
ĠW yn
Ġnit rogen
ĠH ond
Î µ
het ically
Ġserv ant
ici aries
ĠYork er
ĠM alt
12 8
man agement
Ġhyd ration
ĠGard ner
Ġclass ics
Ġpy ramid
o il
ĠHug o
Ġgovernment al
Ð ³
prof essional
ĠâĢ ŀ
m is
Ġcompos er
Ġche ek
Ġ16 00
Ġcease fire
ĠChurch ill
m ort
e ur
ic able
th ought
Ġcomment ator
Ġdivers ification
Ġconf ess
ron ics
m ith
Ġprice y
ĠN I
Ġr app
Ġprohib its
Ġpol ished
Ġaffili ation
ĠAdd ress
Ġende avor
g ive
Ġrad i
ĠKore ans
Ġjurisd ictions
ĠBel ieve
Ġgest ures
AC H
ĠS uff
ĠV ander
Ġspecial izes
Ġmedic ines
Ġpund its
Ġcl ay
Ġbel ts
Ġpersu aded
Ġcur ves
Ġimp lying
Ġremark ed
Ġm ates
2 20
13 5
cap ital
ĠProv ince
ĠI O
IN D
Ġadmin ister
ac a
od ore
Ġcop ying
od us
in as
vis ors
Ġcancell ation
um en
Ġrepro duction
Ġaggrav ated
itt o
bo at
ĠV ita
ĠBay ern
Ġcal isthenics
ĠDr ink
ĠX ia
ĠUnder standing
m il
Ġsa us
ra red
Ġdismiss al
Ġch ores
F ar
Ġcommercial s
om as
Ġ11 1
ĠPol ar
ĠDrag ons
Ġallev iate
Ġreim burse
Ġun i
Ġde i
ĠGu inea
ĠJoy ce
Ġp ag
Ġearn s
Ġfl ats
R unning
Ġcontin uation
Ġsect arian
Ġarchitect s
Ġ Ø§ÙĦ
Ġch orus
ĠRC MP
Ġun official
ĠE lementary
ĠS kin
Ġdictators hip
Ġann ot
Some one
PD F
ĠM ood
ĠPat terson
Ġvari ance
Ġinc idence
ĠConst itutional
Ġc ue
Ġe up
act ing
Ġpractition ers
all ic
f ounded
ĠMess age
Ġsubredd its
ĠÃ ¢
Ġw izard
ĠB om
Ġpo pe
Ġpr ud
re z
Ġt ones
ĠHung arian
ĠG os
Ġdis semin
r m
a gh
Ġost ens
e asy
ĠCongress man
Ġap ost
Ġon ions
æ ľ
ĠTr inity
ter min
Ġsandwic hes
Ġg els
Ä «
it em
Ġex ile
ON D
ĠOpp ortun
Ġmp w
ĠI PA
ĠHar old
Ġd ar
ĠD ucks
d ain
ĠN VIDIA
en zie
ĠN iet
ew orthy
che t
ĠNic ole
p u
Ġgl utes
Ġstation ed
ĠS ally
Ġrep ression
ĠNo ble
Ġvisual s
Ġas ym
pro duction
Ġfil ings
ĠD IS
ĠAndrew s
Ġcl an
Ġproclaim ed
Ġreflect ive
V ED
Ġg raz
ĠSt ark
Ġtyp ed
iv ation
est o
Ġg oof
Ġban anas
ĠE manuel
Ġrefer ral
Ġalloc ate
Ġg a
et ies
Ġske leton
is ite
ĠB oulder
Ġsc aled
ÑĢ Ðµ
F ire
Ġemer ges
Ġunders c
Ġimp aired
Ġ ib
ob ject
Ġded uctions
Ġmarch ing
ĠSor os
Ġd ivid
Ġswift ly
ass er
id ad
Ġsh akes
10 2
Ġretain ing
Ġcum ulative
ĠF unction
p df
O pen
id get
ĠL SU
ĠRead y
er ror
ĠValent ine
ĠWind s
ĠOs borne
Ġgu iding
ĠPrim ary
ĠD ollar
Ġ18 5
Ġanim ations
Ġbelie ver
ĠSurv iv
ĠZh ang
Ġtar iffs
Ġtum or
Ġoper atives
Ġrev olt
Ġinex per
Ġp oop
Ġnot ify
Ġw ired
Ġlau ndering
-| -|
ush ima
Ġsc oop
Ġpart nered
ĠJuda ism
en berg
for ces
ĠCol bert
Ġmilit ar
Ġ36 5
Ġtre nding
osh op
Ġinnoc ence
OU ND
OL D
P at
Ġb iblical
Ġhe ars
Ġwarm th
Ġconqu er
Ġwand ering
Ġfre ight
Ġun authorized
ĠWr iter
ĠT ucker
ĠH ers
200 3
Ġprotest ed
ĠGreen e
200 1
Ġaffidav it
l ain
Ġpat rons
Ġtim ed
Ġfulfill ment
ĠHam mond
ĠSer bia
Ġunanim ously
ĠSalv ador
est ones
ĠÂ Ĺ
Ġstar ving
Ġseiz ures
ĠC AR
ĠK C
Ġquant itative
Ġalph abet
on ce
Ġwheel chair
yr us
Ġkn ot
Ġrain bow
ĠRec overy
ĠLes lie
Ġmand ated
Ġboost ing
Ġmis information
Ġpack aged
ĠP ixel
tro phy
ĠHe ck
ave z
ang s
Ġw oo
ĠB ib
C ount
Ġunderest imate
p sych
ic us
ĠV on
Ġrem ake
Ġinter ceptions
ĠO B
Ġtre asury
ĠAur ora
og o
Ġacadem ia
P ORT
ĠSant os
ĠH amb
fig ure
ip al
Ġimag ining
Ġver te
Ġcontinu ity
ĠEurop a
Ġ} ;
ĠMeet ing
Ġc av
Ġas semble
Fig ure
ĠS ays
reg ulated
US E
ar ious
ĠOp in
ĠG ym
icult ural
ĠC ous
Ġsepar ating
Ġpur se
Ġ15 5
Ġmotiv ating
Ġs igh
ĠF lying
10 3
Ġintimid ation
ĠSnap chat
ĠT ools
Ġ195 4
Ġbus h
Ġsil k
Ġbit es
Ġtermin ation
ĠLuc y
Ġde mentia
t arians
ĠGr ade
ĠCor nell
Ġmisunder stood
Ġab using
F eb
ablish ment
\ "
ood le
ĠM au
Ġdiff ers
Ġloose ly
Ġimpl ication
ĠInspect or
ĠArt icles
A v
Ġdiss atisf
work er
ĠJan et
Ġmarry ing
Ġun available
A I
ĠI bra
ĠPut ting
Ġsincere ly
Ġs ibling
Ġeas ing
Ġblat ant
ĠHY SA
ĠG erald
l antic
p resent
ne um
ĠAn s
Ġle v
ĠAss ass
Ġwh it
ĠRes idents
Ġhal ted
Ġmunicipal ities
Ġtransform ing
t rain
Ġtatt oos
ĠBened ict
au f
In vest
Ġpresent ations
Ġsit uated
ĠF usion
Ġeleph ants
Ġsp it
ĠProt ect
le ast
ĠV IP
ĠEth ics
Ġref lex
Ġk ink
Ġ195 7
Ġfinger print
cient ific
: )
Ġam p
^ {
ĠPun j
ĠSch war
ĠðŁ¤ £
Ġp as
Ġdecor ations
ĠC ed
Ġcorrect ions
Ġt uck
t imes
ĠIn sp
Ġcere al
ab ase
Ġso fter
Ġme ats
Ġwhere by
Ġ195 3
Ġanten na
ill ions
ord e
Ġtent h
Ġins iders
ĠClin ical
ĠFredd ie
ĠCorpor ate
F ox
M ine
Ġpenet ration
ucc i
Ġritual s
ld om
etermin ed
est ing
Ġphil anthrop
Ġanecd otal
Ġmet ropolitan
Ġinject ed
Ġso b
Ġcircul ated
se ver
ĠF ol
Ġtweet ing
Ġ19 43
Ġharm less
kins on
Ġchamp agne
Ġmed d
Ġprofound ly
Ġworks hops
[...]
