{
  "version": "1.0",
  "truncation": null,
  "padding": null,
  "added_tokens": [
    {
      "id": 0,
      "content": "<s>",
      "single_word": false,
      "lstrip": false,
      "rstrip": false,
      "normalized": false,
      "special": true
    },
    {
      "id": 1,
      "content": "<pad>",
      "single_word": false,
      "lstrip": false,
      "rstrip": false,
      "normalized": false,
      "special": true
    },
    {
      "id": 2,
      "content": "</s>",
      "single_word": false,
      "lstrip": false,
      "rstrip": false,
      "normalized": false,
      "special": true
    },
    {
      "id": 3,
      "content": "<unk>",
      "single_word": false,
      "lstrip": false,
      "rstrip": false,
      "normalized": false,
      "special": true
    },
    {
      "id": 4,
      "content": "<mask>",
      "single_word": false,
      "lstrip": false,
      "rstrip": false,
      "normalized": false,
      "special": true
    }
  ],
  "normalizer": null,
  "pre_tokenizer": {
    "type": "ByteLevel",
    "add_prefix_space": false,
    "trim_offsets": true,
    "use_regex": true
  },
  "post_processor": {
    "type": "ByteLevel",
    "add_prefix_space": true,
    "trim_offsets": false,
    "use_regex": true
  },
  "decoder": {
    "type": "ByteLevel",
    "add_prefix_space": true,
    "trim_offsets": true,
    "use_regex": true
  },
  "model": {
    "type": "BPE",
    "dropout": null,
    "unk_token": null,
    "continuing_subword_prefix": null,
    "end_of_word_suffix": null,
    "fuse_unk": false,
    "byte_fallback": false,
    "ignore_merges": false,
    "vocab": {
      "<s>": 0,
      "<pad>": 1,
      "</s>": 2,
      "<unk>": 3,
      "<mask>": 4,
      "!": 5,
      "\"": 6,
      "#": 7,
      "$": 8,
      "%": 9,
      "&": 10,
      "'": 11,
      "(": 12,
      ")": 13,
      "*": 14,
      "+": 15,
      ",": 16,
      "-": 17,
      ".": 18,
      "/": 19,
      "0": 20,
      "1": 21,
      "2": 22,
      "3": 23,
      "4": 24,
      "5": 25,
      "6": 26,
      "7": 27,
      "8": 28,
      "9": 29,
      ":": 30,
      ";": 31,
      "<": 32,
      "=": 33,
      ">": 34,
      "?": 35,
      "@": 36,
      "A": 37,
      "B": 38,
      "C": 39,
      "D": 40,
      "E": 41,
      "F": 42,
      "G": 43,
      "H": 44,
      "I": 45,
      "J": 46,
      "K": 47,
      "L": 48,
      "M": 49,
      "N": 50,
      "O": 51,
      "P": 52,
      "Q": 53,
      "R": 54,
      "S": 55,
      "T": 56,
      "U": 57,
      "V": 58,
      "W": 59,
      "X": 60,
      "Y": 61,
      "Z": 62,
      "[": 63,
      "\\": 64,
      "]": 65,
      "^": 66,
      "_": 67,
      "`": 68,
      "a": 69,
      "b": 70,
      "c": 71,
      "d": 72,
      "e": 73,
      "f": 74,
      "g": 75,
      "h": 76,
      "i": 77,
      "j": 78,
      "k": 79,
      "l": 80,
      "m": 81,
      "n": 82,
      "o": 83,
      "p": 84,
      "q": 85,
      "r": 86,
      "s": 87,
      "t": 88,
      "u": 89,
      "v": 90,
      "w": 91,
      "x": 92,
      "y": 93,
      "z": 94,
      "{": 95,
      "|": 96,
      "}": 97,
      "~": 98,
      "¡": 99,
      "¢": 100,
      "£": 101,
      "¤": 102,
      "¥": 103,
      "¦": 104,
      "§": 105,
      "¨": 106,
      "©": 107,
      "ª": 108,
      "«": 109,
      "¬": 110,
      "®": 111,
      "¯": 112,
      "°": 113,
      "±": 114,
      "²": 115,
      "³": 116,
      "´": 117,
      "µ": 118,
      "¶": 119,
      "·": 120,
      "¸": 121,
      "¹": 122,
      "º": 123,
      "»": 124,
      "¼": 125,
      "½": 126,
      "¾": 127,
      "¿": 128,
      "À": 129,
      "Á": 130,
      "Â": 131,
      "Ã": 132,
      "Ä": 133,
      "Å": 134,
      "Æ": 135,
      "Ç": 136,
      "È": 137,
      "É": 138,
      "Ê": 139,
      "Ë": 140,
      "Ì": 141,
      "Í": 142,
      "Î": 143,
      "Ï": 144,
      "Ð": 145,
      "Ñ": 146,
      "Ò": 147,
      "Ó": 148,
      "Ô": 149,
      "Õ": 150,
      "Ö": 151,
      "×": 152,
      "Ø": 153,
      "Ù": 154,
      "Ú": 155,
      "Û": 156,
      "Ü": 157,
      "Ý": 158,
      "Þ": 159,
      "ß": 160,
      "à": 161,
      "á": 162,
      "â": 163,
      "ã": 164,
      "ä": 165,
      "å": 166,
      "æ": 167,
      "ç": 168,
      "è": 169,
      "é": 170,
      "ê": 171,
      "ë": 172,
      "ì": 173,
      "í": 174,
      "î": 175,
      "ï": 176,
      "ð": 177,
      "ñ": 178,
      "ò": 179,
      "ó": 180,
      "ô": 181,
      "õ": 182,
      "ö": 183,
      "÷": 184,
      "ø": 185,
      "ù": 186,
      "ú": 187,
      "û": 188,
      "ü": 189,
      "ý": 190,
      "þ": 191,
      "ÿ": 192,
      "Ā": 193,
      "ā": 194,
      "Ă": 195,
      "ă": 196,
      "Ą": 197,
      "ą": 198,
      "Ć": 199,
      "ć": 200,
      "Ĉ": 201,
      "ĉ": 202,
      "Ċ": 203,
      "ċ": 204,
      "Č": 205,
      "č": 206,
      "Ď": 207,
      "ď": 208,
      "Đ": 209,
      "đ": 210,
      "Ē": 211,
      "ē": 212,
      "Ĕ": 213,
      "ĕ": 214,
      "Ė": 215,
      "ė": 216,
      "Ę": 217,
      "ę": 218,
      "Ě": 219,
      "ě": 220,
      "Ĝ": 221,
      "ĝ": 222,
      "Ğ": 223,
      "ğ": 224,
      "Ġ": 225,
      "ġ": 226,
      "Ģ": 227,
      "ģ": 228,
      "Ĥ": 229,
      "ĥ": 230,
      "Ħ": 231,
      "ħ": 232,
      "Ĩ": 233,
      "ĩ": 234,
      "Ī": 235,
      "ī": 236,
      "Ĭ": 237,
      "ĭ": 238,
      "Į": 239,
      "į": 240,
      "İ": 241,
      "ı": 242,
      "Ĳ": 243,
      "ĳ": 244,
      "Ĵ": 245,
      "ĵ": 246,
      "Ķ": 247,
      "ķ": 248,
      "ĸ": 249,
      "Ĺ": 250,
      "ĺ": 251,
      "Ļ": 252,
      "ļ": 253,
      "Ľ": 254,
      "ľ": 255,
      "Ŀ": 256,
      "ŀ": 257,
      "Ł": 258,
      "ł": 259,
      "Ń": 260,
      "Ġt": 261,
      "Ġa": 262,
      "he": 263,
      "in": 264,
      "re": 265,
      "on": 266,
      "Ġthe": 267,
      "Ġs": 268,
      "er": 269,
      "Ġw": 270,
      "at": 271,
      "Ġo": 272,
      "it": 273,
      "Ġc": 274,
      "nd": 275,
      "Ġb": 276,
      "ou": 277,
      "ing": 278,
      "is": 279,
      "Ġf": 280,
      "or": 281,
      "en": 282,
      "es": 283,
      "Ġp": 284,
      "Ġm": 285,
      "ed": 286,
      "Ġto": 287,
      "an": 288,
      "al": 289,
      "ar": 290,
      "Ġd": 291,
      "Ġin": 292,
      "Ġh": 293,
      "Ġof": 294,
      "Ġth": 295,
      "Ġand": 296,
      "as": 297,
      "le": 298,
      "ic": 299,
      "âĢ": 300,
      "om": 301,
      "ĠI": 302,
      "ion": 303,
      "Ġl": 304,
      "ll": 305,
      "Ġn": 306,
      "ve": 307,
      "Ġg": 308,
      "Ġe": 309,
      "ly": 310,
      "st": 311,
      "Ġre": 312,
      "ent": 313,
      "Ġbe": 314,
      "Ġy": 315,
      "ot": 316,
      "ĠT": 317,
      "ut": 318,
      "id": 319,
      "ow": 320,
      "Ġthat": 321,
      "Ġon": 322,
      "ac": 323,
      "Ġis": 324,
      "et": 325,
      "ay": 326,
      "čĊ": 327,
      "Ġyou": 328,
      "Ġfor": 329,
      "ro": 330,
      "se": 331,
      "ĠS": 332,
      "im": 333,
      "Ġit": 334,
      "ĠA": 335,
      "ad": 336,
      "âĢĻ": 337,
      "ver": 338,
      "ig": 339,
      "ld": 340,
      "Ġu": 341,
      "am": 342,
      "Ġst": 343,
      "ur": 344,
      "ct": 345,
      "Ġhe": 346,
      "ĠC": 347,
      "ith": 348,
      "Ġwh": 349,
      "Ġwe": 350,
      "ir": 351,
      "Ġwith": 352,
      "ke": 353,
      "ce": 354,
      "ĠM": 355,
      "Ġan": 356,
      "Ġha": 357,
      "ter": 358,
      "ation": 359,
      "Ġas": 360,
      "ch": 361,
      "ol": 362,
      "ĠB": 363,
      "il": 364,
      "ill": 365,
      "if": 366,
      "Ġr": 367,
      "ĠThe": 368,
      "Ġwas": 369,
      "ĠW": 370,
      "ĠP": 371,
      "ĠâĢ": 372,
      "her": 373,
      "Ġare": 374,
      "ers": 375,
      "Ġse": 376,
      "Ġat": 377,
      "Ġde": 378,
      "Ġcon": 379,
      "ore": 380,
      "ate": 381,
      "oo": 382,
      "ge": 383,
      "ĠH": 384,
      "Ġhave": 385,
      "est": 386,
      "pe": 387,
      "ould": 388,
      "Ġfr": 389,
      "Ġcom": 390,
      "Ġ1": 391,
      "igh": 392,
      "ul": 393,
      "Ġnot": 394,
      "Ġne": 395,
      "th": 396,
      "ĠD": 397,
      "Ġ(": 398,
      "us": 399,
      "ain": 400,
      "un": 401,
      "Ġpro": 402,
      "op": 403,
      "ment": 404,
      "Ġor": 405,
      "ĠF": 406,
      "ĠR": 407,
      "Ġex": 408,
      "'s": 409,
      "Ġ2": 410,
      "ist": 411,
      "ess": 412,
      "ust": 413,
      "ri": 414,
      "Ġdo": 415,
      "ant": 416,
      "pp": 417,
      "ab": 418,
      "Ġthis": 419,
      "Ġsu": 420,
      "ally": 421,
      "Ġal": 422,
      "Ġsh": 423,
      "ĠN": 424,
      "res": 425,
      "Ġv": 426,
      "nt": 427,
      "and": 428,
      "ive": 429,
      "art": 430,
      "out": 431,
      "Ġbut": 432,
      "ort": 433,
      "Ġab": 434,
      "Ġj": 435,
      "ome": 436,
      "um": 437,
      "ight": 438,
      "em": 439,
      "ity": 440,
      "Ġfrom": 441,
      "os": 442,
      "ĠG": 443,
      "qu": 444,
      "el": 445,
      "ĠL": 446,
      "Ġle": 447,
      "Ġby": 448,
      "ie": 449,
      "Ġtr": 450,
      "oc": 451,
      "Ġwor": 452,
      "ĠâĢľ": 453,
      "Ġcan": 454,
      "âĢĿ": 455,
      "ĠE": 456,
      "gh": 457,
      "Ġli": 458,
      "Ġch": 459,
      "ĠO": 460,
      "ack": 461,
      "Ġmy": 462,
      "ost": 463,
      "ies": 464,
      "Ġthey": 465,
      "Ġme": 466,
      "00": 467,
      "Ġ\"": 468,
      "Ġpl": 469,
      "Ġk": 470,
      "all": 471,
      "ard": 472,
      "red": 473,
      "Ġsa": 474,
      "ast": 475,
      "Ġyour": 476,
      "Ġwhe": 477,
      "ak": 478,
      "Ġgo": 479,
      "Ġhas": 480,
      "ap": 481,
      "one": 482,
      "Ġwill": 483,
      "ough": 484,
      "our": 485,
      "Ġso": 486,
      "Ġout": 487,
      "ĠJ": 488,
      "Ġall": 489,
      "ear": 490,
      "ag": 491,
      "Ġup": 492,
      "ide": 493,
      "ud": 494,
      "Ġint": 495,
      "Ġmore": 496,
      "od": 497,
      "iv": 498,
      "Ġabout": 499,
      "Ġhis": 500,
      "Ġlike": 501,
      "ong": 502,
      "ĠTh": 503,
      "ĠU": 504,
      "fe": 505,
      "Ġwould": 506,
      "'t": 507,
      "ich": 508,
      "ther": 509,
      "ound": 510,
      "Ġwho": 511,
      "ice": 512,
      "ake": 513,
      "very": 514,
      "ame": 515,
      "ime": 516,
      "ks": 517,
      "Ġtheir": 518,
      "ind": 519,
      "Ġad": 520,
      "pt": 521,
      "age": 522,
      "Ġone": 523,
      "Ġsaid": 524,
      "act": 525,
      "ine": 526,
      "pl": 527,
      "ial": 528,
      "ure": 529,
      "ous": 530,
      "Ġjust": 531,
      "Ġget": 532,
      "ans": 533,
      "Ġsome": 534,
      "ions": 535,
      "Ġus": 536,
      "Ġfe": 537,
      "Ġif": 538,
      "are": 539,
      "ood": 540,
      "au": 541,
      "Ġpe": 542,
      "so": 543,
      "per": 544,
      "Ġar": 545,
      "Ġhad": 546,
      "Ġyear": 547,
      "king": 548,
      "ue": 549,
      "Ġpr": 550,
      "ĠIn": 551,
      "Ġte": 552,
      "ĠIt": 553,
      "Ġcomp": 554,
      "ated": 555,
      "Ġwhat": 556,
      "Ġim": 557,
      "ven": 558,
      "Ġcl": 559,
      "ople": 560,
      "cc": 561,
      "Ġen": 562,
      "Ġwere": 563,
      "ep": 564,
      "Ġany": 565,
      "ber": 566,
      "ĠY": 567,
      "Ġthem": 568,
      "ra": 569,
      "ays": 570,
      "Ġbeen": 571,
      "iz": 572,
      "Ġag": 573,
      "ite": 574,
      "ace": 575,
      "Ġun": 576,
      "Ġwhich": 577,
      "Ġthere": 578,
      "Ġcont": 579,
      "ĠK": 580,
      "Ġoff": 581,
      "own": 582,
      "Ġother": 583,
      "Ġpeople": 584,
      "Ġtime": 585,
      "Ġbec": 586,
      "Ġ20": 587,
      "Ġkn": 588,
      "Ġthan": 589,
      "ip": 590,
      "Ġman": 591,
      "og": 592,
      "Ġwhen": 593,
      "able": 594,
      "ĠSt": 595,
      "ff": 596,
      "ia": 597,
      "ry": 598,
      "ub": 599,
      "ose": 600,
      "Ġinc": 601,
      "Ġgr": 602,
      "Ġper": 603,
      "Ġover": 604,
      "ile": 605,
      "ign": 606,
      "ress": 607,
      "Ġalso": 608,
      "hing": 609,
      "Ġqu": 610,
      "ire": 611,
      "ary": 612,
      "Ġres": 613,
      "..": 614,
      "Ġ3": 615,
      "ance": 616,
      "ink": 617,
      "ass": 618,
      "ount": 619,
      "Ġ-": 620,
      "ble": 621,
      "int": 622,
      "ause": 623,
      "ings": 624,
      "ence": 625,
      "ree": 626,
      "fter": 627,
      "Ġno": 628,
      "ations": 629,
      "ult": 630,
      "Ġpart": 631,
      "ail": 632,
      "Ġdon": 633,
      "Ġdis": 634,
      "Ġsp": 635,
      "ase": 636,
      "reat": 637,
      "ond": 638,
      "ord": 639,
      "orm": 640,
      "Ġnew": 641,
      "Ġher": 642,
      "ook": 643,
      "Ġhow": 644,
      "Ġinto": 645,
      "Ġsc": 646,
      "uc": 647,
      "ical": 648,
      "Ġwant": 649,
      "Ġwork": 650,
      "ove": 651,
      "Ġrec": 652,
      "ction": 653,
      "av": 654,
      "ne": 655,
      "Ġpre": 656,
      "mer": 657,
      "irst": 658,
      "ning": 659,
      "ens": 660,
      "ĠHe": 661,
      "port": 662,
      "Ġcould": 663,
      "Ġ201": 664,
      "ick": 665,
      "Ġspe": 666,
      "ĠV": 667,
      "ob": 668,
      "nder": 669,
      "Ġam": 670,
      "ach": 671,
      "ĠCh": 672,
      "Ġknow": 673,
      "Ġshe": 674,
      "Ġtw": 675,
      "Ġour": 676,
      "vel": 677,
      "ru": 678,
      "Ġonly": 679,
      "Ġneed": 680,
      "itt": 681,
      "Ġits": 682,
      "Ġdid": 683,
      "Ġbet": 684,
      "ition": 685,
      "Ġbecause": 686,
      "ark": 687,
      "amp": 688,
      "Ġafter": 689,
      "uch": 690,
      "sel": 691,
      "ade": 692,
      "ors": 693,
      "Ġfirst": 694,
      "ang": 695,
      "Ġback": 696,
      "ren": 697,
      "Ġact": 698,
      "Ġevery": 699,
      "ory": 700,
      "Ġpo": 701,
      "ious": 702,
      "ĠBut": 703,
      "Ġacc": 704,
      "Ġapp": 705,
      "Ġthink": 706,
      "Ġrun": 707,
      "ian": 708,
      "Ġco": 709,
      "Ġbr": 710,
      "Ġmake": 711,
      "Ġ4": 712,
      "Ġnow": 713,
      "ĠWe": 714,
      "Ġ$": 715,
      "ict": 716,
      "ild": 717,
      "Ġbu": 718,
      "Ġmost": 719,
      "Ġeven": 720,
      "Ġro": 721,
      "Ġ5": 722,
      "ates": 723,
      "we": 724,
      "Ġmuch": 725,
      "hed": 726,
      "rent": 727,
      "Ġinv": 728,
      "Ġsee": 729,
      ".âĢĿ": 730,
      "vers": 731,
      "Ġthen": 732,
      "ving": 733,
      "Ġyears": 734,
      "Ġhim": 735,
      "ident": 736,
      "ĠWh": 737,
      "Ġdec": 738,
      "ons": 739,
      "Ġplay": 740,
      "te": 741,
      "Ġtwo": 742,
      "omet": 743,
      "Ġtoo": 744,
      "ish": 745,
      "aw": 746,
      "oy": 747,
      "Ġgood": 748,
      "Ġway": 749,
      "ĠAnd": 750,
      "Ġbl": 751,
      "ĠThis": 752,
      "Ġstart": 753,
      "ull": 754,
      "lic": 755,
      "ting": 756,
      "ect": 757,
      "form": 758,
      "Ġser": 759,
      "ew": 760,
      "Ġthr": 761,
      "Ġunder": 762,
      "Ġcons": 763,
      "Ġcomm": 764,
      "fore": 765,
      "Ġpol": 766,
      "ved": 767,
      "wn": 768,
      "ise": 769,
      "ĠYou": 770,
      "Ġshould": 771,
      "ater": 772,
      "Ġ19": 773,
      "Ġwhere": 774,
      "ft": 775,
      "Ġ[": 776,
      "Ġmay": 777,
      "ual": 778,
      "ĠIf": 779,
      "Ġreally": 780,
      ").": 781,
      "Ġvery": 782,
      "Ġdoes": 783,
      "Ġdif": 784,
      "li": 785,
      "anc": 786,
      "Ġagain": 787,
      "lp": 788,
      "Ġsay": 789,
      "day": 790,
      "Ġbeing": 791,
      "Ġcr": 792,
      "other": 793,
      ",âĢĿ": 794,
      "ily": 795,
      "Ġadd": 796,
      "Ġgoing": 797,
      "Ġlong": 798,
      "Ġdes": 799,
      "Ġatt": 800,
      "The": 801,
      "ty": 802,
      "Ġright": 803,
      "ually": 804,
      "Ġind": 805,
      "Ġhelp": 806,
      "urn": 807,
      "ating": 808,
      "Ġthese": 809,
      "ec": 810,
      "aking": 811,
      "Ġdown": 812,
      "ments": 813,
      "'m": 814,
      "Ġwee": 815,
      "old": 816,
      "Ġem": 817,
      "pect": 818,
      "Ġsomet": 819,
      ".\"": 820,
      "Ġke": 821,
      "Ġwell": 822,
      "xt": 823,
      "Ġmon": 824,
      "ife": 825,
      "self": 826,
      "Ġuse": 827,
      "oss": 828,
      "Ġwr": 829,
      "Ġinter": 830,
      "ents": 831,
      "iss": 832,
      "du": 833,
      "Ġgu": 834,
      "gr": 835,
      "les": 836,
      "Ġsec": 837,
      "lud": 838,
      "Ġfeel": 839,
      "Ġthose": 840,
      "Ġmany": 841,
      "ĠAs": 842,
      "Ġrem": 843,
      "Ġsupp": 844,
      "Ġbefore": 845,
      "ock": 846,
      "Ġthough": 847,
      "nds": 848,
      "ĠâĢĵ": 849,
      "erson": 850,
      "Ġthrough": 851,
      "oth": 852,
      "ath": 853,
      "oup": 854,
      "enc": 855,
      "Ġfl": 856,
      "Ġstill": 857,
      "Ġph": 858,
      "ib": 859,
      "Ġown": 860,
      "ower": 861,
      "Ġlast": 862,
      "oll": 863,
      "Ġday": 864,
      "Ġimp": 865,
      "ific": 866,
      "get": 867,
      "Ġev": 868,
      "ince": 869,
      "ason": 870,
      "ĠâĢĶ": 871,
      "Ġrel": 872,
      "man": 873,
      "Ġreg": 874,
      "ublic": 875,
      "ange": 876,
      "Ġcall": 877,
      "ves": 878,
      "ĠUn": 879,
      "Ġass": 880,
      "Ġsm": 881,
      "als": 882,
      "Ġtake": 883,
      "up": 884,
      "ased": 885,
      "Ġlot": 886,
      "hen": 887,
      "ful": 888,
      "ere": 889,
      "Ġend": 890,
      "ject": 891,
      "ax": 892,
      "iew": 893,
      "Ġfin": 894,
      "be": 895,
      "uring": 896,
      "'re": 897,
      "fect": 898,
      "ĠTr": 899,
      "Ġdiffe": 900,
      "Ġsame": 901,
      "ump": 902,
      "ible": 903,
      "arly": 904,
      "Ġ6": 905,
      "Ġbel": 906,
      "ities": 907,
      "ward": 908,
      "ative": 909,
      "ont": 910,
      ",\"": 911,
      "Ġsomething": 912,
      "Ġpoint": 913,
      "lect": 914,
      "ited": 915,
      "Ġtry": 916,
      "Ġset": 917,
      "read": 918,
      "Ġmin": 919,
      "Ġinclud": 920,
      "Ġfind": 921,
      "Ġsy": 922,
      "Ġsub": 923,
      "Ġmade": 924,
      "Ġshow": 925,
      "ts": 926,
      "ars": 927,
      "ational": 928,
      "--": 929,
      "imes": 930,
      "Ġac": 931,
      "vern": 932,
      "its": 933,
      "ics": 934,
      "ĠAn": 935,
      "Ġwhile": 936,
      "ener": 937,
      "ys": 938,
      "ote": 939,
      "thing": 940,
      "Ġsim": 941,
      "Ġthings": 942,
      "Ġstr": 943,
      "),": 944,
      "Ġcount": 945,
      "Ġhere": 946,
      "Ġgreat": 947,
      "Ġ10": 948,
      "Ġmonth": 949,
      "Ġaround": 950,
      "Ġreal": 951,
      "ues": 952,
      "ell": 953,
      "Ġstate": 954,
      "ĠAl": 955,
      "gg": 956,
      "Ġpres": 957,
      "ility": 958,
      "und": 959,
      "ĠRe": 960,
      "meric": 961,
      "Ġhapp": 962,
      "ied": 963,
      "ci": 964,
      "Ġhigh": 965,
      "Ġlook": 966,
      "Ġread": 967,
      "tain": 968,
      "ms": 969,
      "way": 970,
      "000": 971,
      "ĠSo": 972,
      "Ġperson": 973,
      "ah": 974,
      "ters": 975,
      "Ġgot": 976,
      "Ġstud": 977,
      "Ġent": 978,
      "ĠThey": 979,
      "Ġdef": 980,
      "olog": 981,
      "Ġche": 982,
      "ĠThat": 983,
      "Ġcompan": 984,
      "oney": 985,
      "Ġsuch": 986,
      "cess": 987,
      "ave": 988,
      "Ġinst": 989,
      "Ġfew": 990,
      "me": 991,
      "ank": 992,
      "Ġcol": 993,
      "io": 994,
      "ner": 995,
      "air": 996,
      "ix": 997,
      "ool": 998,
      "Ġinvest": 999,
      "Ġop": 1000,
      "Ġret": 1001,
      "Ġins": 1002,
      "Ġworld": 1003,
      "ĠAmeric": 1004,
      "Ġsur": 1005,
      "akes": 1006,
      "Ġcur": 1007,
      "ĠNew": 1008,
      "Ġexper": 1009,
      "ever": 1010,
      "ween": 1011,
      "Ġter": 1012,
      "rib": 1013,
      "Ġlife": 1014,
      "hip": 1015,
      "Ġused": 1016,
      "oun": 1017,
      "atch": 1018,
      "Ġbig": 1019,
      "Ġplan": 1020,
      "Ġsl": 1021,
      "arch": 1022,
      "Ġput": 1023,
      "alth": 1024,
      "Ġob": 1025,
      "Ġbetter": 1026,
      "hes": 1027,
      "Ġgovern": 1028,
      "Ġreport": 1029,
      "Ġloo": 1030,
      "Ġcar": 1031,
      "'ve": 1032,
      "ouse": 1033,
      "Ġteam": 1034,
      "ically": 1035,
      "Ġ200": 1036,
      "az": 1037,
      "Ġmark": 1038,
      "cept": 1039,
      "Ġbetween": 1040,
      "Ġ7": 1041,
      "ists": 1042,
      "tern": 1043,
      "Ġap": 1044,
      "Ġexp": 1045,
      "ather": 1046,
      "ĠFor": 1047,
      "ĠThere": 1048,
      "ollow": 1049,
      "Ġnum": 1050,
      "gan": 1051,
      "Ġnever": 1052,
      "Ġi": 1053,
      "Ġfam": 1054,
      "stem": 1055,
      "Ġsince": 1056,
      "ale": 1057,
      "...": 1058,
      "Ġmight": 1059,
      "Ġfound": 1060,
      "Ġspec": 1061,
      "iness": 1062,
      "Ġmoney": 1063,
      "ork": 1064,
      "Th": 1065,
      "Ġbus": 1066,
      "Ġdifferent": 1067,
      "Ġmed": 1068,
      "Ġsign": 1069,
      "Ġagainst": 1070,
      "ably": 1071,
      "Ġpay": 1072,
      "ros": 1073,
      "ures": 1074,
      "Ġadv": 1075,
      "Ġlead": 1076,
      "Ġpost": 1077,
      "Ġdisc": 1078,
      "Ġchar": 1079,
      "ody": 1080,
      "Ġboth": 1081,
      "Ġgame": 1082,
      "ked": 1083,
      "Ġ8": 1084,
      "erest": 1085,
      "Ġweek": 1086,
      "ense": 1087,
      "Ġkeep": 1088,
      "illion": 1089,
      "led": 1090,
      "ism": 1091,
      "ways": 1092,
      "Ġtal": 1093,
      "Ġhard": 1094,
      "ĠBr": 1095,
      "Ġbest": 1096,
      "ef": 1097,
      "pr": 1098,
      "Ġsays": 1099,
      "oot": 1100,
      "Ġtrans": 1101,
      "com": 1102,
      "Ġprov": 1103,
      "Ġcour": 1104,
      "Ġide": 1105,
      "Ġed": 1106,
      "Ġdoing": 1107,
      "ution": 1108,
      "uss": 1109,
      "arn": 1110,
      "ute": 1111,
      "Ġseem": 1112,
      "iet": 1113,
      "ash": 1114,
      "Ġiss": 1115,
      "velop": 1116,
      "âĢĶ": 1117,
      "Ġmod": 1118,
      "ittle": 1119,
      "ices": 1120,
      "uck": 1121,
      "ĠIs": 1122,
      "ience": 1123,
      "ĠFr": 1124,
      "ĠSe": 1125,
      "land": 1126,
      "Ġfact": 1127,
      "Ġlaw": 1128,
      "ng": 1129,
      "ov": 1130,
      "Ġrep": 1131,
      "ces": 1132,
      "ffect": 1133,
      "ĠAr": 1134,
      "ĠSh": 1135,
      "Ġquest": 1136,
      "ames": 1137,
      "Ġhome": 1138,
      "Ġthing": 1139,
      "Ġfrie": 1140,
      "ize": 1141,
      "Ġgener": 1142,
      "Ġduring": 1143,
      "Ġmem": 1144,
      "ular": 1145,
      "Ġgroup": 1146,
      "Ġ9": 1147,
      "Ġsupport": 1148,
      "Ġanother": 1149,
      "ins": 1150,
      "Ġcap": 1151,
      "ĠHow": 1152,
      "less": 1153,
      "Ġdidn": 1154,
      "cent": 1155,
      "Ġeas": 1156,
      "Ġsystem": 1157,
      "Ġjob": 1158,
      "Ġnext": 1159,
      "Ġthree": 1160,
      "Ġprodu": 1161,
      "Ġconf": 1162,
      "chool": 1163,
      "Ġmarket": 1164,
      "ĠCom": 1165,
      "Ġel": 1166,
      "ention": 1167,
      "Ġgovernment": 1168,
      "Ġcle": 1169,
      "Ġlittle": 1170,
      "con": 1171,
      "Ġext": 1172,
      "ck": 1173,
      "Ġdet": 1174,
      "Ġinterest": 1175,
      "ĠLe": 1176,
      "Ġless": 1177,
      "Ġ'": 1178,
      "ern": 1179,
      "Ġfollow": 1180,
      "Ġfar": 1181,
      "Ġwom": 1182,
      "Ġcome": 1183,
      "Ġeach": 1184,
      "Ġbelie": 1185,
      "Ġcre": 1186,
      "Ġposs": 1187,
      "ines": 1188,
      "Ġsure": 1189,
      "Ġwithout": 1190,
      "Ġoffic": 1191,
      "irect": 1192,
      "Ġaut": 1193,
      "Ġlar": 1194,
      "Ġmar": 1195,
      "ĠCl": 1196,
      "Ġalways": 1197,
      "ared": 1198,
      "Ġsoc": 1199,
      "Ġproble": 1200,
      "ph": 1201,
      "Ġcare": 1202,
      "ĠOn": 1203,
      "Ġdevelop": 1204,
      "ier": 1205,
      "ger": 1206,
      "Ġpublic": 1207,
      "Ġtold": 1208,
      "ten": 1209,
      "Ġcor": 1210,
      "Ġgiv": 1211,
      "Ġrequ": 1212,
      "Ġdoesn": 1213,
      "ness": 1214,
      "Ġleg": 1215,
      "Ġ0": 1216,
      "Ġtri": 1217,
      "ages": 1218,
      "Ġexpl": 1219,
      "ex": 1220,
      "ret": 1221,
      "Ġloc": 1222,
      "der": 1223,
      "Ġresp": 1224,
      "min": 1225,
      "med": 1226,
      "Ġmet": 1227,
      "Ġbusiness": 1228,
      "ized": 1229,
      "Ġlet": 1230,
      "the": 1231,
      "Ġdr": 1232,
      "oh": 1233,
      "Ġval": 1234,
      "ision": 1235,
      "ĠDe": 1236,
      "ĠTrump": 1237,
      "aj": 1238,
      "ient": 1239,
      "Ġopp": 1240,
      "Ġref": 1241,
      "Ġwhy": 1242,
      "Ġ*": 1243,
      "ĠWhat": 1244,
      "Ġbuild": 1245,
      "Ġhead": 1246,
      "Ġpass": 1247,
      "Ġhand": 1248,
      "Ġmil": 1249,
      "Ġplace": 1250,
      "Ġcomple": 1251,
      "ivers": 1252,
      "Ġsecond": 1253,
      "ton": 1254,
      "Ġcontin": 1255,
      "ately": 1256,
      "Ġsmall": 1257,
      "bers": 1258,
      "ross": 1259,
      "Ġinf": 1260,
      "ata": 1261,
      "Ġart": 1262,
      "ats": 1263,
      "ĠUS": 1264,
      "Ġopen": 1265,
      "view": 1266,
      "Ġimport": 1267,
      "Ġincre": 1268,
      "Ġdist": 1269,
      "ready": 1270,
      "ĠAt": 1271,
      "ĠAd": 1272,
      "Ġenough": 1273,
      "Ġactually": 1274,
      "line": 1275,
      "20": 1276,
      "Ġav": 1277,
      "Ġfull": 1278,
      "Ġrest": 1279,
      "Ġcent": 1280,
      "ric": 1281,
      ".[": 1282,
      "Ġfun": 1283,
      "Ġtop": 1284,
      "Ġallow": 1285,
      "ced": 1286,
      "Ġable": 1287,
      "ox": 1288,
      "ider": 1289,
      "bs": 1290,
      "Ġdays": 1291,
      "Ġcommun": 1292,
      "ired": 1293,
      "It": 1294,
      "Ġcompany": 1295,
      "Ġchild": 1296,
      "gram": 1297,
      "ets": 1298,
      "Ġrunning": 1299,
      "Ġ&": 1300,
      "Ġalready": 1301,
      "stand": 1302,
      "Ġ.": 1303,
      "aining": 1304,
      "Ġpower": 1305,
      "Ġgetting": 1306,
      "'ll": 1307,
      "ling": 1308,
      "iting": 1309,
      "Ġlist": 1310,
      "ording": 1311,
      "ield": 1312,
      "Ġgl": 1313,
      "ants": 1314,
      "Ġpri": 1315,
      "Ġkind": 1316,
      "Ġpos": 1317,
      "Ġunt": 1318,
      "ital": 1319,
      "ope": 1320,
      "Ġusing": 1321,
      "gy": 1322,
      "Ġmove": 1323,
      "ĠShe": 1324,
      "Ġbit": 1325,
      "att": 1326,
      "Ġpolit": 1327,
      "Ġcurrent": 1328,
      "Ġconc": 1329,
      "Ġfil": 1330,
      "Ġmain": 1331,
      "Ġschool": 1332,
      "Ġtell": 1333,
      "Ġlove": 1334,
      "Ġprob": 1335,
      "ract": 1336,
      "Ġty": 1337,
      "orn": 1338,
      "Ġappe": 1339,
      "Ġhealth": 1340,
      "Ġresult": 1341,
      "Ġrele": 1342,
      "ĠWhen": 1343,
      "Ġgive": 1344,
      "Ġtax": 1345,
      "Ġbre": 1346,
      "Ġcontro": 1347,
      "Ġold": 1348,
      "Ġstand": 1349,
      "Ġturn": 1350,
      "Ġhaving": 1351,
      "ee": 1352,
      "ĠMy": 1353,
      "Ġfree": 1354,
      "ĠâĢĺ": 1355,
      "Ġchange": 1356,
      "Ġdem": 1357,
      "rop": 1358,
      "Ġcase": 1359,
      "ertain": 1360,
      "ug": 1361,
      "Ġinform": 1362,
      "ead": 1363,
      "Ġwar": 1364,
      "here": 1365,
      "Ġhum": 1366,
      "Ġtech": 1367,
      "osed": 1368,
      "Ġrecent": 1369,
      "Ġdirect": 1370,
      "Ġcost": 1371,
      "Ġhour": 1372,
      "Ġmat": 1373,
      "Ġnumber": 1374,
      "Ġworking": 1375,
      "ok": 1376,
      "vious": 1377,
      "Ġaway": 1378,
      "Ġleast": 1379,
      "Ġbuy": 1380,
      "Ġsk": 1381,
      "Ġbeh": 1382,
      "nding": 1383,
      "Ġcamp": 1384,
      "Ġmean": 1385,
      "rap": 1386,
      "Ġprof": 1387,
      "Ġsit": 1388,
      "Ġuntil": 1389,
      "br": 1390,
      "Ġlevel": 1391,
      "Ġprogram": 1392,
      "erv": 1393,
      "Ġmaking": 1394,
      "Ġleft": 1395,
      "Ġsol": 1396,
      "duc": 1397,
      "Ġfamily": 1398,
      "Ġsomeone": 1399,
      "Ġpartic": 1400,
      "uff": 1401,
      "Ġserv": 1402,
      "Ġdone": 1403,
      "Ġform": 1404,
      "Ġhappen": 1405,
      "We": 1406,
      "alf": 1407,
      "Ġpop": 1408,
      "ished": 1409,
      "rence": 1410,
      "Ġopt": 1411,
      "Ġeffect": 1412,
      "Ġpercent": 1413,
      "Ġexpect": 1414,
      "Ġann": 1415,
      "Ġbas": 1416,
      "Ġprot": 1417,
      "Ġanything": 1418,
      "conom": 1419,
      "ĠRep": 1420,
      "ains": 1421,
      "ĠBl": 1422,
      "ised": 1423,
      "Ġgrow": 1424,
      "Ġcountry": 1425,
      "ged": 1426,
      "ency": 1427,
      "Ġcalled": 1428,
      "ploy": 1429,
      "Ġmonths": 1430,
      "Ġpur": 1431,
      "10": 1432,
      "ajor": 1433,
      "Ġtest": 1434,
      "Ġmillion": 1435,
      "Ġlooking": 1436,
      "Ġincluding": 1437,
      "Ġprocess": 1438,
      "ĠBe": 1439,
      "ott": 1440,
      "Ġdri": 1441,
      "Ġimportant": 1442,
      "ush": 1443,
      "Ġprobably": 1444,
      "aim": 1445,
      "ither": 1446,
      "Ġpast": 1447,
      "ird": 1448,
      "ided": 1449,
      "arent": 1450,
      "edd": 1451,
      "ĠZ": 1452,
      "Ġtimes": 1453,
      "Ġtrying": 1454,
      "ann": 1455,
      "Ġpret": 1456,
      "ral": 1457,
      "Ġwon": 1458,
      "Ġchang": 1459,
      "ĠPro": 1460,
      "ĠQ": 1461,
      "ĠInd": 1462,
      "ember": 1463,
      "Ġlo": 1464,
      "Ġrese": 1465,
      "ample": 1466,
      "gin": 1467,
      "Ġstarted": 1468,
      "Ġ15": 1469,
      "Ġlater": 1470,
      "Ġsimp": 1471,
      "ides": 1472,
      "Ġve": 1473,
      "ology": 1474,
      "ike": 1475,
      "Ġever": 1476,
      "Ġidea": 1477,
      "Ġmo": 1478,
      "son": 1479,
      "Ġfour": 1480,
      "Ġdep": 1481,
      "Ġes": 1482,
      "Ġpretty": 1483,
      "used": 1484,
      "Ġdata": 1485,
      "ode": 1486,
      "ined": 1487,
      "ama": 1488,
      "Ġisn": 1489,
      "Ġmakes": 1490,
      "Ġclass": 1491,
      "Ġwin": 1492,
      "Ġthought": 1493,
      "Ġbook": 1494,
      "most": 1495,
      "aring": 1496,
      "Ġunderstand": 1497,
      "ĠPh": 1498,
      "to": 1499,
      "Ġbad": 1500,
      "Ġstop": 1501,
      "co": 1502,
      "aid": 1503,
      "Ġseason": 1504,
      "Ġdeal": 1505,
      "'d": 1506,
      "ĠOr": 1507,
      "Ġ12": 1508,
      "ĠAll": 1509,
      "wh": 1510,
      "ature": 1511,
      "ality": 1512,
      "Ġ:": 1513,
      "side": 1514,
      "Ġeconom": 1515,
      "ering": 1516,
      "ina": 1517,
      "Ġwent": 1518,
      "Ġreason": 1519,
      "Ġest": 1520,
      "anks": 1521,
      "ards": 1522,
      "Ġproduct": 1523,
      "Ġaccount": 1524,
      "Ġben": 1525,
      "Ġwomen": 1526,
      "ration": 1527,
      "Ġprom": 1528,
      "ered": 1529,
      "Ġmajor": 1530,
      "ĠMay": 1531,
      "ional": 1532,
      "Ġdesign": 1533,
      "ories": 1534,
      "Ġshort": 1535,
      "Ġtechn": 1536,
      "__": 1537,
      "Ġris": 1538,
      "app": 1539,
      "ted": 1540,
      "Ġproject": 1541,
      "atic": 1542,
      "Ġonce": 1543,
      "Ġappro": 1544,
      "Ġ18": 1545,
      "ruct": 1546,
      "ought": 1547,
      "Ġvide": 1548,
      "ĠNo": 1549,
      "ĠCan": 1550,
      "Ġattack": 1551,
      "Ġnews": 1552,
      "Ġhist": 1553,
      "ccess": 1554,
      "atur": 1555,
      "end": 1556,
      "ives": 1557,
      "lf": 1558,
      "reen": 1559,
      "Ġvar": 1560,
      "Ġet": 1561,
      "Ġquestion": 1562,
      "Ġinformation": 1563,
      "inal": 1564,
      "Ġproblem": 1565,
      "Ġstory": 1566,
      "ured": 1567,
      "Ġoften": 1568,
      "ĠAmerican": 1569,
      "Ġrece": 1570,
      "ĠOne": 1571,
      "Ġreturn": 1572,
      "ocr": 1573,
      "ĠChr": 1574,
      "ior": 1575,
      "uro": 1576,
      "ggest": 1577,
      "âĢ¦": 1578,
      "ows": 1579,
      "cl": 1580,
      "Ġlarge": 1581,
      "Ġ=": 1582,
      "Ġtook": 1583,
      "Ġside": 1584,
      "Ġcity": 1585,
      "50": 1586,
      "Ġvis": 1587,
      "Ġhold": 1588,
      "wit": 1589,
      "Ġexperience": 1590,
      "Ġorgan": 1591,
      "ĠMar": 1592,
      "ĠPl": 1593,
      "Ġcame": 1594,
      "Ġ--": 1595,
      "uture": 1596,
      "ases": 1597,
      "hor": 1598,
      "Ġconst": 1599,
      "ury": 1600,
      "Ġsuggest": 1601,
      "Ġmust": 1602,
      "Ġeff": 1603,
      "Ġlow": 1604,
      "Ġpar": 1605,
      "Ġwater": 1606,
      "Ġelse": 1607,
      "Ġbro": 1608,
      "Ġlikely": 1609,
      "Ġpat": 1610,
      "Ġmind": 1611,
      "ik": 1612,
      "Ġnight": 1613,
      "Ġbody": 1614,
      "Ġpolice": 1615,
      "Ġmus": 1616,
      "orth": 1617,
      "Ġtra": 1618,
      "Ġmiss": 1619,
      "Ġlive": 1620,
      "aps": 1621,
      "ially": 1622,
      "augh": 1623,
      "ator": 1624,
      "Ġ30": 1625,
      "Ġele": 1626,
      "Ġothers": 1627,
      "ware": 1628,
      "Ġmen": 1629,
      "ained": 1630,
      "ney": 1631,
      "Ġdeb": 1632,
      "Ġtoday": 1633,
      "Ġequ": 1634,
      "ify": 1635,
      "ounds": 1636,
      "Ġclaim": 1637,
      "Ġbecome": 1638,
      "ortun": 1639,
      "ream": 1640,
      "Ġago": 1641,
      "Ġnon": 1642,
      "Ġfood": 1643,
      "Ġcertain": 1644,
      "Ġmom": 1645,
      "Ġsing": 1646,
      "ians": 1647,
      "Ġline": 1648,
      "Ġcourse": 1649,
      "Ġintern": 1650,
      "ĠMan": 1651,
      "Ġname": 1652,
      "Ġpot": 1653,
      "Ġearly": 1654,
      "Ġsocial": 1655,
      "Ġfriends": 1656,
      "Ġpossible": 1657,
      "iter": 1658,
      "els": 1659,
      "Ġhalf": 1660,
      "iversity": 1661,
      "Ġseen": 1662,
      "Ġkill": 1663,
      "Ġexample": 1664,
      "Ġword": 1665,
      "Ġfore": 1666,
      "ĠPr": 1667,
      "Ġorder": 1668,
      "Ġview": 1669,
      "ony": 1670,
      "by": 1671,
      "ĠOb": 1672,
      "outh": 1673,
      "ĠTo": 1674,
      "Ġfoc": 1675,
      "Ġmeet": 1676,
      "----": 1677,
      "ilar": 1678,
      "pend": 1679,
      "ohn": 1680,
      "Ġevent": 1681,
      "gress": 1682,
      "ands": 1683,
      "ĠSp": 1684,
      "ĠUnited": 1685,
      "Ġoper": 1686,
      "Ġeverything": 1687,
      "Ġfuture": 1688,
      "Ġmeans": 1689,
      "Ġeng": 1690,
      "ĠGr": 1691,
      "ified": 1692,
      "oint": 1693,
      "Ġpresident": 1694,
      "let": 1695,
      "ane": 1696,
      "ched": 1697,
      "Ġbelieve": 1698,
      "urity": 1699,
      "ĠDo": 1700,
      "Ġdi": 1701,
      "Ġofficial": 1702,
      "Ġyet": 1703,
      "ries": 1704,
      "acy": 1705,
      "ER": 1706,
      "Ġ/": 1707,
      "ĠJust": 1708,
      "itive": 1709,
      "ĠNot": 1710,
      "Ġsuccess": 1711,
      "Ġhouse": 1712,
      "idd": 1713,
      "inking": 1714,
      "gu": 1715,
      "Ġperform": 1716,
      "aign": 1717,
      "Ġcut": 1718,
      "Ġyoung": 1719,
      "aces": 1720,
      "ister": 1721,
      "Ġelect": 1722,
      "Ġwal": 1723,
      "Ġrecord": 1724,
      "verage": 1725,
      "Ġwanted": 1726,
      "Ġproper": 1727,
      "arr": 1728,
      "ĠSc": 1729,
      "utes": 1730,
      "Ġsever": 1731,
      "ĠCon": 1732,
      "Ġsell": 1733,
      "Ġalmost": 1734,
      "Ġeveryone": 1735,
      "Ġclose": 1736,
      "Ġhig": 1737,
      "ĠMr": 1738,
      "ĠWith": 1739,
      "Ġ,": 1740,
      "Ġcontrol": 1741,
      "Ġair": 1742,
      "Ġ11": 1743,
      "Ġfund": 1744,
      "Ġsal": 1745,
      "You": 1746,
      "Ġsex": 1747,
      "work": 1748,
      "Ġbo": 1749,
      "ĠJohn": 1750,
      "Ġconsider": 1751,
      "Ġpolic": 1752,
      "Ġca": 1753,
      "ror": 1754,
      "Ġlearn": 1755,
      "Ġwhether": 1756,
      "ential": 1757,
      "Ġtot": 1758,
      "Ġcomplete": 1759,
      "ĠHowever": 1760,
      "Ġbased": 1761,
      "ley": 1762,
      "Ġstrong": 1763,
      "ots": 1764,
      "ges": 1765,
      "Ġpress": 1766,
      "ium": 1767,
      "icle": 1768,
      "idence": 1769,
      "ĠPres": 1770,
      "ensive": 1771,
      "Ġseems": 1772,
      "Ġhuman": 1773,
      "Ġeither": 1774,
      "Ġlim": 1775,
      "Ġsaying": 1776,
      "30": 1777,
      "Ġear": 1778,
      "enn": 1779,
      "Ġalong": 1780,
      "Ġseveral": 1781,
      "not": 1782,
      "ails": 1783,
      "Ġnothing": 1784,
      "ĠAfter": 1785,
      "sh": 1786,
      "aken": 1787,
      "Ġwithin": 1788,
      "sy": 1789,
      "cially": 1790,
      "cu": 1791,
      "Ġcampaign": 1792,
      "Ġissue": 1793,
      "Ġhours": 1794,
      "Ġimpro": 1795,
      "Ġedit": 1796,
      "Ġvers": 1797,
      "empt": 1798,
      "Ġdev": 1799,
      "ization": 1800,
      "Ġlocal": 1801,
      "Ġ#": 1802,
      "ising": 1803,
      "eral": 1804,
      "Ġwedd": 1805,
      "Ġtoget": 1806,
      "Ġtogether": 1807,
      "ones": 1808,
      "aster": 1809,
      "aged": 1810,
      "ĠComm": 1811,
      "Ġmedia": 1812,
      "Ġgames": 1813,
      "Ġcolle": 1814,
      "Ġcomes": 1815,
      "unch": 1816,
      "Ġsimilar": 1817,
      "Ġdefin": 1818,
      "Ġinvol": 1819,
      "ids": 1820,
      "Ġmyself": 1821,
      "Wh": 1822,
      "Ġocc": 1823,
      "Ġtrad": 1824,
      "ĠDon": 1825,
      "Ġcharac": 1826,
      "vert": 1827,
      "cri": 1828,
      "lo": 1829,
      "iety": 1830,
      "Ġphot": 1831,
      "Ġpolitical": 1832,
      "Ġyourself": 1833,
      "Ġasked": 1834,
      "ĠEx": 1835,
      "ĠMc": 1836,
      "Ġsuper": 1837,
      "Ġarea": 1838,
      "year": 1839,
      "Ġlight": 1840,
      "Ġra": 1841,
      "ĠRepublic": 1842,
      "Ġemploy": 1843,
      "Ġamount": 1844,
      "ison": 1845,
      "ances": 1846,
      "ustom": 1847,
      "back": 1848,
      "iol": 1849,
      "Ġtaking": 1850,
      "Ġwhole": 1851,
      "pecially": 1852,
      "mend": 1853,
      "Ġ|": 1854,
      "Ġchildren": 1855,
      "que": 1856,
      "Ġwa": 1857,
      "Ġbreak": 1858,
      "urs": 1859,
      "Ġhope": 1860,
      "Ġaccording": 1861,
      "Ġavail": 1862,
      "Ġ100": 1863,
      "rew": 1864,
      "This": 1865,
      "Ġactiv": 1866,
      "ĠEuro": 1867,
      "ĠAm": 1868,
      "Ġvideo": 1869,
      "elt": 1870,
      "Ġetc": 1871,
      "aper": 1872,
      "Ġgiven": 1873,
      "Ġrather": 1874,
      "Ġanyone": 1875,
      "artment": 1876,
      "Ġformer": 1877,
      "Ġz": 1878,
      "Ġweeks": 1879,
      "wards": 1880,
      "for": 1881,
      "ĠIm": 1882,
      "ĠRuss": 1883,
      "ĠSy": 1884,
      "ivid": 1885,
      "Ġworth": 1886,
      "ulation": 1887,
      "inc": 1888,
      "ĠDem": 1889,
      "arm": 1890,
      "Ġprop": 1891,
      "Ġquick": 1892,
      "ron": 1893,
      "Ġstudy": 1894,
      "uge": 1895,
      "Ġmor": 1896,
      "Ġfig": 1897,
      "por": 1898,
      "Ġfail": 1899,
      "imate": 1900,
      "Ġpract": 1901,
      "itional": 1902,
      "ĠTe": 1903,
      "cle": 1904,
      "Ġvot": 1905,
      "mber": 1906,
      "ried": 1907,
      "uation": 1908,
      "!!": 1909,
      "Ġnet": 1910,
      "ster": 1911,
      "Ġant": 1912,
      "Ġpriv": 1913,
      "Ġcond": 1914,
      "Ġ16": 1915,
      "ĠCol": 1916,
      "Ġeasy": 1917,
      "sw": 1918,
      "Ġparty": 1919,
      "vent": 1920,
      "Ġself": 1921,
      "Ġorig": 1922,
      "Ġtraining": 1923,
      "Ġbenef": 1924,
      "selves": 1925,
      "Ġcal": 1926,
      "Ġmembers": 1927,
      "Ġ199": 1928,
      "gle": 1929,
      "Ġacross": 1930,
      "Ġfive": 1931,
      "Ġla": 1932,
      "Ġcoup": 1933,
      "ability": 1934,
      "Ġcommunity": 1935,
      "ĠPresident": 1936,
      "Ġspecific": 1937,
      "Ġweight": 1938,
      "Ġvalue": 1939,
      "ert": 1940,
      "Ġentire": 1941,
      "allen": 1942,
      "ĠX": 1943,
      "Ġindust": 1944,
      "Ġcreat": 1945,
      "ĠNow": 1946,
      "Ġfav": 1947,
      "Ġwedding": 1948,
      "Ġcompet": 1949,
      "Ġsent": 1950,
      "ored": 1951,
      "une": 1952,
      "fer": 1953,
      "ourn": 1954,
      "ĠEurope": 1955,
      "Ġboo": 1956,
      "iron": 1957,
      "Ġfriend": 1958,
      "Ġresearch": 1959,
      "raw": 1960,
      "Ġsour": 1961,
      "itions": 1962,
      "Ġsingle": 1963,
      "Ġbar": 1964,
      "ball": 1965,
      "Ġfight": 1966,
      "Ġplayers": 1967,
      "Ġmult": 1968,
      "ler": 1969,
      "Ġstuff": 1970,
      "urther": 1971,
      "Ġavailable": 1972,
      "Ġmilit": 1973,
      "Ġrelations": 1974,
      "Ġwatch": 1975,
      "raft": 1976,
      "Ġknown": 1977,
      "Ġcompanies": 1978,
      "oci": 1979,
      "Ġmess": 1980,
      "ipp": 1981,
      "Ġinstead": 1982,
      "Ġdue": 1983,
      "Ġaccess": 1984,
      "Ġclear": 1985,
      "ĠSome": 1986,
      "Ġfre": 1987,
      "ived": 1988,
      "ague": 1989,
      "Ġcrit": 1990,
      "11": 1991,
      "ued": 1992,
      "Ġabs": 1993,
      "ĠYork": 1994,
      "uly": 1995,
      "Ġagree": 1996,
      "my": 1997,
      "ills": 1998,
      "Ġhit": 1999,
      "Ġauthor": 2000,
      "Ġstay": 2001,
      "ograp": 2002,
      "ubl": 2003,
      "joy": 2004,
      "itely": 2005,
      "irl": 2006,
      "Ġ]": 2007,
      "orts": 2008,
      "ament": 2009,
      "Ġfast": 2010,
      "Ġamong": 2011,
      "Ġbring": 2012,
      "Ġwasn": 2013,
      "Ġage": 2014,
      "book": 2015,
      "Ġissues": 2016,
      "Ġmaybe": 2017,
      "ift": 2018,
      "gest": 2019,
      "Ġwrong": 2020,
      "ĠObama": 2021,
      "Ġcoming": 2022,
      "ĠStates": 2023,
      "Ġstep": 2024,
      "ene": 2025,
      "though": 2026,
      "ully": 2027,
      "Ġindivid": 2028,
      "Ġfollowing": 2029,
      "Ġident": 2030,
      "Ġroom": 2031,
      "19": 2032,
      "Ġpain": 2033,
      "ĠChrist": 2034,
      "Ġprice": 2035,
      "ĠWor": 2036,
      "RE": 2037,
      "ule": 2038,
      "gt": 2039,
      "oice": 2040,
      "arget": 2041,
      "ission": 2042,
      "where": 2043,
      "Ġ50": 2044,
      "ination": 2045,
      "Ġspace": 2046,
      "Ġnear": 2047,
      "Ġtalk": 2048,
      "ging": 2049,
      "Ġanal": 2050,
      "12": 2051,
      "Ġmatter": 2052,
      "Ġviol": 2053,
      "ĠWhile": 2054,
      "ators": 2055,
      "Ġsense": 2056,
      "Ġdiff": 2057,
      "Ġcustom": 2058,
      "Ġcouple": 2059,
      "icult": 2060,
      "Ġworks": 2061,
      "Ġtre": 2062,
      "Ġquite": 2063,
      "Ġinvestig": 2064,
      "ĠState": 2065,
      "Ġface": 2066,
      "ald": 2067,
      "Ġhistory": 2068,
      "Ġ40": 2069,
      "dd": 2070,
      "ĠFl": 2071,
      "Ġinfl": 2072,
      "erc": 2073,
      "Ġdiscuss": 2074,
      "Ġfac": 2075,
      "Ġ14": 2076,
      "Ġfocus": 2077,
      "Ġparent": 2078,
      "ober": 2079,
      "Ġconcern": 2080,
      "Ġrisk": 2081,
      "ption": 2082,
      "Ġsum": 2083,
      "Ġseries": 2084,
      "Ġ2016": 2085,
      "of": 2086,
      "Ġjo": 2087,
      "Ġfoot": 2088,
      "Ġneeds": 2089,
      "Ġpick": 2090,
      "Ġsw": 2091,
      "ederal": 2092,
      "ĠNe": 2093,
      "Ġadded": 2094,
      "Ġindividual": 2095,
      "Ġbegin": 2096,
      "ery": 2097,
      "Ġtrack": 2098,
      "Ġfinanc": 2099,
      "ming": 2100,
      "Ġespecially": 2101,
      "go": 2102,
      "ĠCar": 2103,
      "15": 2104,
      "lease": 2105,
      "Ġneg": 2106,
      "Ġspecial": 2107,
      "Ġfront": 2108,
      "reme": 2109,
      "Ġask": 2110,
      "Ġrepl": 2111,
      "](": 2112,
      "Ġland": 2113,
      "Ġbehind": 2114,
      "reet": 2115,
      "ĠÂ": 2116,
      "ĠPol": 2117,
      ".)": 2118,
      "Ġannoun": 2119,
      "Ġtaken": 2120,
      "Ġdeath": 2121,
      "Ġrul": 2122,
      "Ġtrue": 2123,
      "ape": 2124,
      "ĠHouse": 2125,
      "Ġrecom": 2126,
      "par": 2127,
      "ai": 2128,
      "Ġlonger": 2129,
      "Ġrate": 2130,
      "Ġreported": 2131,
      "AT": 2132,
      "pro": 2133,
      "Ġpresent": 2134,
      "Ġoutside": 2135,
      "aut": 2136,
      "Ġposition": 2137,
      "Ġfall": 2138,
      ".,": 2139,
      "Ġgoal": 2140,
      "Ġgeneral": 2141,
      "IN": 2142,
      "ference": 2143,
      "ĠMin": 2144,
      "ĠDemocr": 2145,
      "Ġtyp": 2146,
      "Ġansw": 2147,
      "Ġenjoy": 2148,
      "Ġdou": 2149,
      "rest": 2150,
      "hers": 2151,
      "ffic": 2152,
      "Ġexact": 2153,
      "Ġ13": 2154,
      "ĠUniversity": 2155,
      "Ġrace": 2156,
      "Ġener": 2157,
      "Ġpull": 2158,
      "Ġhigher": 2159,
      "Ġminutes": 2160,
      "Ġsignific": 2161,
      "ently": 2162,
      "oes": 2163,
      "Ġkey": 2164,
      "ĠSec": 2165,
      "ively": 2166,
      "Ġblack": 2167,
      "ashing": 2168,
      "Ġservice": 2169,
      "rict": 2170,
      "ĠAlso": 2171,
      "Ġ17": 2172,
      "Ġmass": 2173,
      "ches": 2174,
      "In": 2175,
      "Ġprevious": 2176,
      "oid": 2177,
      "ĠCanad": 2178,
      "ĠSen": 2179,
      "asing": 2180,
      "aff": 2181,
      "ĠAmerica": 2182,
      "Ġinj": 2183,
      "yle": 2184,
      "Ġcomb": 2185,
      "Ġ2015": 2186,
      "Ġaff": 2187,
      "gth": 2188,
      "Ġ25": 2189,
      "Ġcompl": 2190,
      "Ġmot": 2191,
      "use": 2192,
      "Ġsix": 2193,
      "Ġer": 2194,
      "If": 2195,
      "Ġneeded": 2196,
      "Ġshare": 2197,
      "Ġconne": 2198,
      "fully": 2199,
      "leg": 2200,
      "ĠCent": 2201,
      "iod": 2202,
      "ĠFe": 2203,
      "ences": 2204,
      "Ġdifficult": 2205,
      "over": 2206,
      "Ġabove": 2207,
      "Ġexist": 2208,
      "ĠEng": 2209,
      "ĠInst": 2210,
      "Ġphys": 2211,
      "ĠSu": 2212,
      "ĠThese": 2213,
      "Ġtarget": 2214,
      "ilt": 2215,
      "Ġaren": 2216,
      "Ġpersonal": 2217,
      "ĠEd": 2218,
      "resent": 2219,
      "Ġfu": 2220,
      "Ġhowever": 2221,
      "Ġcult": 2222,
      "crib": 2223,
      "Ġcreate": 2224,
      "head": 2225,
      "Ġey": 2226,
      "tend": 2227,
      "Ġnorm": 2228,
      "like": 2229,
      "Ġdecision": 2230,
      "ief": 2231,
      "Ġsoon": 2232,
      "rug": 2233,
      "lt": 2234,
      "ibility": 2235,
      "ites": 2236,
      "ĠPe": 2237,
      "Ġnational": 2238,
      "Ġlost": 2239,
      "itting": 2240,
      "Ġbuilding": 2241,
      "Ġprofess": 2242,
      "Ġwebs": 2243,
      "Ġdam": 2244,
      "oogle": 2245,
      "Ġonline": 2246,
      "ðŁ": 2247,
      "body": 2248,
      "Ġrelationship": 2249,
      "Ġfield": 2250,
      "ring": 2251,
      "Ġsecurity": 2252,
      "oe": 2253,
      "ume": 2254,
      "Ġport": 2255,
      "now": 2256,
      "iver": 2257,
      "Ġpoints": 2258,
      "Ġenc": 2259,
      "Ġrecently": 2260,
      "Ġrecommend": 2261,
      "erman": 2262,
      "Ġattempt": 2263,
      "Ġsimply": 2264,
      "lier": 2265,
      "Ġenergy": 2266,
      "Ġchallen": 2267,
      "Ġexc": 2268,
      "viron": 2269,
      "umb": 2270,
      "Ġfurther": 2271,
      "Ġcomment": 2272,
      "Ġdiv": 2273,
      "Ġ2014": 2274,
      "lement": 2275,
      "oud": 2276,
      "ON": 2277,
      "Ġtem": 2278,
      "Ġsignificant": 2279,
      "Ġcoun": 2280,
      "ĠMe": 2281,
      "Ġtreat": 2282,
      "Ġcommon": 2283,
      "ĠCal": 2284,
      "Ġthinking": 2285,
      "Ġ+": 2286,
      "Ġprovide": 2287,
      "Ġlab": 2288,
      "Ġthemselves": 2289,
      "minist": 2290,
      "Ġhon": 2291,
      "Ġcontinue": 2292,
      "Ã©": 2293,
      "Ġvict": 2294,
      "ude": 2295,
      "lex": 2296,
      "ĠThen": 2297,
      "ault": 2298,
      "ners": 2299,
      "Ġpolicy": 2300,
      "Ġsaw": 2301,
      "Ġmeas": 2302,
      "Ġwouldn": 2303,
      "Ġinterview": 2304,
      "Ġargu": 2305,
      "Ġsituation": 2306,
      "Ġcourt": 2307,
      "Ġserious": 2308,
      "yn": 2309,
      "Ġgoes": 2310,
      "Ġfelt": 2311,
      "angu": 2312,
      "Ġmilitary": 2313,
      "ĠNorth": 2314,
      "Ġtried": 2315,
      "Ġdefinitely": 2316,
      "Ġforward": 2317,
      "rael": 2318,
      "Ġpubl": 2319,
      "ĠAb": 2320,
      "Ġquestions": 2321,
      "ĠApp": 2322,
      "Ġperiod": 2323,
      "ĠRes": 2324,
      "iddle": 2325,
      "ĠGo": 2326,
      "Ġtype": 2327,
      "Ġcontrib": 2328,
      "play": 2329,
      "ĠHis": 2330,
      "ĠWar": 2331,
      "Ġdefe": 2332,
      "Ġconv": 2333,
      "osp": 2334,
      "Ġthreat": 2335,
      "Ġliving": 2336,
      "Ġrespons": 2337,
      "Ġitself": 2338,
      "ung": 2339,
      "inton": 2340,
      "Ġlate": 2341,
      "Ġopportun": 2342,
      "ĠKe": 2343,
      "Ġsqu": 2344,
      "Ġcred": 2345,
      "Ġmoment": 2346,
      "duced": 2347,
      "Ġvol": 2348,
      "Ġusually": 2349,
      "Ġstore": 2350,
      "Ġrole": 2351,
      "Ġcheck": 2352,
      "Ġslow": 2353,
      "ĠCo": 2354,
      "witter": 2355,
      "Ġfilm": 2356,
      "Ġinit": 2357,
      "Ġgen": 2358,
      "ĠGu": 2359,
      "ĠBy": 2360,
      "ĠAf": 2361,
      "ĠAust": 2362,
      "iday": 2363,
      "Ġworked": 2364,
      "âĢĵ": 2365,
      "Ġfire": 2366,
      "Ġaccept": 2367,
      "Ġprotect": 2368,
      "ams": 2369,
      "ĠDr": 2370,
      "Ġtotal": 2371,
      "ips": 2372,
      "Ġimm": 2373,
      "Ġsus": 2374,
      "nes": 2375,
      "Ġindustry": 2376,
      "ĠJan": 2377,
      "Ġstri": 2378,
      "Ġthird": 2379,
      "af": 2380,
      "pite": 2381,
      "che": 2382,
      "ressed": 2383,
      "Ġcop": 2384,
      "Ġhy": 2385,
      "ades": 2386,
      "Ġgets": 2387,
      "AN": 2388,
      "Ġmusic": 2389,
      "Ġlower": 2390,
      "olution": 2391,
      "Ġfeat": 2392,
      "Ġincrease": 2393,
      "ana": 2394,
      "Ġoffice": 2395,
      "irt": 2396,
      "oring": 2397,
      "Ġleave": 2398,
      "sych": 2399,
      "Ġnecess": 2400,
      "medi": 2401,
      "off": 2402,
      "mb": 2403,
      "ogn": 2404,
      "Ġnice": 2405,
      "Ġcand": 2406,
      "ĠBrit": 2407,
      "Ġremember": 2408,
      "ĠWorld": 2409,
      "amed": 2410,
      "Ġeat": 2411,
      "Ġdevelopment": 2412,
      "Ġstat": 2413,
      "Ġmag": 2414,
      "Ġcurrently": 2415,
      "ĠDav": 2416,
      "Ġwrote": 2417,
      "itted": 2418,
      "istic": 2419,
      "Ġdead": 2420,
      "ĠCity": 2421,
      "vironment": 2422,
      "Ġwhite": 2423,
      "Ġplayer": 2424,
      "Ġsite": 2425,
      "Ġlooks": 2426,
      "Ġhuge": 2427,
      "ĠPart": 2428,
      "Ġwind": 2429,
      "Ġgirl": 2430,
      "He": 2431,
      "time": 2432,
      "Ġcharacter": 2433,
      "val": 2434,
      "Ġred": 2435,
      "ises": 2436,
      "ĠDep": 2437,
      "Ġphone": 2438,
      "ctor": 2439,
      "Ġaction": 2440,
      "Ġversion": 2441,
      "ĠIsrael": 2442,
      "hy": 2443,
      "IS": 2444,
      "Ġbelow": 2445,
      "ĠGe": 2446,
      "ager": 2447,
      "row": 2448,
      "ĠClinton": 2449,
      "Ġpack": 2450,
      "Ġsle": 2451,
      "\".": 2452,
      "Ġmention": 2453,
      "Ġexec": 2454,
      "fort": 2455,
      "attle": 2456,
      "Ġwoman": 2457,
      "Ġtakes": 2458,
      "Ġresults": 2459,
      "Ġinclude": 2460,
      "Ġfinal": 2461,
      "Ġstates": 2462,
      "Ġpie": 2463,
      "Ġproblems": 2464,
      "ĠEven": 2465,
      "omes": 2466,
      "Ġwond": 2467,
      "lish": 2468,
      "Ġways": 2469,
      "Ġaverage": 2470,
      "Ġfavor": 2471,
      "ĠWill": 2472,
      "Ġpotential": 2473,
      "ique": 2474,
      "hod": 2475,
      "25": 2476,
      "Ġchanges": 2477,
      "ĠNational": 2478,
      "aced": 2479,
      "Ġshows": 2480,
      "Ġoffer": 2481,
      "ĠMed": 2482,
      "arter": 2483,
      "Ġball": 2484,
      "eah": 2485,
      "Ġtalking": 2486,
      "Ġbill": 2487,
      "Ġ24": 2488,
      "Ġguy": 2489,
      "Ġstudents": 2490,
      "sec": 2491,
      "Ġbecame": 2492,
      "ĠChina": 2493,
      "Ġdocu": 2494,
      "ran": 2495,
      "Ġcontract": 2496,
      "aving": 2497,
      "Ġprogress": 2498,
      "ashington": 2499,
      "ularly": 2500,
      "lling": 2501,
      "Ġfinancial": 2502,
      "Ġhappy": 2503,
      "Ġparents": 2504,
      "Ġincome": 2505,
      "Ġdom": 2506,
      "200": 2507,
      "iple": 2508,
      "Ġadvice": 2509,
      "duct": 2510,
      "ĠFace": 2511,
      "Ġrights": 2512,
      "Ġdel": 2513,
      "rect": 2514,
      "Ġcir": 2515,
      "Ġpict": 2516,
      "ĠAss": 2517,
      "right": 2518,
      "St": 2519,
      "Ġreview": 2520,
      "Ġdest": 2521,
      "16": 2522,
      "Ġevidence": 2523,
      "asons": 2524,
      "ests": 2525,
      "Ġ2013": 2526,
      "aging": 2527,
      "ients": 2528,
      "ĠEn": 2529,
      "Ġcountries": 2530,
      "Ġbud": 2531,
      "ural": 2532,
      "ĠSouth": 2533,
      "Ġstatement": 2534,
      "Ġsimple": 2535,
      "ournal": 2536,
      "Ġtit": 2537,
      "amer": 2538,
      "reg": 2539,
      "Ġdrug": 2540,
      "Ġhimself": 2541,
      "osing": 2542,
      "Ġsold": 2543,
      "obal": 2544,
      "oon": 2545,
      "Ġones": 2546,
      "Ġgroups": 2547,
      "Ġaw": 2548,
      "Ġ)": 2549,
      "ĠAcc": 2550,
      "Ġinde": 2551,
      "irm": 2552,
      "Ġplaying": 2553,
      "Ġment": 2554,
      "Ġfederal": 2555,
      "onse": 2556,
      "atever": 2557,
      "ĠWashington": 2558,
      "Ġimprove": 2559,
      "Ġsurpr": 2560,
      "aily": 2561,
      "14": 2562,
      "ask": 2563,
      "Ġmiles": 2564,
      "ĠIntern": 2565,
      "Ġbegan": 2566,
      "pped": 2567,
      "Ġ2017": 2568,
      "Ġterm": 2569,
      "Ġbase": 2570,
      "Ġheart": 2571,
      "Ġleaders": 2572,
      "ying": 2573,
      "oke": 2574,
      "ees": 2575,
      "de": 2576,
      "ĠGoogle": 2577,
      "ĠHere": 2578,
      "ha": 2579,
      "Ġste": 2580,
      "Ġdecided": 2581,
      "Ġmis": 2582,
      "Ġ2012": 2583,
      "Ġlat": 2584,
      "Ġeduc": 2585,
      "ivil": 2586,
      "Ġkids": 2587,
      "Ġrout": 2588,
      "na": 2589,
      "Ġwords": 2590,
      "Ġdeter": 2591,
      "Ġreleased": 2592,
      "SA": 2593,
      "lim": 2594,
      "Ġlegal": 2595,
      "Ġloss": 2596,
      "Ġrepresent": 2597,
      "ĠBar": 2598,
      "iding": 2599,
      "Ġjud": 2600,
      "Ġgun": 2601,
      "haps": 2602,
      "Ġextra": 2603,
      "agement": 2604,
      "Ġmorning": 2605,
      "Ġstarting": 2606,
      "ached": 2607,
      "Ġwebsite": 2608,
      "Ġarticle": 2609,
      "rugg": 2610,
      "ĠCong": 2611,
      "ĠGerman": 2612,
      "IT": 2613,
      "ival": 2614,
      "Ġhot": 2615,
      "olute": 2616,
      "That": 2617,
      "Ġstrate": 2618,
      "Ġobs": 2619,
      "ĠFacebook": 2620,
      "izing": 2621,
      "overed": 2622,
      "Ġ198": 2623,
      "Ġanim": 2624,
      "Ġcannot": 2625,
      "Ġfair": 2626,
      "Ġperfect": 2627,
      "Ġcontent": 2628,
      "ĠPer": 2629,
      "bo": 2630,
      "Ġimpact": 2631,
      "Ġcard": 2632,
      "action": 2633,
      "arc": 2634,
      "Ġrad": 2635,
      "su": 2636,
      "Ġheard": 2637,
      "Ġroad": 2638,
      "Ġrespect": 2639,
      "Ġce": 2640,
      "Ġprim": 2641,
      "Ġep": 2642,
      "str": 2643,
      "Ġconsum": 2644,
      "Ġcompletely": 2645,
      "ples": 2646,
      "Ġhost": 2647,
      "bit": 2648,
      "Ġofficials": 2649,
      "mon": 2650,
      "hood": 2651,
      "ili": 2652,
      "ps": 2653,
      "AR": 2654,
      "ĠOct": 2655,
      "Ġservices": 2656,
      "Ġsoft": 2657,
      "raz": 2658,
      "Ġfit": 2659,
      "Ġpaid": 2660,
      "Ġwants": 2661,
      "Ġfine": 2662,
      "Ġsometimes": 2663,
      "Ġanswer": 2664,
      "ression": 2665,
      "ĠAny": 2666,
      "Ġpred": 2667,
      "Ġfunction": 2668,
      "Ġchance": 2669,
      "Ġrelease": 2670,
      "Ġterms": 2671,
      "Ġhappened": 2672,
      "Ġsort": 2673,
      "Ġaud": 2674,
      "Ġyes": 2675,
      "put": 2676,
      "load": 2677,
      "Ġground": 2678,
      "utions": 2679,
      "Ġlog": 2680,
      "ilities": 2681,
      "13": 2682,
      "Ġrequire": 2683,
      "Ġupd": 2684,
      "ĠMus": 2685,
      "Ġplayed": 2686,
      "Ġexactly": 2687,
      "ĠTwitter": 2688,
      "Ġadminist": 2689,
      "Ġgave": 2690,
      "Ġreading": 2691,
      "Ġheav": 2692,
      "Ġmid": 2693,
      "ĠMore": 2694,
      "Ġimmedi": 2695,
      "ires": 2696,
      "Ġcause": 2697,
      "Ġgrowth": 2698,
      "Ġsound": 2699,
      "Ġdecl": 2700,
      "ights": 2701,
      "Ġbillion": 2702,
      "Ġhop": 2703,
      "Ġdeep": 2704,
      "Ġlack": 2705,
      "Ġexpected": 2706,
      "Ġguys": 2707,
      "Ġruns": 2708,
      "BC": 2709,
      "Ġmov": 2710,
      "ny": 2711,
      "ouch": 2712,
      "ĠSm": 2713,
      "anger": 2714,
      "ocks": 2715,
      "Ġresponse": 2716,
      "Ġshoot": 2717,
      "Ġhaven": 2718,
      "Ġearlier": 2719,
      "Ġcandid": 2720,
      "Ġtravel": 2721,
      "Ġhear": 2722,
      "18": 2723,
      "Ġaddress": 2724,
      "hel": 2725,
      "Ġfeeling": 2726,
      "Ġcode": 2727,
      "Ġspeak": 2728,
      "Ġsize": 2729,
      "Ġbooks": 2730,
      "Ġapplic": 2731,
      "ibly": 2732,
      "Ġlif": 2733,
      "Ġmodel": 2734,
      "Ġcareer": 2735,
      "Ġcy": 2736,
      "**": 2737,
      "Ġoil": 2738,
      "Ġstock": 2739,
      "aul": 2740,
      "Ġpopular": 2741,
      "ĠSept": 2742,
      "Ġinvolved": 2743,
      "ĠNews": 2744,
      "Ġwife": 2745,
      "ĠSte": 2746,
      "Ġenvironment": 2747,
      "ĠWest": 2748,
      "Ġcapital": 2749,
      "Ġappear": 2750,
      "ĠMarch": 2751,
      "Ġprivate": 2752,
      "Ġcomput": 2753,
      "urd": 2754,
      "Ġdescrib": 2755,
      "Ġbox": 2756,
      "lam": 2757,
      "Ġdress": 2758,
      "17": 2759,
      "Ġstrugg": 2760,
      "Ġpers": 2761,
      "inks": 2762,
      "ĠWhite": 2763,
      "Ġpage": 2764,
      "atives": 2765,
      "Ġobject": 2766,
      "Ġheld": 2767,
      "Ġnatur": 2768,
      "Ġrelig": 2769,
      "Ġemail": 2770,
      "oor": 2771,
      "Ġinside": 2772,
      "Ġluck": 2773,
      "cy": 2774,
      "Ġquickly": 2775,
      "Ġnumbers": 2776,
      "Ġeconomic": 2777,
      "Ġregard": 2778,
      "ĠMich": 2779,
      "aterial": 2780,
      "Ġcash": 2781,
      "Ġcover": 2782,
      "rel": 2783,
      "key": 2784,
      "ĠEm": 2785,
      "Ġplans": 2786,
      "Ġtool": 2787,
      "chie": 2788,
      "iff": 2789,
      "....": 2790,
      "set": 2791,
      "ze": 2792,
      "Ġblock": 2793,
      "Ġexerc": 2794,
      "Ġmethod": 2795,
      "Ġvote": 2796,
      "What": 2797,
      "____": 2798,
      "Ġnearly": 2799,
      "Ġknew": 2800,
      "cast": 2801,
      "room": 2802,
      "ĠAug": 2803,
      "Ġforce": 2804,
      "Ġ<": 2805,
      "itten": 2806,
      "ecause": 2807,
      "ĠJune": 2808,
      "Ġspend": 2809,
      "Ġguess": 2810,
      "Ġur": 2811,
      "Ġspent": 2812,
      "Ġlangu": 2813,
      "ĠHar": 2814,
      "There": 2815,
      "Ġability": 2816,
      "Ġcreated": 2817,
      "Ġoriginal": 2818,
      "ST": 2819,
      "Ġrev": 2820,
      "Ġdoll": 2821,
      "Ġboy": 2822,
      "Ġshot": 2823,
      "60": 2824,
      "uary": 2825,
      "ĠApr": 2826,
      "ctions": 2827,
      "apan": 2828,
      "Ġrespond": 2829,
      "Ġmother": 2830,
      "Ġspeed": 2831,
      "ĠMond": 2832,
      "Ġcoll": 2833,
      "ese": 2834,
      "Ġdig": 2835,
      "Ġstren": 2836,
      "ky": 2837,
      "urt": 2838,
      "lled": 2839,
      "bor": 2840,
      "Ġlink": 2841,
      "Ġ{": 2842,
      "Ġled": 2843,
      "Ġsubject": 2844,
      "Ġtext": 2845,
      "ĠFriday": 2846,
      "ffe": 2847,
      "Ġsource": 2848,
      "ped": 2849,
      "Ġextreme": 2850,
      "Ġbi": 2851,
      "Ġreceived": 2852,
      "Ġelection": 2853,
      "Ġden": 2854,
      "reed": 2855,
      "urch": 2856,
      "Ġinteresting": 2857,
      "arily": 2858,
      "40": 2859,
      "Ġanti": 2860,
      "Ġtechnology": 2861,
      "iment": 2862,
      "Ġran": 2863,
      "Ġlives": 2864,
      "Ġemer": 2865,
      "ĠMost": 2866,
      "ĠCr": 2867,
      "Ġfat": 2868,
      "Ġcollect": 2869,
      "ĠJuly": 2870,
      "Ġdifference": 2871,
      "Ġscient": 2872,
      "Ġareas": 2873,
      "Ġjobs": 2874,
      "\",": 2875,
      "aching": 2876,
      "Ġbuilt": 2877,
      "Ġ@": 2878,
      "uth": 2879,
      "Ġcases": 2880,
      "Ġbott": 2881,
      "ĠGod": 2882,
      "Ġbehav": 2883,
      "Ġsearch": 2884,
      "Ġreve": 2885,
      "Ġsn": 2886,
      "iction": 2887,
      "ij": 2888,
      "ĠFirst": 2889,
      "Ġmatch": 2890,
      "Ġpsych": 2891,
      "icated": 2892,
      "Ġexperi": 2893,
      "Ġobvious": 2894,
      "Ġaffect": 2895,
      "Ġill": 2896,
      "unt": 2897,
      "Ġwhatever": 2898,
      "ĠPar": 2899,
      "Ġopin": 2900,
      "Ġpurch": 2901,
      "Ġtown": 2902,
      "Ġhands": 2903,
      "Ġturned": 2904,
      "ĠQu": 2905,
      "come": 2906,
      "ned": 2907,
      "Ġhor": 2908,
      "ledge": 2909,
      "Ġliter": 2910,
      "ĠYour": 2911,
      "Ġfix": 2912,
      "Ġevents": 2913,
      "==": 2914,
      "Ġfigure": 2915,
      "Ġâ": 2916,
      "ĠDepartment": 2917,
      "Ġadm": 2918,
      "Ġbudget": 2919,
      "uted": 2920,
      "Ġcollege": 2921,
      "ĠAccording": 2922,
      "Ġsen": 2923,
      "ĠAustral": 2924,
      "Ġpaper": 2925,
      "ĠSpe": 2926,
      "itution": 2927,
      "icro": 2928,
      "Ġassoci": 2929,
      "ĠEvery": 2930,
      "Ġeffort": 2931,
      "ĠMonday": 2932,
      "Ġchoo": 2933,
      "ĠThanks": 2934,
      "ĠRepublican": 2935,
      "Ġquality": 2936,
      "ĠDes": 2937,
      "ĠApril": 2938,
      "Ġavoid": 2939,
      "ological": 2940,
      "isc": 2941,
      "Ġclub": 2942,
      "ma": 2943,
      "Ġsepar": 2944,
      "pre": 2945,
      "Ġintro": 2946,
      "Ġperformance": 2947,
      "ĠAct": 2948,
      "Ġabsolute": 2949,
      "ession": 2950,
      "Ġmaterial": 2951,
      "ĠSyri": 2952,
      "Ġengine": 2953,
      "Ġcosts": 2954,
      "Ġprior": 2955,
      "ple": 2956,
      "Ġbank": 2957,
      "Ġusers": 2958,
      "Ġprote": 2959,
      "Ġachie": 2960,
      "ham": 2961,
      "aur": 2962,
      "Ġcontact": 2963,
      "Ġattention": 2964,
      "Ġclean": 2965,
      "Ġfem": 2966,
      "eter": 2967,
      "Ġcouldn": 2968,
      "ems": 2969,
      "ole": 2970,
      "Ġconvers": 2971,
      "Ġprep": 2972,
      "Ġdrop": 2973,
      "Ġtrade": 2974,
      "ĠSund": 2975,
      "Ġoption": 2976,
      "ĠCont": 2977,
      "uses": 2978,
      "ĠJapan": 2979,
      "Ġlooked": 2980,
      "Ġstaff": 2981,
      "Ġbroad": 2982,
      "Ġrent": 2983,
      "Ġproperty": 2984,
      "Ġnormal": 2985,
      "Ġord": 2986,
      "idered": 2987,
      "Ġtowards": 2988,
      "Ġ2011": 2989,
      "just": 2990,
      "Ġswe": 2991,
      "Ġsafe": 2992,
      "hold": 2993,
      "Ġrepe": 2994,
      "Ġalone": 2995,
      "Ġinflu": 2996,
      "Ġimag": 2997,
      "omb": 2998,
      "Ġestab": 2999,
      "ĠTues": 3000,
      "Ġgiving": 3001,
      "Ġdeg": 3002,
      "Ġvia": 3003,
      "ĠðŁ": 3004,
      "EN": 3005,
      "hern": 3006,
      "Ġess": 3007,
      "ĠAg": 3008,
      "Ġneigh": 3009,
      "ening": 3010,
      "Ġ21": 3011,
      "Ġallowed": 3012,
      "reci": 3013,
      "Ġcell": 3014,
      "ĠOf": 3015,
      "ellig": 3016,
      "Ġdeli": 3017,
      "entially": 3018,
      "apt": 3019,
      "wise": 3020,
      "ray": 3021,
      "Ġoptions": 3022,
      "Ġmeeting": 3023,
      "ishing": 3024,
      "Ġparticip": 3025,
      "Ġinternational": 3026,
      "usion": 3027,
      "Ġfear": 3028,
      "OR": 3029,
      "Ġrecogn": 3030,
      "Ġwide": 3031,
      "Ġannounced": 3032,
      "Ġlose": 3033,
      "ĠCongress": 3034,
      "Ġapproach": 3035,
      "pan": 3036,
      "down": 3037,
      "Ġcapt": 3038,
      "Ġclos": 3039,
      "more": 3040,
      "Ġ22": 3041,
      "Ġhelped": 3042,
      "ructure": 3043,
      "Ġpush": 3044,
      "Ġconsist": 3045,
      "ĠEl": 3046,
      "ero": 3047,
      "Ġbal": 3048,
      "ĠTuesday": 3049,
      "Ġnation": 3050,
      "azing": 3051,
      "Ġminim": 3052,
      "Ġexcept": 3053,
      "sc": 3054,
      "Ġconsidered": 3055,
      "Ġproducts": 3056,
      "ĠCor": 3057,
      "urance": 3058,
      "Ġplanning": 3059,
      "Ġready": 3060,
      "Ġparticular": 3061,
      "Ġcool": 3062,
      "Ġsounds": 3063,
      "order": 3064,
      "cul": 3065,
      "Ġsave": 3066,
      "Ġdate": 3067,
      "Ġsleep": 3068,
      "urning": 3069,
      "âĢĿ.": 3070,
      "ĠCalif": 3071,
      "ĠTH": 3072,
      "Ġ197": 3073,
      "Ġcivil": 3074,
      "okes": 3075,
      "rain": 3076,
      "ĠCount": 3077,
      "Ġreports": 3078,
      "isl": 3079,
      "Ġthous": 3080,
      "cer": 3081,
      "Ġgoals": 3082,
      "ĠDavid": 3083,
      "itiz": 3084,
      "ĠLike": 3085,
      "Ġglobal": 3086,
      "ĠCour": 3087,
      "ĠJanuary": 3088,
      "Ġfather": 3089,
      "Ġarri": 3090,
      "RA": 3091,
      "ety": 3092,
      "Ġdemand": 3093,
      "Ġmiddle": 3094,
      "ĠPal": 3095,
      "ker": 3096,
      "ĠGl": 3097,
      "ĠWhy": 3098,
      "Ġrange": 3099,
      "--------": 3100,
      "Ġearn": 3101,
      "ino": 3102,
      "aled": 3103,
      "ining": 3104,
      "ittee": 3105,
      "het": 3106,
      "ĠNove": 3107,
      "ĠAmericans": 3108,
      "Ġdoub": 3109,
      "Ġboard": 3110,
      "Ġeconomy": 3111,
      "Ġwrite": 3112,
      "Ġkilled": 3113,
      "ĠOther": 3114,
      "Ġtrust": 3115,
      "ĠFeb": 3116,
      "Ġmultiple": 3117,
      "ceed": 3118,
      "iring": 3119,
      "ĠSan": 3120,
      "Ġeasier": 3121,
      "ĠWed": 3122,
      "ened": 3123,
      "Ġbrain": 3124,
      "Ġrules": 3125,
      "yond": 3126,
      "lying": 3127,
      "Ġfans": 3128,
      "Ġvarious": 3129,
      "Ġincluded": 3130,
      "Ġ2010": 3131,
      "Ġworkers": 3132,
      "Ġmember": 3133,
      "ruction": 3134,
      "Ġcomments": 3135,
      "ĠSch": 3136,
      "ĠSeptember": 3137,
      "Ġsett": 3138,
      "osition": 3139,
      "Ġgrad": 3140,
      "ĠSunday": 3141,
      "ĠRussia": 3142,
      "ĠTV": 3143,
      "ĠChe": 3144,
      "atform": 3145,
      "Ġterror": 3146,
      "based": 3147,
      "Ġpublished": 3148,
      "Ġpractice": 3149,
      "oto": 3150,
      "Ġinvestment": 3151,
      "Ġhous": 3152,
      "Ġshop": 3153,
      "ication": 3154,
      "My": 3155,
      "Ġcross": 3156,
      "rom": 3157,
      "cil": 3158,
      "Ġson": 3159,
      "lev": 3160,
      "ãģ": 3161,
      "ĠLet": 3162,
      "Ġban": 3163,
      "wor": 3164,
      "Ġcomfort": 3165,
      "Ġlevels": 3166,
      "Ġmoving": 3167,
      "Ġfinally": 3168,
      "ĠGeor": 3169,
      "Ġ...": 3170,
      "Ġ23": 3171,
      "Ġforeign": 3172,
      "atory": 3173,
      "ĠChar": 3174,
      "Ġfell": 3175,
      "ĠFrom": 3176,
      "ĠCanada": 3177,
      "Ġopportunity": 3178,
      "ĠOctober": 3179,
      "Ġarrest": 3180,
      "Ġsched": 3181,
      "Ġdraw": 3182,
      "ĠUK": 3183,
      "Ġsubs": 3184,
      "Ġbiggest": 3185,
      "Ġstra": 3186,
      "Ġideas": 3187,
      "ĠNovember": 3188,
      "ification": 3189,
      "Ġpath": 3190,
      "pendent": 3191,
      "ĠFin": 3192,
      "Ġmedical": 3193,
      "Ġult": 3194,
      "Ġcorrect": 3195,
      "ED": 3196,
      "As": 3197,
      "ĠPost": 3198,
      "Ġpoor": 3199,
      "Ġwalk": 3200,
      "OT": 3201,
      "Ġvisit": 3202,
      "ĠThurs": 3203,
      "face": 3204,
      "Ġwhose": 3205,
      "ĠPaul": 3206,
      "ĠGood": 3207,
      "Ġinterested": 3208,
      "undred": 3209,
      "ĠTw": 3210,
      "Ġchanged": 3211,
      "Ġdirector": 3212,
      "Ġsummer": 3213,
      "Ġtable": 3214,
      "nesday": 3215,
      "rit": 3216,
      "Ġmovement": 3217,
      "imately": 3218,
      "Ġcertainly": 3219,
      "Ġgone": 3220,
      "utive": 3221,
      "Ġeasily": 3222,
      "bl": 3223,
      "Ġlay": 3224,
      "Ġweap": 3225,
      "Ġchoice": 3226,
      "alt": 3227,
      "hic": 3228,
      "iber": 3229,
      "Ġmaintain": 3230,
      "cial": 3231,
      "Ġmach": 3232,
      "vertise": 3233,
      "ĠHill": 3234,
      "Ġil": 3235,
      "Ġbrought": 3236,
      "Ġasking": 3237,
      "aud": 3238,
      "ĠCaliforn": 3239,
      "Ġexam": 3240,
      "Ġfill": 3241,
      "Ġge": 3242,
      "ĠAugust": 3243,
      "ael": 3244,
      "ett": 3245,
      "ĠThursday": 3246,
      "Ġresour": 3247,
      "Ġsecret": 3248,
      "ĠPre": 3249,
      "ĠWednesday": 3250,
      "Ġproduction": 3251,
      "Ġdog": 3252,
      "Ġsong": 3253,
      "ĠInt": 3254,
      "aries": 3255,
      "ables": 3256,
      "ping": 3257,
      "Ġspending": 3258,
      "unk": 3259,
      "Ġsales": 3260,
      "AL": 3261,
      "Ġ60": 3262,
      "Ġteams": 3263,
      "astic": 3264,
      "ares": 3265,
      "Ġwriting": 3266,
      "Ġrac": 3267,
      "Ġhonest": 3268,
      "ĠMark": 3269,
      "Ġbeaut": 3270,
      "ground": 3271,
      "aught": 3272,
      "Ġdetails": 3273,
      "light": 3274,
      "cember": 3275,
      "ysis": 3276,
      "Ġpurp": 3277,
      "Ġweeke": 3278,
      "erve": 3279,
      "iant": 3280,
      "ech": 3281,
      "Ġcarry": 3282,
      "Ġfeed": 3283,
      "Ġdro": 3284,
      "ym": 3285,
      "Ġnetwork": 3286,
      "Ġpopulation": 3287,
      "Ġshoes": 3288,
      "ĠGet": 3289,
      "ES": 3290,
      "Ġwait": 3291,
      "Ġrates": 3292,
      "Ġfeet": 3293,
      "band": 3294,
      "ension": 3295,
      "Ġtend": 3296,
      "Ġdrive": 3297,
      "Ġmostly": 3298,
      "ĠPeople": 3299,
      "oming": 3300,
      "Ġincreasing": 3301,
      "Ġredu": 3302,
      "tr": 3303,
      "Ġaccom": 3304,
      "enty": 3305,
      "Ġvictim": 3306,
      "Ġreasons": 3307,
      "Ġunf": 3308,
      "Ġcredit": 3309,
      "ĠCalifornia": 3310,
      "ĠAfric": 3311,
      "ĠRed": 3312,
      "ĠBlack": 3313,
      "rast": 3314,
      "Ġhelps": 3315,
      "Ġblood": 3316,
      "Ġmajority": 3317,
      "ĠSw": 3318,
      "ĠEuropean": 3319,
      "Ġsens": 3320,
      "aker": 3321,
      "ĠSatur": 3322,
      "sequ": 3323,
      "ĠHer": 3324,
      "Ġappreci": 3325,
      "lls": 3326,
      "Ġwritten": 3327,
      "Ġpositive": 3328,
      "Ġlanguage": 3329,
      "Ġemot": 3330,
      "iced": 3331,
      "IC": 3332,
      "Ġupon": 3333,
      "ani": 3334,
      "isions": 3335,
      "Ġeating": 3336,
      "Ġdebt": 3337,
      "ĠIslam": 3338,
      "Ġdepe": 3339,
      "Ġmessage": 3340,
      "Ġten": 3341,
      "Ġmax": 3342,
      "Ġnatural": 3343,
      "ĠSince": 3344,
      "Ġaddition": 3345,
      "Ġscience": 3346,
      "Ġprevent": 3347,
      "Ġbought": 3348,
      "Ġrelative": 3349,
      "Ġreach": 3350,
      "enced": 3351,
      "ĠCons": 3352,
      "Ġeventually": 3353,
      "ĠDecember": 3354,
      "Ġplatform": 3355,
      "uf": 3356,
      "Ġrequired": 3357,
      "Ġens": 3358,
      "force": 3359,
      "ĠMaybe": 3360,
      "estern": 3361,
      "Ġstudent": 3362,
      "itch": 3363,
      "Ġund": 3364,
      "Ġx": 3365,
      "?âĢĿ": 3366,
      "anced": 3367,
      "Ġoffe": 3368,
      "idge": 3369,
      "Ġseeing": 3370,
      "Ġactual": 3371,
      "Ġ}": 3372,
      "imin": 3373,
      "Ġadministration": 3374,
      "lebr": 3375,
      "icks": 3376,
      "ĠCourt": 3377,
      "Ġsexual": 3378,
      "Ġgrowing": 3379,
      "ĠPat": 3380,
      "ĠEar": 3381,
      "Ġimage": 3382,
      "Ġdaily": 3383,
      "Ġahead": 3384,
      "Ġjournal": 3385,
      "Ġconnect": 3386,
      "Ġfeatures": 3387,
      "Ġtrain": 3388,
      "ĠBritish": 3389,
      "Ġdiet": 3390,
      "Ġstraight": 3391,
      "vil": 3392,
      "22": 3393,
      "rences": 3394,
      "Ġstories": 3395,
      "Ġfunds": 3396,
      "Ġign": 3397,
      "Ġstandard": 3398,
      "Ġdespite": 3399,
      "ek": 3400,
      "oph": 3401,
      "ĠSaturday": 3402,
      "airs": 3403,
      "100": 3404,
      "Ġpaying": 3405,
      "Ġgives": 3406,
      "iam": 3407,
      "They": 3408,
      "Ġmob": 3409,
      "80": 3410,
      "ban": 3411,
      "Ġlear": 3412,
      "Ġdirectly": 3413,
      "ĠIS": 3414,
      "atter": 3415,
      "using": 3416,
      "Ġparticularly": 3417,
      "Ġhundred": 3418,
      "Ġimmediately": 3419,
      "Ġmoved": 3420,
      "Ġpen": 3421,
      "Ġamazing": 3422,
      "Ġhappens": 3423,
      "Ġmeant": 3424,
      "Ġmix": 3425,
      "Ġparts": 3426,
      "Ġforces": 3427,
      "99": 3428,
      "alled": 3429,
      "ups": 3430,
      "Ġ>": 3431,
      "Ġnote": 3432,
      "ĠWal": 3433,
      "Ġfeels": 3434,
      "ĠKore": 3435,
      "Ġalthough": 3436,
      "Ġbed": 3437,
      "Ġ:)": 3438,
      "ously": 3439,
      "Ġscreen": 3440,
      "Ġreality": 3441,
      "Ġlegisl": 3442,
      "ĠNet": 3443,
      "Ġphysical": 3444,
      "Ġdemon": 3445,
      "ĠRussian": 3446,
      "Ġaware": 3447,
      "Ġcompared": 3448,
      "Ġsociety": 3449,
      "idents": 3450,
      "ube": 3451,
      "Ġsystems": 3452,
      "ĠOur": 3453,
      "Ġcirc": 3454,
      "Ġended": 3455,
      "Ġsat": 3456,
      "orters": 3457,
      "Ġsurv": 3458,
      "lear": 3459,
      "Ġdocument": 3460,
      ");": 3461,
      "Ġround": 3462,
      "Ġwilling": 3463,
      "Ġplaces": 3464,
      "ÂŃ": 3465,
      "Ġbenefits": 3466,
      "Ġgas": 3467,
      "Ġwall": 3468,
      "Ġstrength": 3469,
      "Ġsaf": 3470,
      "iving": 3471,
      "Ġeducation": 3472,
      "ari": 3473,
      "Ġprices": 3474,
      "Ġmeaning": 3475,
      "ĠSim": 3476,
      "Ġsoftware": 3477,
      "Ġconcept": 3478,
      "Ġoverall": 3479,
      "Ġliber": 3480,
      "ux": 3481,
      "Ġsend": 3482,
      "Ġ27": 3483,
      "Ġpan": 3484,
      "Ġtouch": 3485,
      "Ġpiece": 3486,
      "Ġregul": 3487,
      "ĠTex": 3488,
      "Ġconserv": 3489,
      "Ġadditional": 3490,
      "lin": 3491,
      "Ġ2008": 3492,
      "orry": 3493,
      "ĠIndia": 3494,
      "Ġpus": 3495,
      "ĠPark": 3496,
      "Ġperhaps": 3497,
      "Ġregular": 3498,
      "ĠMon": 3499,
      "Ġ26": 3500,
      "Ġbeyond": 3501,
      "Ġautom": 3502,
      "Ġcritic": 3503,
      "aves": 3504,
      "ĠBecause": 3505,
      "ivity": 3506,
      "ipe": 3507,
      "Ġcitiz": 3508,
      "ĠAre": 3509,
      "add": 3510,
      "ondon": 3511,
      "field": 3512,
      "Ġleader": 3513,
      "igr": 3514,
      "ĠUp": 3515,
      "ĠKing": 3516,
      "Ġthroughout": 3517,
      "Ġuser": 3518,
      "ĠStreet": 3519,
      "Ġmodern": 3520,
      "mp": 3521,
      "24": 3522,
      "ĠRead": 3523,
      "Ġhistor": 3524,
      "OP": 3525,
      "Ġlatest": 3526,
      "Ġincreased": 3527,
      "AC": 3528,
      "ĠDis": 3529,
      "ĠMany": 3530,
      "coin": 3531,
      "Ġinn": 3532,
      "elligence": 3533,
      "Ġrelated": 3534,
      "Ġmist": 3535,
      "antly": 3536,
      "Ġknows": 3537,
      "athon": 3538,
      "Ġ\\": 3539,
      "Ġcalls": 3540,
      "ĠBen": 3541,
      "vest": 3542,
      "Ġple": 3543,
      "ico": 3544,
      "Ġmile": 3545,
      "Ġbeginning": 3546,
      "Ġquarter": 3547,
      "Ġassist": 3548,
      "abor": 3549,
      "owing": 3550,
      "][": 3551,
      "Ġtitle": 3552,
      "Ġpace": 3553,
      "Ġretire": 3554,
      "owd": 3555,
      "Ġalle": 3556,
      "itation": 3557,
      "Ġut": 3558,
      "Ġslight": 3559,
      "eth": 3560,
      "ĠApple": 3561,
      "Ġpressure": 3562,
      "ĠGener": 3563,
      "Ġchoose": 3564,
      "Ġstar": 3565,
      "ĠRec": 3566,
      "Ġeffects": 3567,
      "Ġmovie": 3568,
      "ext": 3569,
      "vey": 3570,
      "ruary": 3571,
      "Ġlearning": 3572,
      "inese": 3573,
      "Ġ28": 3574,
      "Ġsmart": 3575,
      "ĠSenate": 3576,
      "ĠAdd": 3577,
      "Ġreb": 3578,
      "Ġdanger": 3579,
      "Ġabsolutely": 3580,
      "irth": 3581,
      "500": 3582,
      "Ġculture": 3583,
      "Ġcelebr": 3584,
      "Ġbuying": 3585,
      "Ġbasically": 3586,
      "Ġclaims": 3587,
      "ĠJe": 3588,
      "Ġknowledge": 3589,
      "ĠJew": 3590,
      "kes": 3591,
      "iny": 3592,
      "Ġspread": 3593,
      "Ġremain": 3594,
      "ĠSer": 3595,
      "ĠYes": 3596,
      "Ġstress": 3597,
      "Ġshowed": 3598,
      "Ġencour": 3599,
      "Ġkept": 3600,
      "ospital": 3601,
      "Ġnecessary": 3602,
      "Ġweekend": 3603,
      "Ġleading": 3604,
      "Ġopinion": 3605,
      "venue": 3606,
      "Ġblog": 3607,
      "Ġfully": 3608,
      "Ġgenerally": 3609,
      "Ġcenter": 3610,
      "iful": 3611,
      "Ġprovided": 3612,
      "ĠRom": 3613,
      "ĠIran": 3614,
      "Ġconduct": 3615,
      "Ġcomplex": 3616,
      "Ġworse": 3617,
      "ĠTimes": 3618,
      "ĠLast": 3619,
      "rench": 3620,
      "ĠMor": 3621,
      "zz": 3622,
      "Ġdamage": 3623,
      "Ġband": 3624,
      "Ġmill": 3625,
      "ops": 3626,
      "Ġassum": 3627,
      "ĠLondon": 3628,
      "Ġdark": 3629,
      "ĠCenter": 3630,
      "ĠParty": 3631,
      "ĠCounty": 3632,
      "ĠOver": 3633,
      "gers": 3634,
      "Ġcorpor": 3635,
      "Ġadvant": 3636,
      "Ġfavorite": 3637,
      "Ġputting": 3638,
      "Ġlimited": 3639,
      "aches": 3640,
      "Ġrequest": 3641,
      "fl": 3642,
      "ĠSand": 3643,
      "Ġver": 3644,
      "lection": 3645,
      "Ġhighly": 3646,
      "Ġoccur": 3647,
      "?\"": 3648,
      "No": 3649,
      "Ġdescribed": 3650,
      "Ġinte": 3651,
      "ĠSoc": 3652,
      "Ġinvestigation": 3653,
      "Ġseven": 3654,
      "amb": 3655,
      "ĠThank": 3656,
      "Ġstyle": 3657,
      "Ġsubst": 3658,
      "aly": 3659,
      "Ġsil": 3660,
      "Ġaltern": 3661,
      "ĠFebruary": 3662,
      "Ġwonder": 3663,
      "Ġspl": 3664,
      "pir": 3665,
      "AS": 3666,
      "raq": 3667,
      "ĠMcC": 3668,
      "Ġ2009": 3669,
      "Ġsuccessful": 3670,
      "ĠBro": 3671,
      "Ġspot": 3672,
      "Ġrefer": 3673,
      "Ġcustomers": 3674,
      "ĠDonald": 3675,
      "Ġjump": 3676,
      "Ġbrother": 3677,
      "Ġvs": 3678,
      "istan": 3679,
      "rupt": 3680,
      "Ġvac": 3681,
      "OU": 3682,
      "Ġimplement": 3683,
      "ĠâĢ¦": 3684,
      "Ġdoor": 3685,
      "gar": 3686,
      "Ġemb": 3687,
      "Ġlearned": 3688,
      "Ġplease": 3689,
      "Ġincludes": 3690,
      "Ġhealthy": 3691,
      "mit": 3692,
      "23": 3693,
      "Ġaim": 3694,
      "Ġeight": 3695,
      "ĠPolice": 3696,
      "Ġattend": 3697,
      "ĠMuslim": 3698,
      "Ġclimate": 3699,
      "Ġsafety": 3700,
      "aling": 3701,
      "Ġpassed": 3702,
      "Ġviolence": 3703,
      "ĠMichael": 3704,
      "Ġexpensive": 3705,
      "ĠEast": 3706,
      "Ġfile": 3707,
      "ken": 3708,
      "Ġeyes": 3709,
      "Ġcolor": 3710,
      "hest": 3711,
      "Ġdied": 3712,
      "Ġmanager": 3713,
      "Ġcry": 3714,
      "inary": 3715,
      "Ġselect": 3716,
      "agon": 3717,
      "round": 3718,
      "Ġgrand": 3719,
      "Ġbrand": 3720,
      "Ġepis": 3721,
      "Ġrule": 3722,
      "ĠPlay": 3723,
      "ĠChinese": 3724,
      "Ġwear": 3725,
      "Ġcounter": 3726,
      "Ġnegative": 3727,
      "hib": 3728,
      "Ġworry": 3729,
      "ida": 3730,
      "Ġok": 3731,
      "Ġspokes": 3732,
      "akers": 3733,
      "Ġnature": 3734,
      "Ġattacks": 3735,
      "Ġrid": 3736,
      "ĠBu": 3737,
      "Ġdetail": 3738,
      "iers": 3739,
      "Ġthanks": 3740,
      "ĠIraq": 3741,
      "Ph": 3742,
      "itor": 3743,
      "Ġdistrib": 3744,
      "Ġcoach": 3745,
      "Ġlaws": 3746,
      "Ġsupposed": 3747,
      "chan": 3748,
      "So": 3749,
      "ĠJames": 3750,
      "ago": 3751,
      "Ġunless": 3752,
      "Ġafford": 3753,
      "Ġqual": 3754,
      "Ġdesigned": 3755,
      "oles": 3756,
      "Ġcopy": 3757,
      "OS": 3758,
      "aughter": 3759,
      "ĠOnce": 3760,
      "Ġcomputer": 3761,
      "Ġmental": 3762,
      "Ġbasic": 3763,
      "Ġcharge": 3764,
      "Ġtro": 3765,
      "Ġdefense": 3766,
      "ĠPhil": 3767,
      "Ġnamed": 3768,
      "Ġcamer": 3769,
      "Ġhair": 3770,
      "iles": 3771,
      "Ġprefer": 3772,
      "Ġcontinued": 3773,
      "Ġstudies": 3774,
      "Ġallows": 3775,
      "ĠWell": 3776,
      "ications": 3777,
      "men": 3778,
      "Ġrob": 3779,
      "Ġadult": 3780,
      "Ġhus": 3781,
      "Ġtoward": 3782,
      "Ġregion": 3783,
      "Ġswit": 3784,
      "ĠBill": 3785,
      "Ġthousands": 3786,
      "Ġprojects": 3787,
      "ĠJack": 3788,
      "Ġbenefit": 3789,
      "Ġcat": 3790,
      "resh": 3791,
      "Ġfrequ": 3792,
      "Ġwish": 3793,
      "ĠTexas": 3794,
      "ĠSuper": 3795,
      "adem": 3796,
      "Ġconditions": 3797,
      "Ġattract": 3798,
      "Ġstage": 3799,
      "owers": 3800,
      "Ġefforts": 3801,
      "oul": 3802,
      "ufact": 3803,
      "ilies": 3804,
      "uclear": 3805,
      "Ġgold": 3806,
      "bed": 3807,
      "Ġanalysis": 3808,
      "Ġshit": 3809,
      "vertisement": 3810,
      "agn": 3811,
      "Ġtaxes": 3812,
      "Ġfinding": 3813,
      "Ġprison": 3814,
      "Ġrare": 3815,
      "ortunately": 3816,
      "Ġremains": 3817,
      "ĠDay": 3818,
      "Ġlarger": 3819,
      "ocked": 3820,
      "ĠEnglish": 3821,
      "pping": 3822,
      "Ġprec": 3823,
      "Ġreceive": 3824,
      "ĠOff": 3825,
      "aby": 3826,
      "Ġadding": 3827,
      "Ġextremely": 3828,
      "Ġclearly": 3829,
      "Ġofficers": 3830,
      "ĠCoun": 3831,
      "Ġfirm": 3832,
      "Ġdream": 3833,
      "arian": 3834,
      "ĠUs": 3835,
      "45": 3836,
      "ĠVal": 3837,
      "asc": 3838,
      "Ġstrategy": 3839,
      "omen": 3840,
      "Ġlic": 3841,
      "Ġhate": 3842,
      "rs": 3843,
      "Ġeye": 3844,
      "ĠÐ": 3845,
      "Ġinsurance": 3846,
      "Ġtraditional": 3847,
      "ĠRepublicans": 3848,
      "ĠÃ": 3849,
      "Ġ90": 3850,
      "Ġscene": 3851,
      "ĠRE": 3852,
      "ID": 3853,
      "riage": 3854,
      "ĠAlthough": 3855,
      "Ġscore": 3856,
      "ĠTur": 3857,
      "ateg": 3858,
      "OM": 3859,
      "Ġpicture": 3860,
      "Ġagency": 3861,
      "ĠRo": 3862,
      "rie": 3863,
      "Ġprint": 3864,
      "Ġfailed": 3865,
      "verse": 3866,
      "Ġheavy": 3867,
      "IL": 3868,
      "Ġletter": 3869,
      "Ġmentioned": 3870,
      "Ġrock": 3871,
      "term": 3872,
      "Ġarch": 3873,
      "encies": 3874,
      "Ġ80": 3875,
      "Ġproduc": 3876,
      "ropri": 3877,
      "ĠRich": 3878,
      "uk": 3879,
      "pper": 3880,
      "Ġstret": 3881,
      "ĠGreen": 3882,
      "Ġanaly": 3883,
      "icking": 3884,
      "Ġlaunch": 3885,
      "Ġunique": 3886,
      "ĠIndian": 3887,
      "oved": 3888,
      "azon": 3889,
      "Ġvari": 3890,
      "isis": 3891,
      "cript": 3892,
      "Ġposted": 3893,
      "aint": 3894,
      "Ġprem": 3895,
      "ara": 3896,
      "enses": 3897,
      "Ġspeech": 3898,
      "riend": 3899,
      "ĠOh": 3900,
      "Ġorigin": 3901,
      "ĠBel": 3902,
      "how": 3903,
      "orrow": 3904,
      "Ġsuspect": 3905,
      "ĠAir": 3906,
      "Ġmarried": 3907,
      "rief": 3908,
      "Ġtrou": 3909,
      "Ġbeat": 3910,
      "Ġfootball": 3911,
      "itute": 3912,
      "la": 3913,
      "Ġprograms": 3914,
      "Ġuses": 3915,
      "Ġforced": 3916,
      "Ġcrowd": 3917,
      "Ġnotice": 3918,
      "Ġmanagement": 3919,
      "Ġchief": 3920,
      "Ġcast": 3921,
      "Ġmotiv": 3922,
      "roy": 3923,
      "Ġresources": 3924,
      "Ġfollowed": 3925,
      "ĠDemocratic": 3926,
      "Ġnarr": 3927,
      "FL": 3928,
      "Ġkid": 3929,
      "esome": 3930,
      "Ġtour": 3931,
      "Ġseemed": 3932,
      "Ġir": 3933,
      "icit": 3934,
      "Ġlots": 3935,
      "Ġmeasure": 3936,
      "which": 3937,
      "ram": 3938,
      "while": 3939,
      "anch": 3940,
      "ĠLeague": 3941,
      "board": 3942,
      "Ġscen": 3943,
      "Ġestim": 3944,
      "Ġlines": 3945,
      "Ġfan": 3946,
      "Ġesc": 3947,
      "Ġselling": 3948,
      "Ġpredict": 3949,
      "Ġload": 3950,
      "ston": 3951,
      "orter": 3952,
      "Ġcars": 3953,
      "Ġlol": 3954,
      "Ġskills": 3955,
      "Ġexercise": 3956,
      "Ġcharacters": 3957,
      "Ġcards": 3958,
      "Ġpromot": 3959,
      "Ġappears": 3960,
      "Ġbattle": 3961,
      "ĠHigh": 3962,
      "Ġsolid": 3963,
      "Ġincred": 3964,
      "Ġtruth": 3965,
      "Ġschools": 3966,
      "Ġchallenge": 3967,
      "Ġweb": 3968,
      "Ġresearc": 3969,
      "Ġlimit": 3970,
      "Ġsuff": 3971,
      "Ġtwe": 3972,
      "Ġactivity": 3973,
      "Ġprofessional": 3974,
      "ancy": 3975,
      "ĠStar": 3976,
      "ING": 3977,
      "ĠAnother": 3978,
      "Ġorganization": 3979,
      "Ġpartner": 3980,
      "iminal": 3981,
      "Ġcities": 3982,
      "Ġvoters": 3983,
      "Ġphotos": 3984,
      "Ġolder": 3985,
      "ĠII": 3986,
      "change": 3987,
      "Ġdollars": 3988,
      "Ġnut": 3989,
      "Ġshown": 3990,
      "Ġreligious": 3991,
      "oses": 3992,
      "Ġowners": 3993,
      "Ġfamilies": 3994,
      "ĠRober": 3995,
      "mar": 3996,
      "ford": 3997,
      "Ġunderstanding": 3998,
      "Ġtreatment": 3999,
      "Ġbehavior": 4000,
      "ength": 4001,
      "35": 4002,
      "Ġconfl": 4003,
      "Ġdebate": 4004,
      "Ġ29": 4005,
      "ĠMart": 4006,
      "ports": 4007,
      "Ġstick": 4008,
      "aming": 4009,
      "andom": 4010,
      "Ġtelling": 4011,
      "Ġarm": 4012,
      "Ġleaving": 4013,
      "Ġdire": 4014,
      "Ġbur": 4015,
      "Ġphotograp": 4016,
      "Ġgain": 4017,
      "Ġchec": 4018,
      "Ġhusband": 4019,
      "wood": 4020,
      "Ġfaster": 4021,
      "Ġdise": 4022,
      "ales": 4023,
      "Ġdecades": 4024,
      "icate": 4025,
      "outs": 4026,
      "Ġthank": 4027,
      "ĠAnge": 4028,
      "Ġdevice": 4029,
      "cribe": 4030,
      "Ġfeature": 4031,
      "ĠSci": 4032,
      "Ġmanufact": 4033,
      "Ġapparent": 4034,
      "Ġ(@": 4035,
      "Ġdeveloped": 4036,
      "Ġpowerful": 4037,
      "oti": 4038,
      "Ġdisp": 4039,
      "Ġsigned": 4040,
      "Ġitems": 4041,
      "Ġdegree": 4042,
      "Ġmort": 4043,
      "Ġpair": 4044,
      "Ġsmaller": 4045,
      "ga": 4046,
      "ĠCap": 4047,
      "Ġactions": 4048,
      "oms": 4049,
      "za": 4050,
      "ĠFrench": 4051,
      "Ġsav": 4052,
      "ĠÂ£": 4053,
      "Ġemployees": 4054,
      "21": 4055,
      "Ġminor": 4056,
      "what": 4057,
      "Ġofficer": 4058,
      "ĠTor": 4059,
      "Ġprimary": 4060,
      "Is": 4061,
      "And": 4062,
      "Ġachieve": 4063,
      "ception": 4064,
      "AM": 4065,
      "Ġfreed": 4066,
      "ĠDemocrats": 4067,
      "ĠReg": 4068,
      "Ġexplain": 4069,
      "Ġexpand": 4070,
      "EO": 4071,
      "ĠAssoci": 4072,
      "Ġtraffic": 4073,
      "Ġpeace": 4074,
      "ooking": 4075,
      "no": 4076,
      "Ġbirth": 4077,
      "ĠMinister": 4078,
      "iven": 4079,
      "ĠTod": 4080,
      "How": 4081,
      "berg": 4082,
      "Ġnom": 4083,
      "Ġlargest": 4084,
      "inner": 4085,
      "Ġilleg": 4086,
      "Ġsolution": 4087,
      "Ġbeautiful": 4088,
      "ampions": 4089,
      "ĠServ": 4090,
      "Ġreplace": 4091,
      "acing": 4092,
      "ĠBo": 4093,
      "box": 4094,
      "27": 4095,
      "sp": 4096,
      "vere": 4097,
      "Ġkeeping": 4098,
      "ĠWind": 4099,
      "Ġcore": 4100,
      "itude": 4101,
      "Ġton": 4102,
      "orney": 4103,
      "Ġmassive": 4104,
      "Ġindividuals": 4105,
      "ĠTom": 4106,
      "ifying": 4107,
      "Ġwatching": 4108,
      "ĠDef": 4109,
      "Ġcommand": 4110,
      "):": 4111,
      "AP": 4112,
      "Ġshut": 4113,
      "Ġcold": 4114,
      "Ġpros": 4115,
      "new": 4116,
      "Ġcalling": 4117,
      "onna": 4118,
      "Ġtim": 4119,
      "Ġnames": 4120,
      "Ġsources": 4121,
      "Ġcreating": 4122,
      "asy": 4123,
      "Ġdecide": 4124,
      "Ġcheap": 4125,
      "Ġgreater": 4126,
      "pective": 4127,
      "Ġsuc": 4128,
      "ĠâĢ¢": 4129,
      "Ġgreen": 4130,
      "But": 4131,
      "razy": 4132,
      "ĠAM": 4133,
      "ĠRob": 4134,
      "ags": 4135,
      "olic": 4136,
      "Ġrap": 4137,
      "Ġded": 4138,
      "Ġcentury": 4139,
      "Ġcaused": 4140,
      "Ch": 4141,
      "Ġhang": 4142,
      "Ġacqu": 4143,
      "Ġsenior": 4144,
      "OL": 4145,
      "Ġfant": 4146,
      "ĠMex": 4147,
      "ĠAustralia": 4148,
      "ĠMet": 4149,
      "Ġliterally": 4150,
      "ĠDuring": 4151,
      "Ġtruly": 4152,
      "Ġinternet": 4153,
      "overy": 4154,
      "Ġbottom": 4155,
      "Ġreflect": 4156,
      "ET": 4157,
      "Ġeffic": 4158,
      "Ġconflict": 4159,
      "Ġmine": 4160,
      "ĠPlease": 4161,
      "Ġthoughts": 4162,
      "Ġdisplay": 4163,
      "Ġmarathon": 4164,
      "gency": 4165,
      "Ġfemale": 4166,
      "Ġcandidate": 4167,
      "AD": 4168,
      "rible": 4169,
      "Ġbond": 4170,
      "Ġnuclear": 4171,
      "Ġeffective": 4172,
      "Ġtotally": 4173,
      "Ġuseful": 4174,
      "Ġalleged": 4175,
      "For": 4176,
      "Ġcrisis": 4177,
      "ustr": 4178,
      "Ġconfir": 4179,
      "Ġrat": 4180,
      "Ġdistance": 4181,
      "Ġholding": 4182,
      "Ġplant": 4183,
      "Ġbalance": 4184,
      "Ġtypes": 4185,
      "Ġdouble": 4186,
      "part": 4187,
      "Ġreached": 4188,
      "Ġworst": 4189,
      "yan": 4190,
      "mark": 4191,
      "Ġcentral": 4192,
      "Ġhurt": 4193,
      "Ġadvantage": 4194,
      "US": 4195,
      "Ġactive": 4196,
      "cription": 4197,
      "Ġpreviously": 4198,
      "Ġcitizens": 4199,
      "but": 4200,
      "Ġaccounts": 4201,
      "Ġleague": 4202,
      "ties": 4203,
      "ĠGreat": 4204,
      "iance": 4205,
      "Ġdemonstr": 4206,
      "Ġdefend": 4207,
      "itness": 4208,
      "bur": 4209,
      "rav": 4210,
      "When": 4211,
      "Ġpurpose": 4212,
      "Ġpoll": 4213,
      "IA": 4214,
      "ĠGovern": 4215,
      "craft": 4216,
      "Ġoffered": 4217,
      "ĠAnt": 4218,
      "Ġspir": 4219,
      "26": 4220,
      "Ġconference": 4221,
      "ĠEU": 4222,
      "Ġbusinesses": 4223,
      "Ġconcerns": 4224,
      "Ġcommer": 4225,
      "Ġrise": 4226,
      "ĠFlor": 4227,
      "ki": 4228,
      "erved": 4229,
      "Ġwat": 4230,
      "Ġpolitics": 4231,
      "ĠBer": 4232,
      "uel": 4233,
      "ev": 4234,
      "ĠThose": 4235,
      "Ġmount": 4236,
      "Ġpun": 4237,
      "Ġfloor": 4238,
      "Ġexecutive": 4239,
      "ĠMo": 4240,
      "Ġmechan": 4241,
      "ĠBre": 4242,
      "Ġprofit": 4243,
      "Ġoccas": 4244,
      "Ġwealth": 4245,
      "cing": 4246,
      "ĠAP": 4247,
      "Ġcrime": 4248,
      "nown": 4249,
      "tt": 4250,
      "Ġinjury": 4251,
      "Ġbecomes": 4252,
      "igration": 4253,
      "Ġcomfortable": 4254,
      "ls": 4255,
      "Ġbasis": 4256,
      "Ġbigger": 4257,
      "Ġshowing": 4258,
      "Ġremind": 4259,
      "ĠGermany": 4260,
      "inger": 4261,
      "ĠLa": 4262,
      "do": 4263,
      "Ġfa": 4264,
      "ĠInternational": 4265,
      "EC": 4266,
      "Ġunc": 4267,
      "ĠSchool": 4268,
      "ĠThom": 4269,
      "Ġreduce": 4270,
      "ĠSmith": 4271,
      "ĠGold": 4272,
      "cell": 4273,
      "ĠSyria": 4274,
      "BI": 4275,
      "Ġdoubt": 4276,
      "Ġcontinues": 4277,
      "bon": 4278,
      "bum": 4279,
      "Ġcommit": 4280,
      "Ġven": 4281,
      "Ġ196": 4282,
      "mm": 4283,
      "aph": 4284,
      "Ġstreet": 4285,
      "see": 4286,
      "Ġintegr": 4287,
      "ĠMac": 4288,
      "29": 4289,
      "ĠJer": 4290,
      "ville": 4291,
      "70": 4292,
      "Ġwild": 4293,
      "atically": 4294,
      "Ġadjust": 4295,
      "Ġimagine": 4296,
      "Ġ70": 4297,
      "Don": 4298,
      "Ġstatus": 4299,
      "Ġrough": 4300,
      "Ġvoice": 4301,
      "Ġcondition": 4302,
      "Ġvirt": 4303,
      "Ġwaiting": 4304,
      "Ġimpl": 4305,
      "Ġonto": 4306,
      "Ġteac": 4307,
      "dom": 4308,
      "ĠTwo": 4309,
      "Ġvalues": 4310,
      "ĠFranc": 4311,
      "Ġpattern": 4312,
      "Ġtrail": 4313,
      "Yes": 4314,
      "ĠInstead": 4315,
      "Ġhospital": 4316,
      "Ġ35": 4317,
      "Ġpresidential": 4318,
      "ios": 4319,
      "ĠTrans": 4320,
      "Yeah": 4321,
      "Ġintelligence": 4322,
      "Ġclot": 4323,
      "ĠArt": 4324,
      "ĠGeorge": 4325,
      "ĠAut": 4326,
      "Ġseparate": 4327,
      "Ġlawy": 4328,
      "gen": 4329,
      "uty": 4330,
      "arant": 4331,
      "ĠEarth": 4332,
      "Ġsection": 4333,
      "Ġmarriage": 4334,
      "well": 4335,
      "Ġotherwise": 4336,
      "ĠAdvertisement": 4337,
      "ĠPM": 4338,
      "Ġ;": 4339,
      "ĠChristian": 4340,
      "Ġbul": 4341,
      "Ġlocation": 4342,
      "Ġslightly": 4343,
      "Ġblue": 4344,
      "ĠHam": 4345,
      "ĠGeneral": 4346,
      "Ġnoted": 4347,
      "Ġstation": 4348,
      "Ġstopped": 4349,
      "uries": 4350,
      "roid": 4351,
      "ĠChic": 4352,
      "Ġsun": 4353,
      "ĠStud": 4354,
      "Ġappeared": 4355,
      "ĠBrown": 4356,
      "Ġjudge": 4357,
      "onents": 4358,
      "Ġdrink": 4359,
      "Ġfighting": 4360,
      "Ġrestrict": 4361,
      "Ġtough": 4362,
      "uct": 4363,
      "Ġneighbor": 4364,
      "Ġraised": 4365,
      "ĠSee": 4366,
      "aked": 4367,
      "Ġphoto": 4368,
      "Ġfinish": 4369,
      "ota": 4370,
      "etic": 4371,
      "ooks": 4372,
      "ĠSomet": 4373,
      "roll": 4374,
      "Ġstream": 4375,
      "Ġmissing": 4376,
      "Ġstocks": 4377,
      "ĠInternet": 4378,
      "alse": 4379,
      "Ġmale": 4380,
      "iled": 4381,
      "Ġtick": 4382,
      "Ġhousing": 4383,
      "Ġorganiz": 4384,
      "Ġfunding": 4385,
      "Ġdie": 4386,
      "Ġlosing": 4387,
      "ĠLaw": 4388,
      "Ġweapons": 4389,
      "âĢĿ,": 4390,
      "Ġplus": 4391,
      "Ġaspect": 4392,
      "Ġbull": 4393,
      "mine": 4394,
      "ĠOp": 4395,
      "Re": 4396,
      "Ġconversation": 4397,
      "Ġhar": 4398,
      "Ġtrip": 4399,
      "28": 4400,
      "obby": 4401,
      "EL": 4402,
      "ado": 4403,
      "yl": 4404,
      "Ġensure": 4405,
      "Ġinitial": 4406,
      "istry": 4407,
      "Ġminute": 4408,
      "onent": 4409,
      "Ġscale": 4410,
      "iqu": 4411,
      "Ġplenty": 4412,
      "ĠAmazon": 4413,
      "Ġeth": 4414,
      "Ġrealize": 4415,
      "ĠAlex": 4416,
      "Ġdetermin": 4417,
      "Ġenter": 4418,
      "ront": 4419,
      "ĠArab": 4420,
      "ica": 4421,
      "Ġresist": 4422,
      "ĠBit": 4423,
      "Ġentirely": 4424,
      "Ġoffers": 4425,
      "ĠInc": 4426,
      "ĠFollow": 4427,
      "ĠMod": 4428,
      "ĠScott": 4429,
      "eed": 4430,
      "Ġperm": 4431,
      "ĠUnion": 4432,
      "Ġice": 4433,
      "ĠBig": 4434,
      "Ġtheory": 4435,
      "Ġbecoming": 4436,
      "Ġcontext": 4437,
      "Ġdigital": 4438,
      "Ġrestaur": 4439,
      "vin": 4440,
      "sey": 4441,
      "Ġwalking": 4442,
      "Ġdriving": 4443,
      "Ġshooting": 4444,
      "Ġjoin": 4445,
      "ĠFlorida": 4446,
      "Ġreform": 4447,
      "Ġpersonally": 4448,
      "90": 4449,
      "Ġsetting": 4450,
      "ĠChicago": 4451,
      "ossible": 4452,
      "Ġincident": 4453,
      "Ġfresh": 4454,
      "Ġdirection": 4455,
      "Ġestabl": 4456,
      "ario": 4457,
      "Ġlaun": 4458,
      "wide": 4459,
      "Ġraise": 4460,
      "Ġcrazy": 4461,
      "Ġnegoti": 4462,
      "Ġapplication": 4463,
      "Ġgym": 4464,
      "Ġmemory": 4465,
      "Ġpark": 4466,
      "Ġparties": 4467,
      "Ġinvesting": 4468,
      "ĠOP": 4469,
      "bing": 4470,
      "Ġsmo": 4471,
      "ĠCouncil": 4472,
      "Ġpatients": 4473,
      "ato": 4474,
      "hem": 4475,
      "Ġpartners": 4476,
      "Ġbare": 4477,
      "Ġdraft": 4478,
      "Ġdecisions": 4479,
      "Ġopening": 4480,
      "Ġproduce": 4481,
      "Ġadop": 4482,
      "ĠEngland": 4483,
      "ĠPort": 4484,
      "osh": 4485,
      "Ġagreement": 4486,
      "ona": 4487,
      "ĠBay": 4488,
      "earch": 4489,
      "ading": 4490,
      "ĠHealth": 4491,
      "Ġ2007": 4492,
      "Ġfinished": 4493,
      "Ġarg": 4494,
      "Ġpolicies": 4495,
      "igned": 4496,
      "Ġmachine": 4497,
      "Ġprovides": 4498,
      "point": 4499,
      "Ġnotes": 4500,
      "Ġshouldn": 4501,
      "inated": 4502,
      "Ġfocused": 4503,
      "ĠStep": 4504,
      "alk": 4505,
      "ĠBoth": 4506,
      "Ġaccur": 4507,
      "Ġsteps": 4508,
      "Ġwel": 4509,
      "Ġsets": 4510,
      "Ġ45": 4511,
      "Ġcompar": 4512,
      "Ġargument": 4513,
      "Ġframe": 4514,
      "Ġtransfer": 4515,
      "ords": 4516,
      "ĠCur": 4517,
      "Ġharm": 4518,
      "Ġcharges": 4519,
      "iliar": 4520,
      "Ġcriminal": 4521,
      "Ġbrief": 4522,
      "Ġenem": 4523,
      "ĠSun": 4524,
      "Ġbreat": 4525,
      "Ġclaimed": 4526,
      "Ġhighest": 4527,
      "Ġwindow": 4528,
      "uman": 4529,
      "Ġawesome": 4530,
      "Ġresponsible": 4531,
      "udd": 4532,
      "vant": 4533,
      "Ġcompetition": 4534,
      "Ġtools": 4535,
      "usive": 4536,
      "33": 4537,
      "Ġalbum": 4538,
      "soft": 4539,
      "Ġtemper": 4540,
      "oly": 4541,
      "Ġtrial": 4542,
      "Ġbeg": 4543,
      "Ġunlike": 4544,
      "Ġcere": 4545,
      "Ġtherap": 4546,
      "Ġstarts": 4547,
      "Ġrequires": 4548,
      "rol": 4549,
      "BA": 4550,
      "vention": 4551,
      "Ġrandom": 4552,
      "Ġresearchers": 4553,
      "Ġcatch": 4554,
      "Ġconcerned": 4555,
      "ĠTHE": 4556,
      "Not": 4557,
      "cious": 4558,
      "Ġgirls": 4559,
      "ipping": 4560,
      "Ġinstall": 4561,
      "Ġcritical": 4562,
      "pm": 4563,
      "Ġskin": 4564,
      "Ġship": 4565,
      "âĢľ": 4566,
      "levision": 4567,
      "Ġconsidering": 4568,
      "ĠSub": 4569,
      "Ġweird": 4570,
      "Ġindependent": 4571,
      "Ġinfluence": 4572,
      "Ġagreed": 4573,
      "Ġfreedom": 4574,
      "terday": 4575,
      "Ġhasn": 4576,
      "Thanks": 4577,
      "Ġmarketing": 4578,
      "ya": 4579,
      "ĠMicro": 4580,
      "Ġchem": 4581,
      "Ġrelatively": 4582,
      "Ġpropos": 4583,
      "know": 4584,
      "Ġspecifically": 4585,
      "ended": 4586,
      "hicle": 4587,
      "Ġmer": 4588,
      "ĠSam": 4589,
      "lied": 4590,
      "oices": 4591,
      "Ġopened": 4592,
      "ta": 4593,
      "Ġcateg": 4594,
      "icip": 4595,
      "ĠRel": 4596,
      "Ġactivities": 4597,
      "ss": 4598,
      "ĠMil": 4599,
      "Ġthus": 4600,
      "Ġrecords": 4601,
      "rem": 4602,
      "Ġsites": 4603,
      "Ġtast": 4604,
      "Ġassociated": 4605,
      "Ġretirement": 4606,
      "Ġfol": 4607,
      "Ġsitting": 4608,
      "Ġgar": 4609,
      "acks": 4610,
      "izes": 4611,
      "Ġtwice": 4612,
      "ĠFrance": 4613,
      "uana": 4614,
      "PS": 4615,
      "Ġcloser": 4616,
      "Ġexisting": 4617,
      "cher": 4618,
      "Ġlength": 4619,
      "Ġobviously": 4620,
      "Ġapply": 4621,
      "Ġtight": 4622,
      "Ġdecade": 4623,
      "Ġshared": 4624,
      "coming": 4625,
      "Ġhelping": 4626,
      "ugg": 4627,
      "ĠUnder": 4628,
      "ĠHillary": 4629,
      "Ġgonna": 4630,
      "Ġexcited": 4631,
      "Ġkick": 4632,
      "Ġroutine": 4633,
      "Ġforget": 4634,
      "Ġimages": 4635,
      "pet": 4636,
      "ĠTheir": 4637,
      "Ġstre": 4638,
      "Ġpossibly": 4639,
      "ĠRem": 4640,
      "Ġsuggested": 4641,
      "à¤": 4642,
      "Ġbelief": 4643,
      "Ġwhom": 4644,
      "Ð¾": 4645,
      "Ġmarkets": 4646,
      "Ġweak": 4647,
      "Ġaudience": 4648,
      "Ġreact": 4649,
      "Ġannual": 4650,
      "istics": 4651,
      "ste": 4652,
      "ĠAN": 4653,
      "Ġhundreds": 4654,
      "Ġmillions": 4655,
      "ffee": 4656,
      "orial": 4657,
      "Ġdevices": 4658,
      "rian": 4659,
      "Ġhandle": 4660,
      "Ġsports": 4661,
      "Ġ500": 4662,
      "uate": 4663,
      "Ġmanaged": 4664,
      "Ġstructure": 4665,
      "Ġdemocr": 4666,
      "ĠDel": 4667,
      "75": 4668,
      "Ġanyway": 4669,
      "Ġtask": 4670,
      "Ġanx": 4671,
      "Ġadvoc": 4672,
      "Ġhappening": 4673,
      "Ġbelieved": 4674,
      "ĠLou": 4675,
      "run": 4676,
      "Ġauthorities": 4677,
      "Ġswitch": 4678,
      "anted": 4679,
      "ĠOut": 4680,
      ".'": 4681,
      "Ġmobile": 4682,
      "Ġelectric": 4683,
      "ĠWall": 4684,
      "Ġrich": 4685,
      "coh": 4686,
      "Ġborn": 4687,
      "isf": 4688,
      "ĠTer": 4689,
      "Ġsale": 4690,
      "Ġoperations": 4691,
      "ĠMike": 4692,
      "Ġnovel": 4693,
      "Ġchanging": 4694,
      "Ġseconds": 4695,
      "Ġnor": 4696,
      "Ġwearing": 4697,
      "ipped": 4698,
      "house": 4699,
      ".âĢĻ": 4700,
      "??": 4701,
      "zen": 4702,
      "Ġborder": 4703,
      "ijuana": 4704,
      "Ġexplained": 4705,
      "Ġminimum": 4706,
      "inn": 4707,
      "Ġserve": 4708,
      "acity": 4709,
      "Ġanymore": 4710,
      "Ġinstance": 4711,
      "Ġthrow": 4712,
      "Ġbackground": 4713,
      "Ġder": 4714,
      "Ġdaughter": 4715,
      "ĠDec": 4716,
      "Ġ^": 4717,
      "rees": 4718,
      "ucks": 4719,
      "odes": 4720,
      "Ġenforce": 4721,
      "Ġdiscussion": 4722,
      "Ġvideos": 4723,
      "rial": 4724,
      "Ġminister": 4725,
      "Ġdestroy": 4726,
      "ulf": 4727,
      "Ġburn": 4728,
      "ĠCle": 4729,
      "Ġcommercial": 4730,
      "Ġrevealed": 4731,
      "Ġ31": 4732,
      "Ġpurchase": 4733,
      "Ġexperiment": 4734,
      "ĠFound": 4735,
      "osure": 4736,
      "Ġstrateg": 4737,
      "Ġloved": 4738,
      "Ġscr": 4739,
      "Ġdistrict": 4740,
      "ait": 4741,
      "Ġpet": 4742,
      "Ġchair": 4743,
      "Ġowner": 4744,
      "Ġhearing": 4745,
      "illed": 4746,
      "aks": 4747,
      "Ġlisten": 4748,
      "PA": 4749,
      "Ġplanned": 4750,
      "ĠTech": 4751,
      "Ġwarn": 4752,
      "Ġmission": 4753,
      "Ġproduced": 4754,
      "Ġextend": 4755,
      "ĠMal": 4756,
      "Ġharder": 4757,
      "Ġstretch": 4758,
      "ooper": 4759,
      "spe": 4760,
      "ĠTy": 4761,
      "Ġsuit": 4762,
      "Ġassault": 4763,
      "ĠSecret": 4764,
      "ĠFI": 4765,
      "Ġconfirmed": 4766,
      "Ġhero": 4767,
      "Ġsurround": 4768,
      "ĠPress": 4769,
      "ocking": 4770,
      "Ġconservative": 4771,
      "Ġcoffee": 4772,
      "Ġmap": 4773,
      "ĠWho": 4774,
      "ĠST": 4775,
      "iling": 4776,
      "ented": 4777,
      "ropriate": 4778,
      "Ġcaught": 4779,
      "known": 4780,
      "estic": 4781,
      "gn": 4782,
      "Ġvill": 4783,
      "Ġnone": 4784,
      "Oh": 4785,
      "Ġprosec": 4786,
      "ctors": 4787,
      "Ġdecent": 4788,
      "Ġclosed": 4789,
      "Ġdepartment": 4790,
      "Ġtransport": 4791,
      "Ġcontain": 4792,
      "Ġfuel": 4793,
      "ĠAtt": 4794,
      "night": 4795,
      "Ġid": 4796,
      "Ġresidents": 4797,
      "idel": 4798,
      "Ġcontinu": 4799,
      "Ġpictures": 4800,
      "Ġoptim": 4801,
      "Ġdangerous": 4802,
      "ĠBush": 4803,
      "ae": 4804,
      "Ġhelpful": 4805,
      "ĠAc": 4806,
      "Ġtells": 4807,
      "Ġchurch": 4808,
      "Ġdrugs": 4809,
      "mas": 4810,
      "Ġillegal": 4811,
      "icians": 4812,
      "Ġepisode": 4813,
      "miss": 4814,
      "ĠWestern": 4815,
      "ĠJohnson": 4816,
      "ĠToday": 4817,
      "Ġimpossible": 4818,
      "Ġdoctor": 4819,
      "Ġshape": 4820,
      "any": 4821,
      "dden": 4822,
      "Ġlabor": 4823,
      "##": 4824,
      "Ġexcl": 4825,
      "Ġarrested": 4826,
      "ĠFrancis": 4827,
      "Ġvehicle": 4828,
      "umn": 4829,
      "tered": 4830,
      "Ġperspective": 4831,
      "Ġbaby": 4832,
      "Ġhomes": 4833,
      "Ġsust": 4834,
      "Ġviews": 4835,
      "Ġ~": 4836,
      "Ġinsp": 4837,
      "ĠSecurity": 4838,
      "Ġsavings": 4839,
      "ĠLiber": 4840,
      "Ġlived": 4841,
      "icles": 4842,
      "Ġcamera": 4843,
      "Ġinterests": 4844,
      "Ġindex": 4845,
      "ĠSl": 4846,
      "ĠLab": 4847,
      "rey": 4848,
      "Ġtesting": 4849,
      "Ġcalories": 4850,
      "Ġfailure": 4851,
      "Ġprotein": 4852,
      "oted": 4853,
      "Ġchann": 4854,
      "Ġroll": 4855,
      "ander": 4856,
      "Ġremoved": 4857,
      "ĠMag": 4858,
      "Ġsupply": 4859,
      "Ġdisease": 4860,
      "Ġmur": 4861,
      "ĠKorea": 4862,
      "ĠDist": 4863,
      "Ġproposed": 4864,
      "ĠGame": 4865,
      "ĠImage": 4866,
      "Ġseriously": 4867,
      "Ġunit": 4868,
      "Ġannounce": 4869,
      "Ġthread": 4870,
      "Ġobtain": 4871,
      "ource": 4872,
      "Ġbanks": 4873,
      "ĠCanadian": 4874,
      "Ġamb": 4875,
      "Ġapart": 4876,
      "Ġstated": 4877,
      "ady": 4878,
      "Ġbunch": 4879,
      "Ġguarant": 4880,
      "ĠDirect": 4881,
      "Ġschedule": 4882,
      "inter": 4883,
      "cont": 4884,
      "Ġsudden": 4885,
      "ĠCommun": 4886,
      "Ġupdate": 4887,
      "inct": 4888,
      "Ġadvance": 4889,
      "liament": 4890,
      "fol": 4891,
      "ĠCommission": 4892,
      "Ġhell": 4893,
      "Ġlibr": 4894,
      "ius": 4895,
      "ĠPalest": 4896,
      "Ġcalcul": 4897,
      "Ġestate": 4898,
      "Ġfalse": 4899,
      "Ġfaith": 4900,
      "ĠJustice": 4901,
      "Ġreturns": 4902,
      "lig": 4903,
      "place": 4904,
      "Ġopposition": 4905,
      "BS": 4906,
      "Ġrefe": 4907,
      "________": 4908,
      "ĠCommittee": 4909,
      "Ġserved": 4910,
      "Ġhoping": 4911,
      "Ġflex": 4912,
      "Ġath": 4913,
      "ĠOffice": 4914,
      "ĠPri": 4915,
      "Ġposts": 4916,
      "Ġflat": 4917,
      "real": 4918,
      "Ġtypically": 4919,
      "ĠWindows": 4920,
      "outhern": 4921,
      "Ġmanage": 4922,
      "Ġwinning": 4923,
      "ĠHall": 4924,
      "Ġzero": 4925,
      "ĠIts": 4926,
      "going": 4927,
      "Ġreturned": 4928,
      "irgin": 4929,
      "CC": 4930,
      "lands": 4931,
      "Ġspeaking": 4932,
      "ĠPet": 4933,
      "ipment": 4934,
      "ĠProf": 4935,
      "ĠNFL": 4936,
      "Ġcommunities": 4937,
      "ĠChris": 4938,
      "Ġassess": 4939,
      "Ġaggress": 4940,
      "Ġdocuments": 4941,
      "Ġconsequ": 4942,
      "ears": 4943,
      "ĠDet": 4944,
      "ĠHave": 4945,
      "Ġphil": 4946,
      "Ġcoverage": 4947,
      "Ġfarm": 4948,
      "edy": 4949,
      "ĠTime": 4950,
      "ĠMad": 4951,
      "Ġbench": 4952,
      "Ġanimals": 4953,
      "Ġcas": 4954,
      "Ġconstruction": 4955,
      "Ġsomewhere": 4956,
      "Ġdiscovered": 4957,
      "DA": 4958,
      "ĠUk": 4959,
      "ĠStr": 4960,
      "rd": 4961,
      "ighter": 4962,
      "Ġconsult": 4963,
      "Sh": 4964,
      "Ġheat": 4965,
      "ĠSanders": 4966,
      "Ġsurface": 4967,
      "ĠOnly": 4968,
      "Ġsad": 4969,
      "Ġfamiliar": 4970,
      "iders": 4971,
      "Ġexchange": 4972,
      "works": 4973,
      "ĠðŁĺ": 4974,
      "32": 4975,
      "Ġwarm": 4976,
      "Ġloan": 4977,
      "orthern": 4978,
      "Ġcontrovers": 4979,
      "Ġmuscle": 4980,
      "Ġappreciate": 4981,
      "wr": 4982,
      "resp": 4983,
      "SP": 4984,
      "ĠWil": 4985,
      "acking": 4986,
      "antic": 4987,
      "Ġmodels": 4988,
      "ĠPC": 4989,
      "Ġsorry": 4990,
      "Ġplays": 4991,
      "Ġtelevision": 4992,
      "bre": 4993,
      "====": 4994,
      "Ġspecies": 4995,
      "Ġdropped": 4996,
      "equ": 4997,
      "Ġdriver": 4998,
      "olf": 4999,
      "Ġfairly": 5000,
      "Ġaf": 5001,
      "Ġcancer": 5002,
      "Ġleadership": 5003,
      "Ġrevenue": 5004,
      "36": 5005,
      "ĠMat": 5006,
      "ulate": 5007,
      "Ġ2000": 5008,
      "Ġallowing": 5009,
      "Ġproviding": 5010,
      "Ġneighborhood": 5011,
      "Ġcircum": 5012,
      "44": 5013,
      "Ġang": 5014,
      "mod": 5015,
      "Thank": 5016,
      "Ġbomb": 5017,
      "Ġodd": 5018,
      "Ġprotest": 5019,
      "Ġgeneration": 5020,
      "!\"": 5021,
      "Ġknowing": 5022,
      "hips": 5023,
      "Ġturns": 5024,
      "Ġrepeated": 5025,
      "Ġinvestors": 5026,
      "Ġble": 5027,
      "ĠPut": 5028,
      "Ġshares": 5029,
      "ĠTre": 5030,
      "ĠMicrosoft": 5031,
      "ĠPhoto": 5032,
      "Ġ2018": 5033,
      "Ġcoal": 5034,
      "Ġweren": 5035,
      "Ġtherefore": 5036,
      "Ġdeliver": 5037,
      "ĠDespite": 5038,
      "ĠYet": 5039,
      "Ġnorth": 5040,
      "itz": 5041,
      "with": 5042,
      "rency": 5043,
      "vis": 5044,
      "ka": 5045,
      "Ġlargely": 5046,
      "ĠUN": 5047,
      "ourney": 5048,
      "AA": 5049,
      "ien": 5050,
      "cohol": 5051,
      "ĠSil": 5052,
      "ula": 5053,
      "ĠRobert": 5054,
      "illing": 5055,
      "ĠDoes": 5056,
      "Ġ2006": 5057,
      "Ġflow": 5058,
      "Ġstruggle": 5059,
      "TC": 5060,
      "FC": 5061,
      "ĠBack": 5062,
      "icted": 5063,
      "GB": 5064,
      "ada": 5065,
      "ĠInter": 5066,
      "Ġscientists": 5067,
      "avor": 5068,
      "Ġbeer": 5069,
      "Ġtom": 5070,
      "anta": 5071,
      "andon": 5072,
      "Ġalternative": 5073,
      "gl": 5074,
      "Ġarms": 5075,
      "ĠFox": 5076,
      "ĠVer": 5077,
      "Ġspoke": 5078,
      "Ġnine": 5079,
      "Ġhom": 5080,
      "Ġaccused": 5081,
      "Ġcharged": 5082,
      "ĠTim": 5083,
      "Ġsharing": 5084,
      "Ġabuse": 5085,
      "Ġdownload": 5086,
      "ĠStill": 5087,
      "apped": 5088,
      "ĠFore": 5089,
      "ript": 5090,
      "asks": 5091,
      "Ġlegislation": 5092,
      "ĠSur": 5093,
      "Ġgay": 5094,
      "NA": 5095,
      "gage": 5096,
      "Ġapps": 5097,
      "Ġlaunched": 5098,
      "Ġweather": 5099,
      "ĠJones": 5100,
      "Ġmaxim": 5101,
      "ocol": 5102,
      "weight": 5103,
      "Ġiniti": 5104,
      "ionally": 5105,
      "rough": 5106,
      "Ġmut": 5107,
      "ĠCEO": 5108,
      "ĠQue": 5109,
      "Ġexpress": 5110,
      "Ġvictims": 5111,
      "ĠWhere": 5112,
      "Ġvariety": 5113,
      "ĠJim": 5114,
      "ano": 5115,
      "phone": 5116,
      "Ġvalid": 5117,
      "ghan": 5118,
      "ĠFrank": 5119,
      "Ġmulti": 5120,
      "Ġfactors": 5121,
      "Ġstanding": 5122,
      "ĠMiss": 5123,
      "Ġsem": 5124,
      "Ġexperiences": 5125,
      "Ġtransl": 5126,
      "ĠBest": 5127,
      "Al": 5128,
      "Ġmarijuana": 5129,
      "Ġcollection": 5130,
      "Ġyesterday": 5131,
      "Ġestablished": 5132,
      "Ġappoint": 5133,
      "Ġforg": 5134,
      "ĠGree": 5135,
      "38": 5136,
      "Ġsides": 5137,
      "Ġequipment": 5138,
      "Ġcovered": 5139,
      "ĠCup": 5140,
      "ĠLos": 5141,
      "you": 5142,
      "On": 5143,
      "ĠIslamic": 5144,
      "Ġdepends": 5145,
      "Ġfactor": 5146,
      "ĠRun": 5147,
      "ĠBank": 5148,
      "icy": 5149,
      "ris": 5150,
      "Ġclim": 5151,
      "icing": 5152,
      "Ġuns": 5153,
      "that": 5154,
      "Ġtrouble": 5155,
      "oyal": 5156,
      "Ġconnection": 5157,
      "ynam": 5158,
      "Ġbroke": 5159,
      "Ġretail": 5160,
      "Ġvictory": 5161,
      "ĠCarol": 5162,
      "ours": 5163,
      "Ġteen": 5164,
      "Ġacknow": 5165,
      "Ġexperienced": 5166,
      "!âĢĿ": 5167,
      "Ġinteract": 5168,
      "Ġsignificantly": 5169,
      "Ġring": 5170,
      "ĠEv": 5171,
      "Ġregarding": 5172,
      "Ġradio": 5173,
      "55": 5174,
      "ĠAtl": 5175,
      "osite": 5176,
      "Ġworried": 5177,
      "ĠSal": 5178,
      "Ġemergency": 5179,
      "Ġassume": 5180,
      "Ġfigures": 5181,
      "ĠJud": 5182,
      "iller": 5183,
      "Ġexpert": 5184,
      "Ġnecessarily": 5185,
      "ĠKeep": 5186,
      "Ġdisapp": 5187,
      "Ġpresence": 5188,
      "oston": 5189,
      "ĠBur": 5190,
      "Ġroute": 5191,
      "ĠJeff": 5192,
      "Ġuniversity": 5193,
      "Ġearth": 5194,
      "Ġslowly": 5195,
      "Ġpotentially": 5196,
      "Ġoccup": 5197,
      "Ġissued": 5198,
      "ads": 5199,
      "care": 5200,
      "Ġreject": 5201,
      "ĠET": 5202,
      "ih": 5203,
      "Ġdinner": 5204,
      "cles": 5205,
      "ĠInstitute": 5206,
      "Ġ32": 5207,
      "Just": 5208,
      "Ġsupported": 5209,
      "ĠJapanese": 5210,
      "ĠMer": 5211,
      "Ġtrig": 5212,
      "Ġjoined": 5213,
      "ĠBritain": 5214,
      "Ġclin": 5215,
      "Ġplaced": 5216,
      "ĠDid": 5217,
      "ĠIN": 5218,
      "Ġopportunities": 5219,
      "Ġrealized": 5220,
      "ronic": 5221,
      "lies": 5222,
      "ĠBet": 5223,
      "Ġcook": 5224,
      "Ġsan": 5225,
      "Do": 5226,
      "Ġultimately": 5227,
      "ĠChurch": 5228,
      "48": 5229,
      "rig": 5230,
      "uations": 5231,
      "ĠJo": 5232,
      "Ġcommittee": 5233,
      "rad": 5234,
      "formation": 5235,
      "Well": 5236,
      "ulations": 5237,
      "semb": 5238,
      "Ġprinc": 5239,
      "Ġschedul": 5240,
      "ulated": 5241,
      "Ġcorporate": 5242,
      "nel": 5243,
      "ĠNor": 5244,
      "Ġsouth": 5245,
      "Ðµ": 5246,
      "Ġtalked": 5247,
      "Ġcandidates": 5248,
      "Ġhumans": 5249,
      "Ġstruct": 5250,
      "37": 5251,
      "eds": 5252,
      "Ġsister": 5253,
      "ĠFBI": 5254,
      "Ġapparently": 5255,
      "Ġstrike": 5256,
      "Ġadvis": 5257,
      "Ġseek": 5258,
      "ĠIsraeli": 5259,
      "Ġwaste": 5260,
      "ĠUkrain": 5261,
      "Ġsequ": 5262,
      "iot": 5263,
      "ĠThough": 5264,
      "Ġanywhere": 5265,
      "ĠPR": 5266,
      "ancing": 5267,
      "Ġsupporters": 5268,
      "Ġtalks": 5269,
      "Ġwitness": 5270,
      "Ġbatter": 5271,
      "Ġpicked": 5272,
      "Ġestablish": 5273,
      "Ġscientific": 5274,
      "Ġsport": 5275,
      "Ġglass": 5276,
      "Ġspirit": 5277,
      "ĠSecond": 5278,
      "Ġfundament": 5279,
      "orage": 5280,
      "lege": 5281,
      "Ġgotten": 5282,
      "onym": 5283,
      "kin": 5284,
      "Ġsplit": 5285,
      "Ġvolume": 5286,
      "Ġbelieves": 5287,
      "Ġcommission": 5288,
      "SU": 5289,
      "Ġbroken": 5290,
      "Ġmurder": 5291,
      "Ð°": 5292,
      "Ġgains": 5293,
      "Ġmatters": 5294,
      "hand": 5295,
      "cient": 5296,
      "Ġcustomer": 5297,
      "Ġcorner": 5298,
      "kins": 5299,
      "Tube": 5300,
      "ĠWhe": 5301,
      "Ġmicro": 5302,
      "ĠJoe": 5303,
      "Ġsch": 5304,
      "ĠLib": 5305,
      "Ġindic": 5306,
      "arp": 5307,
      "Ġacadem": 5308,
      "Ġgender": 5309,
      "Ġkilling": 5310,
      "Ġnoticed": 5311,
      "ãĤ": 5312,
      "Ġwithd": 5313,
      "Ġends": 5314,
      "Ġaccompl": 5315,
      "ava": 5316,
      "prof": 5317,
      "ĠGroup": 5318,
      "related": 5319,
      "Ġunits": 5320,
      "ĠRock": 5321,
      "Ġguests": 5322,
      "Ġdivide": 5323,
      "Ġsurvey": 5324,
      "Ġwood": 5325,
      "oman": 5326,
      "Ġconfident": 5327,
      "Ġsugar": 5328,
      "ingly": 5329,
      "Ġregist": 5330,
      "ĠUSA": 5331,
      "CH": 5332,
      "mony": 5333,
      "Ġcells": 5334,
      "Ġidentity": 5335,
      "Ġcommitted": 5336,
      "odies": 5337,
      "icon": 5338,
      "Ġprotection": 5339,
      "cipl": 5340,
      "Ġfees": 5341,
      "aded": 5342,
      "Ġfru": 5343,
      "Ġphilos": 5344,
      "ola": 5345,
      "ĠAD": 5346,
      "ĠConst": 5347,
      "ĠRyan": 5348,
      "Ġprepared": 5349,
      "34": 5350,
      "Ġpages": 5351,
      "foot": 5352,
      "Ġsurprised": 5353,
      "aven": 5354,
      "ses": 5355,
      "OW": 5356,
      "Ġconfidence": 5357,
      "ĠRichard": 5358,
      "EM": 5359,
      "Ġassets": 5360,
      "ĠAfrica": 5361,
      "ĠPak": 5362,
      "Ġhun": 5363,
      "ĠBefore": 5364,
      "arsh": 5365,
      "ĠMP": 5366,
      "iest": 5367,
      "hens": 5368,
      "ĠDen": 5369,
      "Ġremove": 5370,
      "ĠSup": 5371,
      "suit": 5372,
      "Ġokay": 5373,
      "Ġfle": 5374,
      "Ġintroduced": 5375,
      "ressive": 5376,
      "Ġpercentage": 5377,
      "Ġpositions": 5378,
      "Ġoffering": 5379,
      "Ġdeveloping": 5380,
      "Ġmeasures": 5381,
      "amm": 5382,
      "ĠBoston": 5383,
      "ĠAndroid": 5384,
      "anned": 5385,
      "Ġdat": 5386,
      "ores": 5387,
      "Ġsweet": 5388,
      "Ġspect": 5389,
      "%.": 5390,
      "Ġstandards": 5391,
      "ĠJewish": 5392,
      "ĠMexico": 5393,
      "ĠBitcoin": 5394,
      "Ġbound": 5395,
      "Ġjustice": 5396,
      "Ġpieces": 5397,
      "hi": 5398,
      "ucking": 5399,
      "Ġpossibility": 5400,
      "Ġvast": 5401,
      "Ġsuggests": 5402,
      "Ġanimal": 5403,
      "Ġtests": 5404,
      "Ġarr": 5405,
      "Ġleads": 5406,
      "anda": 5407,
      "Ġsatisf": 5408,
      "list": 5409,
      "po": 5410,
      "Ġarrived": 5411,
      "Ġcapacity": 5412,
      "Ġlegs": 5413,
      "ĠFire": 5414,
      "Ġjourney": 5415,
      "avy": 5416,
      "under": 5417,
      "cel": 5418,
      "Ġfeedback": 5419,
      "Ġbike": 5420,
      "Ġfiles": 5421,
      "olly": 5422,
      "eal": 5423,
      "ĠAfrican": 5424,
      "ĠLouis": 5425,
      "ĠIr": 5426,
      "ĠSol": 5427,
      "Ġelements": 5428,
      "Ġresponsibility": 5429,
      "wing": 5430,
      "Ġbringing": 5431,
      "essions": 5432,
      "ĠKh": 5433,
      "Ġshoe": 5434,
      "Ġpayment": 5435,
      "Ġdad": 5436,
      "isation": 5437,
      "ĠVirgin": 5438,
      "Ġbac": 5439,
      "igrants": 5440,
      "ĠResearch": 5441,
      "Ġmaster": 5442,
      "NN": 5443,
      "ĠTeam": 5444,
      "Ġ36": 5445,
      "Ġdepending": 5446,
      "Tr": 5447,
      "ĠAssociation": 5448,
      "Ġevening": 5449,
      "Ġfellow": 5450,
      "Ġhol": 5451,
      "IM": 5452,
      "Ġfourth": 5453,
      "Ġneighb": 5454,
      "this": 5455,
      "Ġdetermine": 5456,
      "Ġplanet": 5457,
      "Ġfolks": 5458,
      "Ġhur": 5459,
      "Ġfeelings": 5460,
      "Ġmere": 5461,
      "upid": 5462,
      "ĠAngeles": 5463,
      "Ġtack": 5464,
      "ĠMean": 5465,
      "Ġconsistent": 5466,
      "Ġboss": 5467,
      "bell": 5468,
      "ĠYouTube": 5469,
      "ĠTake": 5470,
      "ĠHome": 5471,
      "Ġvision": 5472,
      "Ġ2005": 5473,
      "Ġsick": 5474,
      "ĠAfghan": 5475,
      "icide": 5476,
      "Ġproud": 5477,
      "Ġoperation": 5478,
      "Ġdetect": 5479,
      "ĠGOP": 5480,
      "ils": 5481,
      "Ġque": 5482,
      "39": 5483,
      "Ġunivers": 5484,
      "Ġinternal": 5485,
      "onto": 5486,
      "].": 5487,
      "Ġnewsp": 5488,
      "rastructure": 5489,
      "illy": 5490,
      "rip": 5491,
      "Ġrefuge": 5492,
      "ĠGovernment": 5493,
      "Ġsurprise": 5494,
      "azine": 5495,
      "ĠMartin": 5496,
      "Ġidentified": 5497,
      "ownt": 5498,
      "Ġconclud": 5499,
      "Ġgrab": 5500,
      "Ġclient": 5501,
      "Ġenforcement": 5502,
      "ĠMary": 5503,
      "aren": 5504,
      "Ġgrew": 5505,
      "Ġseeking": 5506,
      "Ġoffensive": 5507,
      "Ġessentially": 5508,
      "Ġconcl": 5509,
      "Ġshift": 5510,
      "Ġguard": 5511,
      "Ġprove": 5512,
      "ĠThomas": 5513,
      "ifts": 5514,
      "Ġequal": 5515,
      "ĠWeb": 5516,
      "Ġmeat": 5517,
      "OO": 5518,
      "igan": 5519,
      "person": 5520,
      "lor": 5521,
      "Ġhonestly": 5522,
      "Ġride": 5523,
      "apers": 5524,
      "Ġincor": 5525,
      "itutional": 5526,
      "ĠStart": 5527,
      "Ġalcohol": 5528,
      "Ġinfo": 5529,
      "duction": 5530,
      "Ġmissed": 5531,
      "ĠSocial": 5532,
      "stream": 5533,
      "rary": 5534,
      "ĠPalestin": 5535,
      "anche": 5536,
      "Ġportfol": 5537,
      "ĠJose": 5538,
      "Ġspokesman": 5539,
      "Ġclasses": 5540,
      "47": 5541,
      "eper": 5542,
      "season": 5543,
      "Ġvenue": 5544,
      "illa": 5545,
      "Ġoperating": 5546,
      "yr": 5547,
      "fortunately": 5548,
      "owl": 5549,
      "Ġbag": 5550,
      "ocal": 5551,
      "hicles": 5552,
      "ĠPeter": 5553,
      "Get": 5554,
      "Ġclients": 5555,
      "Ġveter": 5556,
      "agues": 5557,
      "Ġrelationships": 5558,
      "Ġrecru": 5559,
      "Ġliqu": 5560,
      "LE": 5561,
      "ĠVe": 5562,
      "Ġzone": 5563,
      "Ġhyp": 5564,
      "ĠWhich": 5565,
      "Ġscript": 5566,
      "Ġtrading": 5567,
      "uting": 5568,
      "Ġcuts": 5569,
      "ection": 5570,
      "Ġsector": 5571,
      "pret": 5572,
      "Ġmethods": 5573,
      "Ġreference": 5574,
      "ashed": 5575,
      "Ġthinks": 5576,
      "ĠAgain": 5577,
      "Ġerror": 5578,
      "ĠArmy": 5579,
      "ĠFree": 5580,
      "Ġstores": 5581,
      "49": 5582,
      "Ġflight": 5583,
      "âĢĶâĢĶ": 5584,
      "pay": 5585,
      "appe": 5586,
      "Ġquant": 5587,
      "Ġinnov": 5588,
      "Ġstuck": 5589,
      "Ġordered": 5590,
      "Ġcycle": 5591,
      "win": 5592,
      "ography": 5593,
      "eration": 5594,
      "ogue": 5595,
      "cr": 5596,
      "Ġcrew": 5597,
      "ĠBern": 5598,
      "erous": 5599,
      "Ġdefensive": 5600,
      "Ġrecovery": 5601,
      "Ġexpenses": 5602,
      "Ġdevelopers": 5603,
      "Ġreasonable": 5604,
      "ĠJon": 5605,
      "print": 5606,
      "nda": 5607,
      "ologies": 5608,
      "lines": 5609,
      "lets": 5610,
      "Ġtechnical": 5611,
      "Ġpushing": 5612,
      "Ġrot": 5613,
      "Ġoriginally": 5614,
      "ĠMake": 5615,
      "Ġbon": 5616,
      "Ġdisappoint": 5617,
      "iverse": 5618,
      "Ġvul": 5619,
      "ĠRight": 5620,
      "idden": 5621,
      "UT": 5622,
      "Ġlegit": 5623,
      "Ġsea": 5624,
      "ĠPrime": 5625,
      "Ġsomewhat": 5626,
      "iation": 5627,
      "Ġorganizations": 5628,
      "ĠWatch": 5629,
      "Ġforms": 5630,
      "Ġtransition": 5631,
      "Ġceremony": 5632,
      "Ġyounger": 5633,
      "ordin": 5634,
      "whel": 5635,
      "Ġcarried": 5636,
      "ĠOpen": 5637,
      "noon": 5638,
      "Ġopposite": 5639,
      "met": 5640,
      "ĠCollege": 5641,
      "bu": 5642,
      "Ġdomin": 5643,
      "ĠNA": 5644,
      "Ġsecure": 5645,
      "Ġtweet": 5646,
      "Ġattorney": 5647,
      "Ġpulled": 5648,
      "Ġintended": 5649,
      "Ġworkout": 5650,
      "ĠSupreme": 5651,
      "ĠEach": 5652,
      "Ġenvironmental": 5653,
      "ĠMont": 5654,
      "Ġclick": 5655,
      "Ġaccident": 5656,
      "ansion": 5657,
      "porary": 5658,
      "An": 5659,
      "Ġprofessor": 5660,
      "Ġpure": 5661,
      "Ġspring": 5662,
      "Ġboost": 5663,
      "state": 5664,
      "oty": 5665,
      "Ġterrible": 5666,
      "free": 5667,
      "Ġ401": 5668,
      "itect": 5669,
      "Ġconcent": 5670,
      "Ġsession": 5671,
      "ĠPower": 5672,
      "Ġalt": 5673,
      "Ġinput": 5674,
      "ĠJes": 5675,
      "uke": 5676,
      "Ã¡": 5677,
      "reens": 5678,
      "Ġconvention": 5679,
      "Ġaward": 5680,
      "ĠIT": 5681,
      "Ġreligion": 5682,
      "fast": 5683,
      "ĠPublic": 5684,
      "Ġemotional": 5685,
      "Ġconstantly": 5686,
      "amin": 5687,
      "Ġserver": 5688,
      "Ġwake": 5689,
      "ĠHope": 5690,
      "Ġlands": 5691,
      "Ġrain": 5692,
      "Ġapplications": 5693,
      "ania": 5694,
      "Ġturning": 5695,
      "Ġarmy": 5696,
      "ĠNY": 5697,
      "Ġdont": 5698,
      "uration": 5699,
      "cellent": 5700,
      "Ġpit": 5701,
      "Ġrevolution": 5702,
      "Ġherself": 5703,
      "Ġreli": 5704,
      "Ġunion": 5705,
      "ias": 5706,
      "Ġterrit": 5707,
      "Ġadvert": 5708,
      "phas": 5709,
      "ĠRoth": 5710,
      "Ġegg": 5711,
      "ployment": 5712,
      "Ġdry": 5713,
      "Ġchallenges": 5714,
      "mo": 5715,
      "iously": 5716,
      "Ġvehicles": 5717,
      "ashion": 5718,
      "Ġreduced": 5719,
      "Ġhabit": 5720,
      "adium": 5721,
      "rick": 5722,
      "hab": 5723,
      "rim": 5724,
      "Ġdomestic": 5725,
      "Ġfiled": 5726,
      "Ġdram": 5727,
      "ĠLife": 5728,
      "Ġagencies": 5729,
      "ĠCamp": 5730,
      "31": 5731,
      "Ġappropriate": 5732,
      "pic": 5733,
      "ãĥ": 5734,
      "Ġdecre": 5735,
      "Ġsolar": 5736,
      "rier": 5737,
      "\":": 5738,
      "alls": 5739,
      "ĠMO": 5740,
      "Ġinfrastructure": 5741,
      "Ġ300": 5742,
      "Ġskill": 5743,
      "Ġexperts": 5744,
      "ĠToronto": 5745,
      "Ġalleg": 5746,
      "Ġfired": 5747,
      "Ġinflation": 5748,
      "IP": 5749,
      "Ġjoint": 5750,
      "Ġtopic": 5751,
      "Ġauthority": 5752,
      "ita": 5753,
      "Ġourselves": 5754,
      "ĠRedd": 5755,
      "Ġrapid": 5756,
      "acked": 5757,
      "Ġlisted": 5758,
      "Ġimmigration": 5759,
      "gs": 5760,
      "ducing": 5761,
      "Ġmargin": 5762,
      "ww": 5763,
      "Ġincreasingly": 5764,
      "Ġcombined": 5765,
      "aine": 5766,
      "ĠAT": 5767,
      "Ġmortgage": 5768,
      "Ġsigns": 5769,
      "Ġfly": 5770,
      "ĠBas": 5771,
      "ĠSometimes": 5772,
      "iat": 5773,
      "Ġindeed": 5774,
      "Ġinvolve": 5775,
      "Ġstreets": 5776,
      "ĠService": 5777,
      "Ġupgr": 5778,
      "Ġwinter": 5779,
      "ĠCentral": 5780,
      "Ġentertain": 5781,
      "ensity": 5782,
      "Hey": 5783,
      "ĠImages": 5784,
      "unte": 5785,
      "ket": 5786,
      "Ġrelevant": 5787,
      "lymp": 5788,
      "Ġmode": 5789,
      "Ġpackage": 5790,
      "Ġwriter": 5791,
      "makers": 5792,
      "raid": 5793,
      "standing": 5794,
      "Ġdifferences": 5795,
      "mail": 5796,
      "ĠFed": 5797,
      "Ġcompleted": 5798,
      "Ġproperly": 5799,
      "ĠTop": 5800,
      "ĠOk": 5801,
      "46": 5802,
      "Ġhotel": 5803,
      "Ġshall": 5804,
      "HL": 5805,
      "ĠWould": 5806,
      "gypt": 5807,
      "ĠSecretary": 5808,
      "Ġvotes": 5809,
      "Ġcircumst": 5810,
      "ION": 5811,
      "Ġlock": 5812,
      "Ġfamous": 5813,
      "prene": 5814,
      "ĠSing": 5815,
      "dr": 5816,
      "Ġsac": 5817,
      "----------------": 5818,
      "IV": 5819,
      "osen": 5820,
      "ĠAp": 5821,
      "ĠMur": 5822,
      "Ġing": 5823,
      "olved": 5824,
      "Ġopposed": 5825,
      "ĠMos": 5826,
      "ulous": 5827,
      "0000": 5828,
      "Ġremaining": 5829,
      "Ġafternoon": 5830,
      "arks": 5831,
      "Ġexamples": 5832,
      "Ġcauses": 5833,
      "Ġsurprising": 5834,
      "Ġquiet": 5835,
      "reprene": 5836,
      "uters": 5837,
      "uable": 5838,
      "Ġreaction": 5839,
      "Ġsevere": 5840,
      "ĠLong": 5841,
      "Ġportfolio": 5842,
      "Ġidentify": 5843,
      "Ġstupid": 5844,
      "Ġproperties": 5845,
      "ĠAri": 5846,
      "xual": 5847,
      "ĠTra": 5848,
      "Ġtreated": 5849,
      "Ġdefault": 5850,
      "Ġanxiety": 5851,
      "Ġlocated": 5852,
      "Ġincreases": 5853,
      "Ġvisual": 5854,
      "net": 5855,
      "ĠNov": 5856,
      "ĠDan": 5857,
      "ĠAbout": 5858,
      "Ġera": 5859,
      "Ġemails": 5860,
      "Ġaffected": 5861,
      "Ġaid": 5862,
      "gment": 5863,
      "Ġpil": 5864,
      "ĠChristmas": 5865,
      "ĠAL": 5866,
      "Ġsymb": 5867,
      "Americ": 5868,
      "Ġemp": 5869,
      "Ġpresented": 5870,
      "ĠSyrian": 5871,
      "ĠMass": 5872,
      "rant": 5873,
      "Ġkeeps": 5874,
      "Ex": 5875,
      "Ġestimated": 5876,
      "Ġpointed": 5877,
      "Ġdepend": 5878,
      "isters": 5879,
      "friend": 5880,
      "Ġgift": 5881,
      "iams": 5882,
      "gas": 5883,
      "Ġdesire": 5884,
      "ĠFederal": 5885,
      "hered": 5886,
      "ĠSqu": 5887,
      "ĠRub": 5888,
      "Ġdrinking": 5889,
      "ĠGar": 5890,
      "Ġefficient": 5891,
      "Ġyeah": 5892,
      "stein": 5893,
      "Ġfacing": 5894,
      "Ġpod": 5895,
      "Ġtrick": 5896,
      "onom": 5897,
      "Ġargue": 5898,
      "****": 5899,
      "ĠFrancisco": 5900,
      "urb": 5901,
      "Ġagent": 5902,
      "pass": 5903,
      "ĠSteve": 5904,
      "Ġempt": 5905,
      "Ġathlet": 5906,
      "Ġvir": 5907,
      "ĠAC": 5908,
      "ader": 5909,
      "ĠFoundation": 5910,
      "Ġpassion": 5911,
      "host": 5912,
      "ĠIRA": 5913,
      "ĠEdit": 5914,
      "Ġ?": 5915,
      "ĠJournal": 5916,
      "life": 5917,
      "ĠMiddle": 5918,
      "Ġcapable": 5919,
      "Ġkit": 5920,
      "ĠLat": 5921,
      "ensions": 5922,
      "redd": 5923,
      "Ġroughly": 5924,
      "otes": 5925,
      "Ġarticles": 5926,
      "ĠMedic": 5927,
      "ĠCath": 5928,
      "ĠMem": 5929,
      "Ġfif": 5930,
      "ĠPhot": 5931,
      "Ġyards": 5932,
      "Ġlawyer": 5933,
      "Ġchart": 5934,
      "Ġ//": 5935,
      "Ġcart": 5936,
      "Ġeval": 5937,
      "Ġcarbon": 5938,
      "Ġfixed": 5939,
      "ĠGal": 5940,
      "ĠForm": 5941,
      "Ġinstit": 5942,
      "ĠCarolina": 5943,
      "ĠColor": 5944,
      "Ġinsist": 5945,
      "Ġstorage": 5946,
      "Ġvulner": 5947,
      "Ġinjuries": 5948,
      "top": 5949,
      "agers": 5950,
      "Ġleaves": 5951,
      "Ġdollar": 5952,
      "nect": 5953,
      "roc": 5954,
      "ĠHist": 5955,
      "Ġchemical": 5956,
      "Ġbelong": 5957,
      "Ġsalary": 5958,
      "Why": 5959,
      "Ġgreatest": 5960,
      "Ġtiny": 5961,
      "ĠDistrict": 5962,
      "apping": 5963,
      "ĠMel": 5964,
      "Ġinjured": 5965,
      "rist": 5966,
      "ĠMedia": 5967,
      "Ġwondering": 5968,
      "Ġoverwhel": 5969,
      "Ġrestaurant": 5970,
      "Ġsoldiers": 5971,
      "Ġtasks": 5972,
      "bert": 5973,
      "ternal": 5974,
      "Ġconfirm": 5975,
      "Ġmir": 5976,
      "Ġoccurred": 5977,
      "can": 5978,
      "Ġrein": 5979,
      "ortion": 5980,
      "usiness": 5981,
      "Ġbreaking": 5982,
      "Ġunable": 5983,
      "uster": 5984,
      "chen": 5985,
      "ĠEgypt": 5986,
      "ĠLee": 5987,
      "Ġfish": 5988,
      "ishes": 5989,
      "Ġsomehow": 5990,
      "Ġlaugh": 5991,
      "Ġdetermined": 5992,
      "Ġproposal": 5993,
      "Ġyell": 5994,
      "Ġwelcome": 5995,
      "lete": 5996,
      "Ġdynam": 5997,
      "Ġlie": 5998,
      "Ġcultural": 5999,
      "ĠiPh": 6000,
      "ĠAv": 6001,
      "ĠChief": 6002,
      "Ġprime": 6003,
      "enture": 6004,
      "Ġ2004": 6005,
      "Ġpassing": 6006,
      "Ġfee": 6007,
      "Ġelimin": 6008,
      "issions": 6009,
      "To": 6010,
      "Ġsnow": 6011,
      "Ġdiagn": 6012,
      "Ġliked": 6013,
      "col": 6014,
      "cons": 6015,
      "Ġpool": 6016,
      "Ġproceed": 6017,
      "Ġelement": 6018,
      "Ġstars": 6019,
      "cean": 6020,
      "atures": 6021,
      "Ġinvestments": 6022,
      "Ġentry": 6023,
      "65": 6024,
      "useum": 6025,
      "gent": 6026,
      "Ġfilled": 6027,
      "Ġexplan": 6028,
      "Ġpatient": 6029,
      "Ð¸": 6030,
      "Ġclothes": 6031,
      "Ġupper": 6032,
      "Ġincredibly": 6033,
      "ENT": 6034,
      "ĠParis": 6035,
      "=\"": 6036,
      "Ġlinked": 6037,
      "Ġseat": 6038,
      "Ġdealing": 6039,
      "Ġlabel": 6040,
      "Ġsubstant": 6041,
      "ĠMatt": 6042,
      "ĠHy": 6043,
      "Ġdisag": 6044,
      "Ġpu": 6045,
      "Ġtips": 6046,
      "Ġcompetitive": 6047,
      "ĠNext": 6048,
      "Ġedge": 6049,
      "ĠOlymp": 6050,
      "Ġconstruct": 6051,
      "ller": 6052,
      "Ġprospect": 6053,
      "Ġfuck": 6054,
      "Ġcoast": 6055,
      "Ġsand": 6056,
      "Ġdelay": 6057,
      "Ġremote": 6058,
      "Ġsupporting": 6059,
      "asure": 6060,
      "Ġtact": 6061,
      "Ġapprox": 6062,
      "abilities": 6063,
      "ilty": 6064,
      "zer": 6065,
      "Ġaside": 6066,
      "Ġcreative": 6067,
      "Ġfort": 6068,
      "Ġmeal": 6069,
      "ĠSum": 6070,
      "ĠAustralian": 6071,
      "Le": 6072,
      "Ġregularly": 6073,
      "Ġrefused": 6074,
      "Ġbehavi": 6075,
      "Ġinstruct": 6076,
      "95": 6077,
      "Ġheavily": 6078,
      "ĠCompan": 6079,
      "Ġcert": 6080,
      "Ġlinks": 6081,
      "Ġplants": 6082,
      "fficient": 6083,
      "ĠWork": 6084,
      "Ġstronger": 6085,
      "ĠCharl": 6086,
      "Ġappearance": 6087,
      "ini": 6088,
      "Ġperfectly": 6089,
      "Ġgovernments": 6090,
      "Ġcloud": 6091,
      "ĠVirginia": 6092,
      "apter": 6093,
      "ĠWilliams": 6094,
      "Ġperman": 6095,
      "oom": 6096,
      "Ġbusy": 6097,
      "Ġeffectively": 6098,
      "Ġflag": 6099,
      "Ġexpressed": 6100,
      "Ġelections": 6101,
      "ĠDown": 6102,
      "inent": 6103,
      "ĠDC": 6104,
      "Ġjail": 6105,
      "ocket": 6106,
      "ache": 6107,
      "ĠDaily": 6108,
      "Ġmovies": 6109,
      "Ġglad": 6110,
      "Ġcrash": 6111,
      "Ġtun": 6112,
      "Ġsurve": 6113,
      "Ġyouth": 6114,
      "Ġgiant": 6115,
      "Ġcutting": 6116,
      "ĠGen": 6117,
      "All": 6118,
      "Ġlibrary": 6119,
      "Ġbodies": 6120,
      "Ġmessages": 6121,
      "Ġyield": 6122,
      "IG": 6123,
      "Ġtele": 6124,
      "icial": 6125,
      "Ġaccepted": 6126,
      "Ġcomplain": 6127,
      "ĠInvest": 6128,
      "ĠLove": 6129,
      "ĠProject": 6130,
      "otal": 6131,
      "Ġmistake": 6132,
      "Ġdownt": 6133,
      "Ġtou": 6134,
      "icken": 6135,
      "ĠHaw": 6136,
      "Be": 6137,
      "Ġvan": 6138,
      "Ġseasons": 6139,
      "ĠPerhaps": 6140,
      "ĠRiver": 6141,
      "Ġdiscl": 6142,
      "Ġcombat": 6143,
      "ĠOffic": 6144,
      "Ġdiss": 6145,
      "isher": 6146,
      "Ġimproved": 6147,
      "ĠMeanwhile": 6148,
      "bits": 6149,
      "Ġneither": 6150,
      "erate": 6151,
      "DP": 6152,
      "ĠPlan": 6153,
      "sts": 6154,
      "ĠMs": 6155,
      "Ġeverybody": 6156,
      "itors": 6157,
      "erves": 6158,
      "Ġgod": 6159,
      "Ġtree": 6160,
      "long": 6161,
      "Ġpitch": 6162,
      "LA": 6163,
      "ĠShow": 6164,
      "ĠRad": 6165,
      "ĠSupp": 6166,
      "Ġreward": 6167,
      "ĠIsland": 6168,
      "stood": 6169,
      "Ġvoted": 6170,
      "Ġfoods": 6171,
      "Ġinitially": 6172,
      "sen": 6173,
      "Ġske": 6174,
      "irty": 6175,
      "ĠSP": 6176,
      "Ġafraid": 6177,
      "Ġstands": 6178,
      "och": 6179,
      ";#": 6180,
      "ĠGuard": 6181,
      "Ġgra": 6182,
      "Ġapplied": 6183,
      "Ġraces": 6184,
      "Ġbrows": 6185,
      "Ġuncom": 6186,
      "Ġintention": 6187,
      "Ġmouth": 6188,
      "Ġexcellent": 6189,
      "Ġmoves": 6190,
      "uine": 6191,
      "mpt": 6192,
      "Ġmal": 6193,
      "ĠHol": 6194,
      "Ġsaving": 6195,
      "Ġspr": 6196,
      "Ġtrend": 6197,
      "den": 6198,
      "ette": 6199,
      "she": 6200,
      "Im": 6201,
      "Ġcouncil": 6202,
      "Ġappeal": 6203,
      "Ġadvanced": 6204,
      "mond": 6205,
      "Ġhopes": 6206,
      "ÑĤ": 6207,
      "Ġcontrast": 6208,
      "ivered": 6209,
      "ĠMa": 6210,
      "Ġproced": 6211,
      "Ġprin": 6212,
      "Ġtomorrow": 6213,
      "Ġchoices": 6214,
      "aped": 6215,
      "ĠSpace": 6216,
      "abin": 6217,
      "Ġapproved": 6218,
      "ĠHel": 6219,
      "Ġkinds": 6220,
      "Ġconnected": 6221,
      "Ġputs": 6222,
      "Ġmand": 6223,
      "lyn": 6224,
      "ĠConserv": 6225,
      "arge": 6226,
      "ĠLeg": 6227,
      "ĠTry": 6228,
      "Ġtow": 6229,
      "Ġideal": 6230,
      "Ġregardless": 6231,
      "Ġflo": 6232,
      "agram": 6233,
      "Ġwithdraw": 6234,
      "SS": 6235,
      "anna": 6236,
      "Ġbrings": 6237,
      "Ġgather": 6238,
      "estyle": 6239,
      "Ġexplos": 6240,
      "ĠSaud": 6241,
      "Ġconducted": 6242,
      "Ġconsumers": 6243,
      "05": 6244,
      "Ġattempts": 6245,
      "Ġlikes": 6246,
      "Ġvoting": 6247,
      "ampionship": 6248,
      "oral": 6249,
      "Ġrank": 6250,
      "Ġcou": 6251,
      "rently": 6252,
      "Ġheight": 6253,
      "Ġtroops": 6254,
      "Ġ75": 6255,
      "Ġpayments": 6256,
      "Ġprivacy": 6257,
      "Ġdesk": 6258,
      "ĠAndrew": 6259,
      "ĠDevelop": 6260,
      "Ġholds": 6261,
      "anging": 6262,
      "Ġadults": 6263,
      "Ġcheaper": 6264,
      "Ġpregn": 6265,
      "ureau": 6266,
      "!!!": 6267,
      "Ġnic": 6268,
      "Ġrub": 6269,
      "angers": 6270,
      "Ġweapon": 6271,
      "ĠEs": 6272,
      "ĠDou": 6273,
      "Ġremained": 6274,
      "Ġdiscipl": 6275,
      "()": 6276,
      "ĠHuman": 6277,
      "Ġdismiss": 6278,
      "Ġcombination": 6279,
      "Ġsustain": 6280,
      "rawn": 6281,
      "Ġsimpl": 6282,
      "Ġemphas": 6283,
      "ĠGM": 6284,
      "Ġguide": 6285,
      "ĠComp": 6286,
      "Ġsucceed": 6287,
      "ĠSpr": 6288,
      "VER": 6289,
      "obe": 6290,
      "Ġchose": 6291,
      "ĠTechn": 6292,
      "Ġapartment": 6293,
      "otic": 6294,
      "ĠNOT": 6295,
      "Ġruling": 6296,
      "Ġitem": 6297,
      "Ġast": 6298,
      "Ġnobody": 6299,
      "oken": 6300,
      "ĠUnfortunately": 6301,
      "Ġusual": 6302,
      "Ġmonthly": 6303,
      "Ġrecorded": 6304,
      "ĠPerson": 6305,
      "Ġcurrency": 6306,
      "Ġtradition": 6307,
      "],": 6308,
      "rog": 6309,
      "Ġelected": 6310,
      "ĠNote": 6311,
      "Ġrenew": 6312,
      "org": 6313,
      "war": 6314,
      "ĠJackson": 6315,
      "Ġresponded": 6316,
      "Ġpushed": 6317,
      "Ġsaved": 6318,
      "Ġunlikely": 6319,
      "Ġ=>": 6320,
      "Ġstorm": 6321,
      "ĠCru": 6322,
      "Ġcolumn": 6323,
      "Ġtourn": 6324,
      "ĠReddit": 6325,
      "Ġsuffe": 6326,
      "hetic": 6327,
      "Ġmanufacture": 6328,
      "Ġrail": 6329,
      "Ġpounds": 6330,
      "Ġcurious": 6331,
      "Ġtypical": 6332,
      "Ġloans": 6333,
      "Ġ33": 6334,
      "ĠForce": 6335,
      "orders": 6336,
      "unction": 6337,
      ",'": 6338,
      "Ġdepart": 6339,
      "Ġmaterials": 6340,
      "ĠFar": 6341,
      "Can": 6342,
      "ĠOhio": 6343,
      "ilit": 6344,
      "Ġ1990": 6345,
      "Ġwidely": 6346,
      "Pro": 6347,
      "Ġpoliticians": 6348,
      "Ġguilty": 6349,
      "Ĥ¬": 6350,
      "Ġclar": 6351,
      "Ġfunny": 6352,
      "ologist": 6353,
      "water": 6354,
      "mates": 6355,
      "ĠScience": 6356,
      "Ġpanel": 6357,
      "Ġvolunte": 6358,
      "ĠTO": 6359,
      "ĠSign": 6360,
      "class": 6361,
      "Ġregime": 6362,
      "ĠNever": 6363,
      "ĠPlus": 6364,
      "anged": 6365,
      "Ġveget": 6366,
      "ĠIP": 6367,
      "ĠPac": 6368,
      "Ġcollabor": 6369,
      "uts": 6370,
      "ĠWilliam": 6371,
      "Ġanswers": 6372,
      "ĠGrand": 6373,
      "Ġgraph": 6374,
      "Ġcausing": 6375,
      "01": 6376,
      "Ġprompt": 6377,
      "Ġbarely": 6378,
      "osis": 6379,
      "Ġconsumer": 6380,
      "Ġbuildings": 6381,
      "Ġexplains": 6382,
      "ĠDani": 6383,
      "Ġtired": 6384,
      "Ġindepend": 6385,
      "da": 6386,
      "Ġsole": 6387,
      "Ġdeals": 6388,
      "Ġstatements": 6389,
      "ruption": 6390,
      "tending": 6391,
      "ĠFer": 6392,
      "Ġstruggling": 6393,
      "ocation": 6394,
      "ĠIll": 6395,
      "Ġessential": 6396,
      "Ġdepression": 6397,
      "Ġowned": 6398,
      "Ġru": 6399,
      "One": 6400,
      "Ġ195": 6401,
      "Ġchain": 6402,
      "Ġupdates": 6403,
      "Ġforever": 6404,
      "plom": 6405,
      "km": 6406,
      "uated": 6407,
      "Ġsituations": 6408,
      "ighters": 6409,
      "Ġurban": 6410,
      "ĠSeattle": 6411,
      "Ġfrequently": 6412,
      "Ġargued": 6413,
      "Ġartist": 6414,
      "Ġpowers": 6415,
      "bar": 6416,
      "42": 6417,
      "eline": 6418,
      "ĠID": 6419,
      "Ġdescribe": 6420,
      "Ġdial": 6421,
      "Ġcircumstances": 6422,
      "olit": 6423,
      "Ġenemy": 6424,
      "Ġhousehold": 6425,
      "Ġadds": 6426,
      "ĠCheck": 6427,
      "ĠBlue": 6428,
      "adow": 6429,
      "Ġ38": 6430,
      "Ġfilms": 6431,
      "ĠDirector": 6432,
      "Ġimmediate": 6433,
      "Ġdelivered": 6434,
      "Ġnumerous": 6435,
      "Ġhistorical": 6436,
      "Ġvaluable": 6437,
      "ĠBBC": 6438,
      "Un": 6439,
      "Ġpromise": 6440,
      "ĠSystem": 6441,
      "300": 6442,
      "ĠiPhone": 6443,
      "Ġfrustr": 6444,
      "Ġguest": 6445,
      "sing": 6446,
      "Ġcontains": 6447,
      "Ġnearby": 6448,
      "viously": 6449,
      "Ġfacts": 6450,
      "awn": 6451,
      "Ġpractices": 6452,
      "mosp": 6453,
      "Ġbutton": 6454,
      "road": 6455,
      "Ġ48": 6456,
      "Ġperformed": 6457,
      "Ġamounts": 6458,
      "ĠTurkey": 6459,
      "Ġphilosop": 6460,
      "MA": 6461,
      "ĠRoad": 6462,
      "abled": 6463,
      "Ġconsequences": 6464,
      "ĠWood": 6465,
      "Ġdrivers": 6466,
      "Ġreporting": 6467,
      "cos": 6468,
      "Ġcreation": 6469,
      "Ġwanting": 6470,
      "Ġauth": 6471,
      "ĠPenn": 6472,
      "Ġliberal": 6473,
      "New": 6474,
      "Ġfavour": 6475,
      "bel": 6476,
      "Ġgrown": 6477,
      "Ġtalent": 6478,
      "Ġaccurate": 6479,
      "respond": 6480,
      "DD": 6481,
      "asters": 6482,
      "Ġheads": 6483,
      "ĠCop": 6484,
      "alty": 6485,
      "Ġempty": 6486,
      "Ġexplo": 6487,
      "Ġmetal": 6488,
      "Ġadmitted": 6489,
      "Ġads": 6490,
      "ĠPakistan": 6491,
      "Ġstrange": 6492,
      "iency": 6493,
      "She": 6494,
      "Ġwatched": 6495,
      "arden": 6496,
      "Ġbright": 6497,
      "Ġinstitutions": 6498,
      "ati": 6499,
      "Ġgenuine": 6500,
      "ĠVict": 6501,
      "Ġemployee": 6502,
      "Ġhouses": 6503,
      "ĠVol": 6504,
      "Ġcommunication": 6505,
      "Ġdistribution": 6506,
      "gend": 6507,
      "Ġscheduled": 6508,
      "ĠJul": 6509,
      "Ġongoing": 6510,
      "ĠEr": 6511,
      "Ġdiscussed": 6512,
      "Ġexercises": 6513,
      "Ġpray": 6514,
      "Ġinterpret": 6515,
      "Ġaircraft": 6516,
      "Ġportion": 6517,
      "Ġentreprene": 6518,
      "Ġhat": 6519,
      "Ġsending": 6520,
      "Ġmoments": 6521,
      "Ġteaching": 6522,
      "Ġ37": 6523,
      "At": 6524,
      "Ġsuggestions": 6525,
      "ĠLabour": 6526,
      "Ġsquare": 6527,
      "Ġmotion": 6528,
      "Ġconscious": 6529,
      "Ġdoctors": 6530,
      "Ġisol": 6531,
      "Ġsuddenly": 6532,
      "Ġfaces": 6533,
      "Hi": 6534,
      "amily": 6535,
      "Ġcrypt": 6536,
      "Ġsongs": 6537,
      "Ġcopyright": 6538,
      "Ġ2003": 6539,
      "Ġarchitect": 6540,
      "date": 6541,
      "ĠLin": 6542,
      "ÃĤ": 6543,
      "Ġrequirements": 6544,
      "Ġdisappe": 6545,
      "ĠBraz": 6546,
      "Ġmyster": 6547,
      "press": 6548,
      "Ġboys": 6549,
      "ĠRod": 6550,
      "Ġdenied": 6551,
      "Ġsuffered": 6552,
      "ĠRon": 6553,
      "Ġpublicly": 6554,
      "Ġbills": 6555,
      "encing": 6556,
      "Ġdetailed": 6557,
      "Ġtransform": 6558,
      "Ġresident": 6559,
      "Ġplate": 6560,
      "Ġfalling": 6561,
      "Ġclassic": 6562,
      "elly": 6563,
      "estival": 6564,
      "Ġchannel": 6565,
      "Ġrisks": 6566,
      "Ġconstant": 6567,
      "Ġdecline": 6568,
      "Ġsam": 6569,
      "Ġcann": 6570,
      "Ġwrites": 6571,
      "luding": 6572,
      "Ġengaged": 6573,
      "TS": 6574,
      "Ġstim": 6575,
      "Ġfinance": 6576,
      "Ġmoral": 6577,
      "Ġproof": 6578,
      "ifting": 6579,
      "Ġteacher": 6580,
      "Ġmotor": 6581,
      "law": 6582,
      "ĠSher": 6583,
      "ĠKim": 6584,
      "Ġnav": 6585,
      "word": 6586,
      "64": 6587,
      "iques": 6588,
      "Ġtherapy": 6589,
      "Ġnormally": 6590,
      "Ġridic": 6591,
      "Ġ2001": 6592,
      "Com": 6593,
      "gia": 6594,
      "Ġwalked": 6595,
      "!)": 6596,
      "ĠRev": 6597,
      "mission": 6598,
      "Ġreplaced": 6599,
      "Ġabandon": 6600,
      "Ġacting": 6601,
      "Ġ34": 6602,
      "Ġfucking": 6603,
      "Ġfindings": 6604,
      "Ġrecover": 6605,
      "Ġadapt": 6606,
      "Ġresistance": 6607,
      "ĠTal": 6608,
      "Ġfollows": 6609,
      "Ġphen": 6610,
      "Ġspons": 6611,
      "Ġcup": 6612,
      "ums": 6613,
      "izz": 6614,
      "Ġsympt": 6615,
      "Con": 6616,
      "Ġlean": 6617,
      "ĠMount": 6618,
      "ĠTit": 6619,
      "Ġcriticism": 6620,
      "ĠHou": 6621,
      "Ġchamp": 6622,
      "ograph": 6623,
      "Ġextent": 6624,
      "Ġviolent": 6625,
      "ĠML": 6626,
      "ĠMax": 6627,
      "onest": 6628,
      "Ġguns": 6629,
      "Ġtaste": 6630,
      "Ġfewer": 6631,
      "Ġrising": 6632,
      "Ġupset": 6633,
      "level": 6634,
      "Ġsche": 6635,
      "nergy": 6636,
      "Ġbath": 6637,
      "ĠIre": 6638,
      "Ġbear": 6639,
      "Ġfashion": 6640,
      "Ġattrib": 6641,
      "%,": 6642,
      "ĠIF": 6643,
      "Ġcontribute": 6644,
      "ĠMichigan": 6645,
      "Ġexpectations": 6646,
      "Ġmainly": 6647,
      "ĠDiv": 6648,
      "ĠFig": 6649,
      "Ġsharp": 6650,
      "Ġorders": 6651,
      "Ġdedicated": 6652,
      "PD": 6653,
      "Ġrecommended": 6654,
      "Ġtheme": 6655,
      "Ġdeclined": 6656,
      "ĠReal": 6657,
      "olve": 6658,
      "Ġshots": 6659,
      "Ġreceiving": 6660,
      "Ġenjoyed": 6661,
      "Ġexcess": 6662,
      "ĠDisney": 6663,
      "Ġfold": 6664,
      "ician": 6665,
      "lla": 6666,
      "bal": 6667,
      "ua": 6668,
      "va": 6669,
      "ounded": 6670,
      "omin": 6671,
      "Ġequival": 6672,
      "ĠIns": 6673,
      "Ġgap": 6674,
      "Ġmi": 6675,
      "Ġmedic": 6676,
      "Ġmagn": 6677,
      "Ġdatab": 6678,
      "ĠWeek": 6679,
      "Ġagents": 6680,
      "ĠScot": 6681,
      "Ġiron": 6682,
      "Ġsuffering": 6683,
      "Ġreporters": 6684,
      "ĠFour": 6685,
      "Ġlimits": 6686,
      "ĠAnn": 6687,
      "ĠYear": 6688,
      "astern": 6689,
      "idal": 6690,
      "oop": 6691,
      "Ġdefinition": 6692,
      "ĠStan": 6693,
      "ĠFurther": 6694,
      "Ġsyn": 6695,
      "Ġreaders": 6696,
      "Ġenh": 6697,
      "Ġbonds": 6698,
      "Ġextended": 6699,
      "ĠHen": 6700,
      "Ġpal": 6701,
      "Ġstead": 6702,
      "gery": 6703,
      "acle": 6704,
      "Ġcomparison": 6705,
      "utral": 6706,
      "Ġsees": 6707,
      "nell": 6708,
      "ĠMen": 6709,
      "ferences": 6710,
      "Ġlucky": 6711,
      "Ġbroadcast": 6712,
      "Ġlifestyle": 6713,
      "Ġnewspaper": 6714,
      "iÃ": 6715,
      "Ġplot": 6716,
      "ĠSky": 6717,
      "Ġflood": 6718,
      "Ġcooper": 6719,
      "ĠRet": 6720,
      "Ġcraft": 6721,
      "Ġdefined": 6722,
      "Ġfranch": 6723,
      "Ġhighlight": 6724,
      "Ġtemperature": 6725,
      "Ġblame": 6726,
      "Ġearned": 6727,
      "Ġcrimes": 6728,
      "Ġstable": 6729,
      "Ġliquid": 6730,
      "Ġtip": 6731,
      "Ġsubsequ": 6732,
      "Ġlicense": 6733,
      "Ġboot": 6734,
      "Ġquit": 6735,
      "ĠBob": 6736,
      "Ġbird": 6737,
      "Ġobjects": 6738,
      "Ġplane": 6739,
      "Ġscenario": 6740,
      "Ġdepth": 6741,
      "rid": 6742,
      "west": 6743,
      "ĠId": 6744,
      ",[": 6745,
      "Ġexpansion": 6746,
      "Ġunem": 6747,
      "OC": 6748,
      "nic": 6749,
      "Ġimportance": 6750,
      "Ġincredible": 6751,
      "Ġautomatically": 6752,
      "ĠElect": 6753,
      "mitted": 6754,
      "Ġdogs": 6755,
      "ĠAfghanistan": 6756,
      "xy": 6757,
      "Ġweekly": 6758,
      "Ġexciting": 6759,
      "Ġshel": 6760,
      "Ġintent": 6761,
      "Ġexistence": 6762,
      "Ġhung": 6763,
      "itable": 6764,
      "Ġcaption": 6765,
      "Ġwarning": 6766,
      "Ġoblig": 6767,
      "ĠWr": 6768,
      "Ġparking": 6769,
      "Ġphase": 6770,
      "iveness": 6771,
      "ĠFinally": 6772,
      "Ãĥ": 6773,
      "Ġflu": 6774,
      "Ġdeclared": 6775,
      "Ġknee": 6776,
      "Ġinvited": 6777,
      "ĠSwed": 6778,
      "Ġfraud": 6779,
      "Ġlunch": 6780,
      "Ġwid": 6781,
      "II": 6782,
      "ĠCNN": 6783,
      "Ġ400": 6784,
      "ĠSk": 6785,
      "Cl": 6786,
      "ĠHas": 6787,
      "Ġsomebody": 6788,
      "resents": 6789,
      "ĠUkraine": 6790,
      "Ġcentre": 6791,
      "Ġ1980": 6792,
      "ĠLake": 6793,
      "called": 6794,
      "Ġfaced": 6795,
      "Ġsolve": 6796,
      "ĠShould": 6797,
      "ĠKenn": 6798,
      "sa": 6799,
      "Ġreviews": 6800,
      "Ġdiplom": 6801,
      "Ġelsewhere": 6802,
      "ora": 6803,
      "ĠCD": 6804,
      "rend": 6805,
      "born": 6806,
      "Ġ150": 6807,
      "arters": 6808,
      "ĠRam": 6809,
      "Ġeveryday": 6810,
      "ansas": 6811,
      "ĠWay": 6812,
      "aha": 6813,
      "esides": 6814,
      "ĠSar": 6815,
      "Ġda": 6816,
      "Ã¤": 6817,
      "Ġcomplicated": 6818,
      "Ġpic": 6819,
      "Ġtermin": 6820,
      "Ġmixed": 6821,
      "Ġeditor": 6822,
      "Ġreportedly": 6823,
      "ĠSaudi": 6824,
      "utors": 6825,
      "Ġwrit": 6826,
      "Ġencourage": 6827,
      "',": 6828,
      "Ġcommitment": 6829,
      "Ġtested": 6830,
      "Ġimpressive": 6831,
      "43": 6832,
      "Ġcarrying": 6833,
      "Ġnative": 6834,
      "Ġisland": 6835,
      "ĠCO": 6836,
      "Ġrecognize": 6837,
      "Ġversions": 6838,
      "Ġped": 6839,
      "ĠIreland": 6840,
      "viet": 6841,
      "Ġwave": 6842,
      "Ġwage": 6843,
      "oma": 6844,
      "Ġexplore": 6845,
      "Ġparticipants": 6846,
      "Ġbattery": 6847,
      "Ġoutput": 6848,
      "Ġfake": 6849,
      "ĠAsia": 6850,
      "ĠPrem": 6851,
      "greg": 6852,
      "ĠLook": 6853,
      "Ġstrict": 6854,
      "Ġcolleagues": 6855,
      "Ġtrib": 6856,
      "ĠItal": 6857,
      "Ġoffense": 6858,
      "Ġatmosp": 6859,
      "umber": 6860,
      "Ġupdated": 6861,
      "Ġstood": 6862,
      "Ġforth": 6863,
      "Ġentered": 6864,
      "essor": 6865,
      "Ġuncle": 6866,
      "ĠBrazil": 6867,
      "Ġbegins": 6868,
      "Ġalive": 6869,
      "ĠCy": 6870,
      "Ġpurs": 6871,
      "utor": 6872,
      "ument": 6873,
      "Ġtall": 6874,
      "Ġarmed": 6875,
      "Ġclosely": 6876,
      "Ġfunctions": 6877,
      "Ġsky": 6878,
      "look": 6879,
      "ĠOld": 6880,
      "Ġannouncement": 6881,
      "41": 6882,
      "Ġmail": 6883,
      "Ġserving": 6884,
      "Ġsentence": 6885,
      "Ġbasket": 6886,
      "Ġhardware": 6887,
      "Ġstring": 6888,
      "Ġregulations": 6889,
      "dis": 6890,
      "ilding": 6891,
      "ĠThree": 6892,
      "Ġ55": 6893,
      "uce": 6894,
      "ĠMuslims": 6895,
      "LC": 6896,
      "Ġlatter": 6897,
      "aybe": 6898,
      "ĠWas": 6899,
      "ĠColumb": 6900,
      "Ġcruc": 6901,
      "Ġschol": 6902,
      "tion": 6903,
      "Ġcontributions": 6904,
      "ĠUse": 6905,
      "ĠPay": 6906,
      "Ġmagazine": 6907,
      "PR": 6908,
      "aza": 6909,
      "Ġeverywhere": 6910,
      "ĠHarr": 6911,
      "Ġmanner": 6912,
      "Ġmilk": 6913,
      ",âĢĻ": 6914,
      "phy": 6915,
      "ĠBoy": 6916,
      "Ġsample": 6917,
      "Ġdegrees": 6918,
      "Ġreput": 6919,
      "ĠHouston": 6920,
      "Ġrepresents": 6921,
      "Ġ($": 6922,
      "Ġunus": 6923,
      "Ġ%": 6924,
      "Ġsubsid": 6925,
      "ensus": 6926,
      "Ġhits": 6927,
      "appy": 6928,
      "anges": 6929,
      "ideo": 6930,
      "Ġbatt": 6931,
      "Ġrarely": 6932,
      "month": 6933,
      "ĠCard": 6934,
      "ĠClub": 6935,
      "Ġrelax": 6936,
      "ĠColorado": 6937,
      "hus": 6938,
      "Ġhack": 6939,
      "ĠMot": 6940,
      "ĠOF": 6941,
      "ĠSoviet": 6942,
      "Ġlit": 6943,
      "Ġwarned": 6944,
      "isms": 6945,
      "Ġconven": 6946,
      "Ġaspects": 6947,
      "Ġnarrow": 6948,
      "ye": 6949,
      "Ġinspired": 6950,
      "Ġcompens": 6951,
      "ĠLo": 6952,
      "Ġresolution": 6953,
      "Ġham": 6954,
      "Ġsymbol": 6955,
      "ĠAI": 6956,
      "ĠWomen": 6957,
      "66": 6958,
      "Ġupcoming": 6959,
      "ĠGra": 6960,
      "Ġmagic": 6961,
      "Ġmaximum": 6962,
      "Ġplastic": 6963,
      "ÃŃ": 6964,
      "Ġwins": 6965,
      "Ġpassen": 6966,
      "Ġprofile": 6967,
      "Ġterrorist": 6968,
      "Ġforgot": 6969,
      "Ġpipe": 6970,
      "ceived": 6971,
      "Ġups": 6972,
      "Ġunderstood": 6973,
      "rition": 6974,
      "ĠMS": 6975,
      "Ġconver": 6976,
      "ĠSports": 6977,
      "85": 6978,
      "rive": 6979,
      "Ġrunner": 6980,
      "ĠDi": 6981,
      "Ġstrongly": 6982,
      "Ġvice": 6983,
      "Ġindustrial": 6984,
      "Ġactivists": 6985,
      "usal": 6986,
      "ĠEconom": 6987,
      "Ġhadn": 6988,
      "acc": 6989,
      "Ġevolution": 6990,
      "Ġcontest": 6991,
      "De": 6992,
      "Ġtargets": 6993,
      "Ġnetworks": 6994,
      "Ġcomprom": 6995,
      "Ġfundamental": 6996,
      "Ġradical": 6997,
      "Ġwonderful": 6998,
      "Ġdrag": 6999,
      "Ġtoler": 7000,
      "PU": 7001,
      "Ġcorrespond": 7002,
      "ĠEnter": 7003,
      "Ġinstru": 7004,
      "Ġnations": 7005,
      "Ġrum": 7006,
      "ĠFind": 7007,
      "ĠWik": 7008,
      "Ġacts": 7009,
      "Ġsecretary": 7010,
      "ĠCub": 7011,
      "Ġconfig": 7012,
      "FA": 7013,
      "Ġquarterback": 7014,
      "ĠBoard": 7015,
      "ĠEnd": 7016,
      "Ġconsistently": 7017,
      "Ġlies": 7018,
      "Ġdeeply": 7019,
      "Ġembr": 7020,
      "anes": 7021,
      "Ġobserv": 7022,
      "Ġdisagree": 7023,
      "ĠRomney": 7024,
      "Ġtruck": 7025,
      "mun": 7026,
      "ii": 7027,
      "athan": 7028,
      "Ġcampus": 7029,
      "Ġremark": 7030,
      "Ġhopefully": 7031,
      "ĠAriz": 7032,
      "Ġauthors": 7033,
      "TV": 7034,
      "ikes": 7035,
      "Ġallegations": 7036,
      "ĠFil": 7037,
      "Ñģ": 7038,
      "Ġthick": 7039,
      "ala": 7040,
      "Ġhall": 7041,
      "ĠHaving": 7042,
      "ĠKorean": 7043,
      "Ġangry": 7044,
      "Ġlawsuit": 7045,
      "ĠUlt": 7046,
      "ĠTurn": 7047,
      "iable": 7048,
      "Ġaggressive": 7049,
      "Ġ65": 7050,
      "ione": 7051,
      "pected": 7052,
      "Ġdesper": 7053,
      "ĠPolit": 7054,
      "Ġwire": 7055,
      "Ġfacility": 7056,
      "ĠYoung": 7057,
      "ĠYOU": 7058,
      "Ġdiscount": 7059,
      "asp": 7060,
      "Ġvirtual": 7061,
      "ERS": 7062,
      "alle": 7063,
      "Ġchat": 7064,
      "Ġfasc": 7065,
      "Ġfruit": 7066,
      "sters": 7067,
      "rum": 7068,
      "Ġsought": 7069,
      "Ġfitness": 7070,
      "ether": 7071,
      "Ġdu": 7072,
      "Ġ49": 7073,
      "rich": 7074,
      "Ġbat": 7075,
      "Ġdeveloper": 7076,
      "ĠView": 7077,
      "ĠSC": 7078,
      "sembly": 7079,
      "ĠChild": 7080,
      "Ġdance": 7081,
      "Ġelev": 7082,
      "400": 7083,
      "essed": 7084,
      "Ġ2002": 7085,
      "ĠDie": 7086,
      "Ġexposure": 7087,
      "ellect": 7088,
      "Ġtaught": 7089,
      "Ġsuicide": 7090,
      "Ġmeetings": 7091,
      "ĠJesus": 7092,
      "ador": 7093,
      "aa": 7094,
      "Ġacknowled": 7095,
      "oric": 7096,
      "Ġprimarily": 7097,
      "Ġgenerate": 7098,
      "ĠMic": 7099,
      "Ġthreats": 7100,
      "Ar": 7101,
      "ĠBook": 7102,
      "Ġincl": 7103,
      "Ð½": 7104,
      "Ġgovernor": 7105,
      "offs": 7106,
      "Ġformat": 7107,
      "Bl": 7108,
      "Ġdiscover": 7109,
      "Ġpin": 7110,
      "%)": 7111,
      "initely": 7112,
      "Ġteachers": 7113,
      "Ġteach": 7114,
      "ĠEric": 7115,
      "Ġscheme": 7116,
      "Ġexpression": 7117,
      "Ġlocations": 7118,
      "Ġintense": 7119,
      "ĠAuthor": 7120,
      "TA": 7121,
      "utch": 7122,
      "ĠAND": 7123,
      "iments": 7124,
      "Ġerr": 7125,
      "roit": 7126,
      "illance": 7127,
      "ĠWild": 7128,
      "Ġprohib": 7129,
      "Ġselection": 7130,
      "Ġpaint": 7131,
      "Ġdeaths": 7132,
      "ĠYeah": 7133,
      "Ġhire": 7134,
      "Ġpromote": 7135,
      "Ġking": 7136,
      "Ġspin": 7137,
      "ĠCharles": 7138,
      "ĠNBA": 7139,
      "ĠBarack": 7140,
      "Ġpump": 7141,
      "ĠSn": 7142,
      "ican": 7143,
      "Ġgoods": 7144,
      "Ġpurposes": 7145,
      "Ġdeploy": 7146,
      "gor": 7147,
      "ena": 7148,
      "ĠAff": 7149,
      "88": 7150,
      "Ġrally": 7151,
      "Ġimprovement": 7152,
      "Ġprogramming": 7153,
      "Ġdumb": 7154,
      "With": 7155,
      "ciples": 7156,
      "ĠISIS": 7157,
      "Ġminimal": 7158,
      "Ġcategory": 7159,
      "Every": 7160,
      "ĠIM": 7161,
      "ĠDam": 7162,
      "Ġexplanation": 7163,
      "Ġlistening": 7164,
      "Ġtox": 7165,
      "ĠHolly": 7166,
      "Ġsolutions": 7167,
      "Ġmanip": 7168,
      "ĠStand": 7169,
      "ĠGames": 7170,
      "ĠJews": 7171,
      "Ġhitting": 7172,
      "Ġexists": 7173,
      "Ġtargeted": 7174,
      "tenance": 7175,
      "apse": 7176,
      "Ġengage": 7177,
      "Ġdemocracy": 7178,
      "ĠKen": 7179,
      "Ġgear": 7180,
      "Ġending": 7181,
      "eck": 7182,
      "ĠStephen": 7183,
      "ĠAR": 7184,
      "Ġpra": 7185,
      "77": 7186,
      "Ġscored": 7187,
      "ĠValley": 7188,
      "ĠOK": 7189,
      "ĠClass": 7190,
      "Ġuniverse": 7191,
      "ĠEnergy": 7192,
      "Ġrow": 7193,
      "Ġfault": 7194,
      "ifications": 7195,
      "car": 7196,
      "Ġprecise": 7197,
      "Ġartists": 7198,
      "Ġopinions": 7199,
      "esters": 7200,
      "ĠVan": 7201,
      "Ġcru": 7202,
      "Ġkinda": 7203,
      "Ġannoy": 7204,
      "ĠNE": 7205,
      "Ġwhenever": 7206,
      "Ġsigning": 7207,
      "Ġstudio": 7208,
      "Ġengineering": 7209,
      "Ġvacc": 7210,
      "Ġhonor": 7211,
      "ĠEveryone": 7212,
      "Ġregional": 7213,
      "Ġinvested": 7214,
      "Ġconsumption": 7215,
      "rate": 7216,
      "Ġapproval": 7217,
      "Ġcareful": 7218,
      "Ġdivision": 7219,
      "Ġfantasy": 7220,
      "Ġlobby": 7221,
      "there": 7222,
      "Ġnewslet": 7223,
      "Ġunknown": 7224,
      "Ġphenomen": 7225,
      "tw": 7226,
      "Ġsurrounding": 7227,
      "Ġcontrolled": 7228,
      "Ġtransp": 7229,
      "Ġmatches": 7230,
      "Ġignore": 7231,
      "Ġstaying": 7232,
      "Ġposting": 7233,
      "Ġreferred": 7234,
      "Ġcos": 7235,
      "Ġblow": 7236,
      "edia": 7237,
      "bably": 7238,
      "Ġequivalent": 7239,
      "inem": 7240,
      "Ġfinds": 7241,
      "ĠCatholic": 7242,
      "Ġlift": 7243,
      "ÑĢ": 7244,
      "Ġtea": 7245,
      "Ġbars": 7246,
      "anish": 7247,
      "style": 7248,
      "Ġchances": 7249,
      "ĠPS": 7250,
      "ĠBusiness": 7251,
      "Ġalongside": 7252,
      "Ġvend": 7253,
      "Ġrepeatedly": 7254,
      "Ġwest": 7255,
      "Ġtort": 7256,
      "Ġshoulder": 7257,
      "Pe": 7258,
      "nam": 7259,
      "name": 7260,
      "Ġfemin": 7261,
      "Ġfir": 7262,
      "Ġcounsel": 7263,
      "rete": 7264,
      "imp": 7265,
      "ĠInf": 7266,
      "Ġsmooth": 7267,
      "Ġtied": 7268,
      "iger": 7269,
      "Ġrom": 7270,
      "ĠDar": 7271,
      "Ġju": 7272,
      "ĠRights": 7273,
      "Ġporn": 7274,
      "Ġrig": 7275,
      "ĠCast": 7276,
      "ĠKevin": 7277,
      "ĠPan": 7278,
      "Ġdriven": 7279,
      "ĠMarket": 7280,
      "Ġprotected": 7281,
      "Ġapolog": 7282,
      "Ġbreath": 7283,
      "ĠDavis": 7284,
      "ĠKar": 7285,
      "Ġhole": 7286,
      "abb": 7287,
      "Ġoutcome": 7288,
      "Ġsoul": 7289,
      "Ġ2020": 7290,
      "Ġemployment": 7291,
      "irlf": 7292,
      "FP": 7293,
      "Ġapproximately": 7294,
      "Ġlosses": 7295,
      "Ġancient": 7296,
      "ĠLord": 7297,
      "Ġmedium": 7298,
      "ĠTay": 7299,
      "Ġcompare": 7300,
      "ĠArizona": 7301,
      "ship": 7302,
      "Ġcompete": 7303,
      "erry": 7304,
      "vy": 7305,
      "aze": 7306,
      "Ġattempted": 7307,
      "ÃĤÃĥ": 7308,
      "Ġequity": 7309,
      "agan": 7310,
      "Ġescape": 7311,
      "Ġprotests": 7312,
      "Ġparliament": 7313,
      "Ġletting": 7314,
      "ĠPutin": 7315,
      "Ġadministr": 7316,
      "Ġformed": 7317,
      "TH": 7318,
      "tle": 7319,
      "ĠBrad": 7320,
      "front": 7321,
      "celer": 7322,
      "Ġbitcoin": 7323,
      "Our": 7324,
      "Ġblind": 7325,
      "Ġorganized": 7326,
      "ĠJord": 7327,
      "ĠDaniel": 7328,
      "ï¿": 7329,
      "ĠPy": 7330,
      "ĠWater": 7331,
      "ĠArch": 7332,
      "atell": 7333,
      "ĠCompany": 7334,
      "Ġmotivation": 7335,
      "ibilities": 7336,
      "Ġshopping": 7337,
      "Ġrecommendations": 7338,
      "Ġfasting": 7339,
      "Ġchest": 7340,
      "Ġwebsites": 7341,
      "Ġsurvive": 7342,
      "Ġtank": 7343,
      "Ġgained": 7344,
      "Ġconfront": 7345,
      "Ġsquat": 7346,
      "Ġcontroversial": 7347,
      "ĠBat": 7348,
      "Ġdestroyed": 7349,
      "Ġarguments": 7350,
      "Ġmath": 7351,
      "Ġfeatured": 7352,
      "Ġrunners": 7353,
      "Ġpriority": 7354,
      "Ġfantastic": 7355,
      "Ġallegedly": 7356,
      "ĠCall": 7357,
      "Ġpersonality": 7358,
      "Ġsurgery": 7359,
      "iner": 7360,
      "Ġdistract": 7361,
      "Ã¶": 7362,
      "Ġtrees": 7363,
      "chers": 7364,
      "Ġbreaks": 7365,
      "Ġretain": 7366,
      "Ġfields": 7367,
      "Ġmainstream": 7368,
      "Ġunp": 7369,
      "Ġratio": 7370,
      "andal": 7371,
      "rated": 7372,
      "Ġhabits": 7373,
      "ĠSure": 7374,
      "Ġpremium": 7375,
      "ĠHR": 7376,
      "boy": 7377,
      "asts": 7378,
      "cling": 7379,
      "uma": 7380,
      "ko": 7381,
      "sole": 7382,
      "Ġshipping": 7383,
      "ĠFord": 7384,
      "Ġblocks": 7385,
      "Ġsalt": 7386,
      "Ġ39": 7387,
      "Ġopponent": 7388,
      "Ġchosen": 7389,
      "ĠStory": 7390,
      "Ġexposed": 7391,
      "ello": 7392,
      "ogen": 7393,
      "Ġadvertising": 7394,
      "rooms": 7395,
      "Ġphr": 7396,
      "ĠHor": 7397,
      "Ġmuscles": 7398,
      "ĠJava": 7399,
      "ĠCruz": 7400,
      "door": 7401,
      "ĠDefense": 7402,
      "ockey": 7403,
      "Ġprofession": 7404,
      "Ġevil": 7405,
      "ĠLight": 7406,
      "game": 7407,
      "obb": 7408,
      "lix": 7409,
      "Ġboat": 7410,
      "ĠCIA": 7411,
      "Ġcolors": 7412,
      "Ġrequests": 7413,
      "Ġ2019": 7414,
      "Ġeast": 7415,
      "Ġflying": 7416,
      "ĠItaly": 7417,
      "unning": 7418,
      "ĠEll": 7419,
      "Ġfigured": 7420,
      "ĠContin": 7421,
      "Ġrape": 7422,
      "Ġsupports": 7423,
      "DS": 7424,
      "Ġincorpor": 7425,
      "onymous": 7426,
      "athy": 7427,
      "Ġimmigrants": 7428,
      "Ġredd": 7429,
      "Ġvib": 7430,
      "Ġobserved": 7431,
      "aser": 7432,
      "Ġtournament": 7433,
      "Ġneck": 7434,
      "oration": 7435,
      "uls": 7436,
      "ĠDetroit": 7437,
      "Ã¼": 7438,
      "Ġstruck": 7439,
      "redit": 7440,
      "ĠPalestinian": 7441,
      "Ġinvolving": 7442,
      "Ġtracking": 7443,
      "Ġpromised": 7444,
      "Ġcoordin": 7445,
      "ishment": 7446,
      "Ġunw": 7447,
      "verty": 7448,
      "Ġlaid": 7449,
      "utter": 7450,
      "Ġmerely": 7451,
      "ĠWars": 7452,
      "âĢĺ": 7453,
      "Ġsight": 7454,
      "67": 7455,
      "Ġagenda": 7456,
      "Ġvary": 7457,
      "Ġterritory": 7458,
      "ographic": 7459,
      "Ġfab": 7460,
      "ingu": 7461,
      "Ġconclusion": 7462,
      "ester": 7463,
      "iami": 7464,
      "Ġticket": 7465,
      "VE": 7466,
      "ĠTem": 7467,
      "Ġmovements": 7468,
      "ĠMiller": 7469,
      "abis": 7470,
      "ĠShare": 7471,
      "awa": 7472,
      "Ġraising": 7473,
      "Ġnaturally": 7474,
      "Ġpoverty": 7475,
      "oster": 7476,
      "ĠPen": 7477,
      "ï¿½": 7478,
      "08": 7479,
      "Ġdepos": 7480,
      "Ġ42": 7481,
      "ĠFood": 7482,
      "Ġmachines": 7483,
      "Ġcontinuing": 7484,
      "ĠSuch": 7485,
      "ĠSource": 7486,
      "Ġbid": 7487,
      "etime": 7488,
      "Ġsufficient": 7489,
      "Ġhired": 7490,
      "ĠCould": 7491,
      "Ġfriendly": 7492,
      "Ġanticip": 7493,
      "Ġdump": 7494,
      "Ġinterviews": 7495,
      "obile": 7496,
      "fire": 7497,
      "ĠCamer": 7498,
      "Ġtrained": 7499,
      "cho": 7500,
      "Ġsacr": 7501,
      "ĠSpanish": 7502,
      "Ġfocusing": 7503,
      "âĢĻ.": 7504,
      "ĠBa": 7505,
      "ulture": 7506,
      "Ġhip": 7507,
      "Ġthin": 7508,
      "adel": 7509,
      "ĠOrgan": 7510,
      "Ġgaming": 7511,
      "09": 7512,
      "Ġselected": 7513,
      "Ġloud": 7514,
      "ĠVis": 7515,
      "owered": 7516,
      "CE": 7517,
      "Ġsymptoms": 7518,
      "Ġtechnique": 7519,
      "ĠLuc": 7520,
      "ĠAsian": 7521,
      "ĠKn": 7522,
      "Ġroot": 7523,
      "ns": 7524,
      "Ġpenalty": 7525,
      "ilarly": 7526,
      "ĠCam": 7527,
      "Ġtrigger": 7528,
      "Ġgang": 7529,
      "ĠNASA": 7530,
      "Ġhyd": 7531,
      "Ġraw": 7532,
      "Ġfulf": 7533,
      "ĠTest": 7534,
      "Ġaver": 7535,
      "def": 7536,
      "ĠWilson": 7537,
      "stone": 7538,
      "des": 7539,
      "isp": 7540,
      "Ġformal": 7541,
      "inder": 7542,
      "aug": 7543,
      "ĠDark": 7544,
      "tes": 7545,
      "Ġ1970": 7546,
      "Ġfranchise": 7547,
      "ÃĤÃĥÃĤÃĥ": 7548,
      "kg": 7549,
      "Ġtons": 7550,
      "ĠMu": 7551,
      "maid": 7552,
      "Ġhyper": 7553,
      "ĠThus": 7554,
      "HA": 7555,
      "ĠBell": 7556,
      "ĠLand": 7557,
      "American": 7558,
      "Ġcontracts": 7559,
      "Ġprofits": 7560,
      "apes": 7561,
      "Ġclaiming": 7562,
      "Ġletters": 7563,
      "Ġofficially": 7564,
      "Ġexhib": 7565,
      "ĠCross": 7566,
      "Ġextensive": 7567,
      "Ġpeak": 7568,
      "Ġwinner": 7569,
      "Ġties": 7570,
      "ĠNight": 7571,
      "ĠON": 7572,
      "RS": 7573,
      "burg": 7574,
      "Ġasset": 7575,
      "Ġattacked": 7576,
      "ĠÎ": 7577,
      "Ġlights": 7578,
      "ĠAli": 7579,
      "sex": 7580,
      "Ġren": 7581,
      "ras": 7582,
      "ĠSS": 7583,
      "LY": 7584,
      "uous": 7585,
      "Ġpled": 7586,
      "Ġphones": 7587,
      "allas": 7588,
      "Ġtechniques": 7589,
      "Ġdescription": 7590,
      "Ġfo": 7591,
      "ĠLink": 7592,
      "ser": 7593,
      "ĠDead": 7594,
      "azi": 7595,
      "ĠDun": 7596,
      "Ġneutral": 7597,
      "Ġpatterns": 7598,
      "Ġregistered": 7599,
      "zens": 7600,
      "Ġmad": 7601,
      "actions": 7602,
      "Ġchallenging": 7603,
      "iser": 7604,
      "ĠSpecial": 7605,
      "zy": 7606,
      "ĠCome": 7607,
      "Ġ!": 7608,
      "Ġdozen": 7609,
      "Ġsuccessfully": 7610,
      "Ġboxes": 7611,
      "lder": 7612,
      "Ġinformed": 7613,
      "ĠAh": 7614,
      "orted": 7615,
      "Ġpurchased": 7616,
      "Ġmaintenance": 7617,
      "Some": 7618,
      "ĠBrian": 7619,
      "Ġbother": 7620,
      "Ġbrides": 7621,
      "Ġdates": 7622,
      "ĠAdam": 7623,
      "owed": 7624,
      "ura": 7625,
      "ĠHard": 7626,
      "Ġelite": 7627,
      "ushing": 7628,
      "Ġkil": 7629,
      "Ġcongress": 7630,
      "Ġdowntown": 7631,
      "ĠUt": 7632,
      "Ġdatabase": 7633,
      "Ġrely": 7634,
      "ashes": 7635,
      "ĠAmong": 7636,
      "Ġthousand": 7637,
      "pes": 7638,
      "acket": 7639,
      "Ġencoun": 7640,
      "ĠCat": 7641,
      "aire": 7642,
      "Ð¾Ð": 7643,
      "Ġborrow": 7644,
      "Ġdefeat": 7645,
      "Ġmistakes": 7646,
      "kel": 7647,
      "ushed": 7648,
      "Ġnorthern": 7649,
      "Ġpermanent": 7650,
      "Ġtur": 7651,
      "Ġharass": 7652,
      "ĠTes": 7653,
      "Ġextension": 7654,
      "Ġestimates": 7655,
      "Ġfacilities": 7656,
      "Ġjoke": 7657,
      "ĠHollywood": 7658,
      "Ġcable": 7659,
      "Ġdrawn": 7660,
      "Ġacademic": 7661,
      "Ġopponents": 7662,
      "Ġsurveillance": 7663,
      "ĠCare": 7664,
      "gender": 7665,
      "inity": 7666,
      "ĠMid": 7667,
      "ĠJordan": 7668,
      "Ġrejected": 7669,
      "ĠGeorgia": 7670,
      "Ġchairman": 7671,
      "'.": 7672,
      "uction": 7673,
      "lock": 7674,
      "Ġpsychology": 7675,
      "Ġkm": 7676,
      "ĠWithout": 7677,
      "interest": 7678,
      "Ġtag": 7679,
      "Ġcontem": 7680,
      "duce": 7681,
      "haust": 7682,
      "Ġprepare": 7683,
      "ĠJr": 7684,
      "ĠMiami": 7685,
      "Ġenthus": 7686,
      "Ġintellect": 7687,
      "Ġassistance": 7688,
      "Ġretired": 7689,
      "sell": 7690,
      "Ġdeficit": 7691,
      "Ġweigh": 7692,
      "Ġvillage": 7693,
      "Ġwine": 7694,
      "02": 7695,
      "ĠSet": 7696,
      "lv": 7697,
      "Ġinqu": 7698,
      "Ġcasual": 7699,
      "ĠHot": 7700,
      "07": 7701,
      "Ġcrucial": 7702,
      "ĠAdminist": 7703,
      "Ġbrew": 7704,
      "Ġrecip": 7705,
      "Ġlists": 7706,
      "Ġreaching": 7707,
      "Ġroles": 7708,
      "Ġreply": 7709,
      "Ġcontributed": 7710,
      "Ġuncertain": 7711,
      "Ġcow": 7712,
      "ĠFull": 7713,
      "itar": 7714,
      "Ġplug": 7715,
      "Ġassistant": 7716,
      "Ġpractical": 7717,
      "68": 7718,
      "ĠList": 7719,
      "Ġelectricity": 7720,
      "Ġloose": 7721,
      "ials": 7722,
      "Ġcrack": 7723,
      "Ġaudio": 7724,
      "iform": 7725,
      "ĠCost": 7726,
      "ogan": 7727,
      "ĠETF": 7728,
      "Ġbroker": 7729,
      "atural": 7730,
      "Ġseats": 7731,
      "ĠFre": 7732,
      "Ġinvite": 7733,
      "ĠHun": 7734,
      "even": 7735,
      "Ġdelivery": 7736,
      "Ġconvin": 7737,
      "ĠSteven": 7738,
      "arrass": 7739,
      "Ġprocesses": 7740,
      "Ġcompre": 7741,
      "hs": 7742,
      "Ġengagement": 7743,
      "ĠSociety": 7744,
      "Ġreception": 7745,
      "Ġregions": 7746,
      "oose": 7747,
      "ĠCarl": 7748,
      "Ġsignal": 7749,
      "kings": 7750,
      "woman": 7751,
      "Ġpodcast": 7752,
      "ĠReview": 7753,
      "Ġcounty": 7754,
      "Ġhide": 7755,
      "Ġdirected": 7756,
      "Ġoperate": 7757,
      "ĠLabor": 7758,
      "Ġregret": 7759,
      "Ġalter": 7760,
      "Ġillness": 7761,
      "Ġdistinct": 7762,
      "Ġanybody": 7763,
      "Ġabortion": 7764,
      "ĠVictor": 7765,
      "59": 7766,
      "04": 7767,
      "Ġparticipate": 7768,
      "Ġrefugees": 7769,
      "Ġhidden": 7770,
      "Ġaffili": 7771,
      "active": 7772,
      "ĠGall": 7773,
      "Ġworker": 7774,
      "Ġreturning": 7775,
      "ucky": 7776,
      "ĠClick": 7777,
      "Ġimproving": 7778,
      "itarian": 7779,
      "Ġnarrative": 7780,
      "axy": 7781,
      "abs": 7782,
      "Ġswim": 7783,
      "ĠIrish": 7784,
      "Ġmyth": 7785,
      "Ġemployer": 7786,
      "cend": 7787,
      "sm": 7788,
      "Ġjun": 7789,
      "Ġmac": 7790,
      "Ġfed": 7791,
      "ules": 7792,
      "Ġbub": 7793,
      "ao": 7794,
      "log": 7795,
      "irlfriend": 7796,
      "orough": 7797,
      "Donald": 7798,
      "Ġinvent": 7799,
      "Ġfounder": 7800,
      "Ġinev": 7801,
      "Ġbot": 7802,
      "Ġcapture": 7803,
      "Ġentit": 7804,
      "ĠOper": 7805,
      "Ġthrowing": 7806,
      "ĠJersey": 7807,
      "Your": 7808,
      "igation": 7809,
      "Ġphysically": 7810,
      "inson": 7811,
      "ĠBeing": 7812,
      "Ġearnings": 7813,
      "Ġbridge": 7814,
      "pool": 7815,
      "Ġdating": 7816,
      "Ġdeleg": 7817,
      "eding": 7818,
      "who": 7819,
      "they": 7820,
      "Ġjoy": 7821,
      "Ġadmit": 7822,
      "ĠEduc": 7823,
      "EE": 7824,
      "ĠDO": 7825,
      "Ġsouthern": 7826,
      "Ġho": 7827,
      "gorith": 7828,
      "Ġtail": 7829,
      "Ġparam": 7830,
      "Ġincent": 7831,
      "Ġcomponents": 7832,
      "cuit": 7833,
      "Ġgall": 7834,
      "Ġutil": 7835,
      "Ġcommunications": 7836,
      "?)": 7837,
      "Ġpicking": 7838,
      "ĠLew": 7839,
      "ĠNick": 7840,
      "GBT": 7841,
      "ĠDig": 7842,
      "ĠAgency": 7843,
      "Ġfoundation": 7844,
      "ĠProt": 7845,
      "Ġstayed": 7846,
      "Ġresulting": 7847,
      "Ġchecking": 7848,
      "Ġdeck": 7849,
      "Ġstom": 7850,
      "Ġflaw": 7851,
      "Ġbrut": 7852,
      "lements": 7853,
      "idelines": 7854,
      "olt": 7855,
      "Ġillustr": 7856,
      "rimination": 7857,
      "Ġchicken": 7858,
      "Ġterrorism": 7859,
      "power": 7860,
      "Pl": 7861,
      "ĠColl": 7862,
      "Ġobtained": 7863,
      "Ġestimate": 7864,
      "Ġstudying": 7865,
      "made": 7866,
      "ĠItalian": 7867,
      "Ġsmoke": 7868,
      "Ġassuming": 7869,
      "Ġarrange": 7870,
      "Ġstations": 7871,
      "alo": 7872,
      "orge": 7873,
      "Ġprotesters": 7874,
      "Ġreveal": 7875,
      "Ġdict": 7876,
      "Ġgranted": 7877,
      "Ġdim": 7878,
      "Ġdifferently": 7879,
      "izon": 7880,
      "Ġbonus": 7881,
      "ĠSea": 7882,
      "hent": 7883,
      "Ġreputation": 7884,
      "ĠThink": 7885,
      "ĠTri": 7886,
      "ĠProgram": 7887,
      "Ġcolon": 7888,
      "Ġphilosophy": 7889,
      "Ġstab": 7890,
      "Ġguarantee": 7891,
      "Ġfiction": 7892,
      "ĠWH": 7893,
      "57": 7894,
      "Ġchampion": 7895,
      "Ġtracks": 7896,
      "Ġdemands": 7897,
      "eping": 7898,
      "06": 7899,
      "ĠDNA": 7900,
      "rep": 7901,
      "Ġcontrols": 7902,
      "ali": 7903,
      "Man": 7904,
      "ĠMoore": 7905,
      "ATE": 7906,
      "Ġcreates": 7907,
      "ĠSpain": 7908,
      "Ġfirms": 7909,
      "ĠAcadem": 7910,
      "etary": 7911,
      "ĠNetwork": 7912,
      "Ġsquad": 7913,
      "oret": 7914,
      "ĠLive": 7915,
      "regon": 7916,
      "ML": 7917,
      "ĠAttorney": 7918,
      "wan": 7919,
      "Ġrecon": 7920,
      "ĠUsing": 7921,
      "Ġbread": 7922,
      "ĠBru": 7923,
      "ĠOrig": 7924,
      "Ġicon": 7925,
      "Ġallies": 7926,
      "Ġthreatened": 7927,
      "lights": 7928,
      "Ġouts": 7929,
      "Ġemissions": 7930,
      "chain": 7931,
      "Ġmanufacturing": 7932,
      "rec": 7933,
      "Ġoverse": 7934,
      "Ġexplicit": 7935,
      "cow": 7936,
      "Ġcock": 7937,
      "Ġproven": 7938,
      "Ġproductive": 7939,
      "Ġcritics": 7940,
      "erts": 7941,
      "Ġtoxic": 7942,
      "fortable": 7943,
      "Ġprivile": 7944,
      "Ġconvinced": 7945,
      "ĠRog": 7946,
      "Ġexception": 7947,
      "Ġatmosphere": 7948,
      "lessly": 7949,
      "Ġdrawing": 7950,
      "ĠDallas": 7951,
      "ĠLear": 7952,
      "mate": 7953,
      "Ġtape": 7954,
      "irts": 7955,
      "ĠJosh": 7956,
      "alend": 7957,
      "Ġnomine": 7958,
      "intend": 7959,
      "azz": 7960,
      "Ġexternal": 7961,
      "ĠScotland": 7962,
      "owa": 7963,
      "Ġtechnologies": 7964,
      "Ġjournalists": 7965,
      "nesota": 7966,
      "Ġcondem": 7967,
      "Ġfifth": 7968,
      "NC": 7969,
      "Ġdeeper": 7970,
      "Ġoverwhelming": 7971,
      "ĪĴ": 7972,
      "ĠServices": 7973,
      "Ġwheel": 7974,
      "Ġsubredd": 7975,
      "Ġroads": 7976,
      "ĠIndeed": 7977,
      "Ġpasses": 7978,
      "Ġimper": 7979,
      "ĠOs": 7980,
      "Ġtor": 7981,
      "Ġactively": 7982,
      "Ġmileage": 7983,
      "ĠSouthern": 7984,
      "itty": 7985,
      "Ġprinciples": 7986,
      "Ġexhaust": 7987,
      "ĠJoseph": 7988,
      "Ġquote": 7989,
      "Ġmic": 7990,
      "Ġattitude": 7991,
      "Ġemotions": 7992,
      "ba": 7993,
      "Ġexpense": 7994,
      "onestly": 7995,
      "Ġsetup": 7996,
      "ĠRay": 7997,
      "ĠGiven": 7998,
      "ĠTurk": 7999,
      "ĠConf": 8000,
      "Ġownership": 8001,
      "onic": 8002,
      "AY": 8003,
      "Ġcaptured": 8004,
      "Ġburd": 8005,
      "Ġbaseball": 8006,
      "Ġconnections": 8007,
      "away": 8008,
      "post": 8009,
      "Ġwestern": 8010,
      "Ġrecall": 8011,
      "ĠWhether": 8012,
      "ĠBull": 8013,
      "Ġattended": 8014,
      "Ġtitles": 8015,
      "Ġje": 8016,
      "EA": 8017,
      "rypt": 8018,
      "ogether": 8019,
      "Ġdisaster": 8020,
      "Ġcomplaint": 8021,
      "Ġresponses": 8022,
      "fection": 8023,
      "Photo": 8024,
      "VP": 8025,
      "Ġworldwide": 8026,
      "istent": 8027,
      "Ġinsight": 8028,
      "Ġmurd": 8029,
      "ĠHistory": 8030,
      "03": 8031,
      "Ġfinger": 8032,
      "Ġunusual": 8033,
      "Ġnewly": 8034,
      "elf": 8035,
      "Ġdebut": 8036,
      "Ġruled": 8037,
      "Ġconfused": 8038,
      "Ġinfect": 8039,
      "ĠOS": 8040,
      "Ġcake": 8041,
      "Ġsuggesting": 8042,
      "cus": 8043,
      "text": 8044,
      "Ġpulling": 8045,
      "Ġextract": 8046,
      "Ġreferring": 8047,
      "Ġreducing": 8048,
      "Ġbeliefs": 8049,
      "ifies": 8050,
      "Ġworkouts": 8051,
      "78": 8052,
      "Ġrelief": 8053,
      "Ġvisible": 8054,
      "ĠAnth": 8055,
      "Ġdoors": 8056,
      "Ġunex": 8057,
      "Ġlets": 8058,
      "Ġhaha": 8059,
      "ĠCivil": 8060,
      "ĠWin": 8061,
      "inations": 8062,
      "........": 8063,
      "Ġpolls": 8064,
      "Ġconstit": 8065,
      "ĠNHL": 8066,
      "Ġasks": 8067,
      "ey": 8068,
      "Good": 8069,
      "Ġhel": 8070,
      "anny": 8071,
      "Ġvit": 8072,
      "Ġdamn": 8073,
      "iary": 8074,
      "Ġterr": 8075,
      "ĠNothing": 8076,
      "Ġembarrass": 8077,
      "ĠTony": 8078,
      "jection": 8079,
      "ĠTaylor": 8080,
      "Ġshower": 8081,
      "star": 8082,
      "ĠData": 8083,
      "Ġgenerated": 8084,
      "Ġgrade": 8085,
      "Ġhardly": 8086,
      "Ġsmell": 8087,
      "weet": 8088,
      "Ġvulnerable": 8089,
      "Ġnerv": 8090,
      "Ġmel": 8091,
      "Ġrepeat": 8092,
      "ĠAS": 8093,
      "Ġgrass": 8094,
      "Ġversus": 8095,
      "imal": 8096,
      "IR": 8097,
      "lers": 8098,
      "Ġvisited": 8099,
      "emic": 8100,
      "iler": 8101,
      "Are": 8102,
      "Ġpermission": 8103,
      "iro": 8104,
      "Ġsuffer": 8105,
      "ĠSenator": 8106,
      "Ġmarked": 8107,
      "bour": 8108,
      "Ġappreciated": 8109,
      "Ġinnoc": 8110,
      "Ġacceler": 8111,
      "Ġachieved": 8112,
      "Ġcourts": 8113,
      "Ġsuspic": 8114,
      "Ġsensitive": 8115,
      "âĸ": 8116,
      "Any": 8117,
      "Ġreps": 8118,
      "Ġow": 8119,
      "ĠKelly": 8120,
      "Ġactor": 8121,
      "sea": 8122,
      "Ġnoise": 8123,
      "58": 8124,
      "Ġrival": 8125,
      "Ġdynamic": 8126,
      "Ġprinciple": 8127,
      "Ġlawyers": 8128,
      "ĠMinnesota": 8129,
      "Ġbutter": 8130,
      "Ġbreakfast": 8131,
      "Ġrating": 8132,
      "Ġduty": 8133,
      "Ġproved": 8134,
      "ĠMajor": 8135,
      "ĠCA": 8136,
      "Ġgreatly": 8137,
      "ĠCH": 8138,
      "ĠBuff": 8139,
      "ĠNations": 8140,
      "Ġscenes": 8141,
      "PM": 8142,
      "Ġingred": 8143,
      "udes": 8144,
      "ĠGlobal": 8145,
      "Ġmonit": 8146,
      "Ġwriters": 8147,
      "Ġplatforms": 8148,
      "ĠFund": 8149,
      "ĠLA": 8150,
      "oding": 8151,
      "Ġlogic": 8152,
      "phones": 8153,
      "Ġinsane": 8154,
      "otted": 8155,
      "Ġtroub": 8156,
      "Ġinstalled": 8157,
      "Ġattached": 8158,
      "ĠForeign": 8159,
      "itals": 8160,
      "69": 8161,
      "inos": 8162,
      "cific": 8163,
      "BRE": 8164,
      "ĠHell": 8165,
      "fall": 8166,
      "Ġaimed": 8167,
      "Ġscream": 8168,
      "Ġrecording": 8169,
      "iana": 8170,
      "Ġcream": 8171,
      "Ġ44": 8172,
      "ĠOregon": 8173,
      "Ġconcluded": 8174,
      "Ġtut": 8175,
      "Ġmood": 8176,
      "phia": 8177,
      "prise": 8178,
      "Ġcollected": 8179,
      "Ġcovers": 8180,
      "erm": 8181,
      "ĠFort": 8182,
      "Ġpilot": 8183,
      "Ġfighters": 8184,
      "Ġobst": 8185,
      "ima": 8186,
      "rat": 8187,
      "Ġaccommod": 8188,
      "ĠGreek": 8189,
      "Ġimprovements": 8190,
      "Ġshortly": 8191,
      "Ġequally": 8192,
      "ĠThrough": 8193,
      "Ġepisodes": 8194,
      "ĠSeries": 8195,
      "isan": 8196,
      "Ġreduction": 8197,
      "Ġtickets": 8198,
      "Ġalgorith": 8199,
      "pat": 8200,
      "ĠFC": 8201,
      "ĠAsh": 8202,
      "Ġauto": 8203,
      "ingers": 8204,
      "Ġ64": 8205,
      "Ġmeals": 8206,
      "Ġgrant": 8207,
      "Ġenemies": 8208,
      "Ġwalls": 8209,
      "Ġstability": 8210,
      "ĠESP": 8211,
      "People": 8212,
      "Ġinspir": 8213,
      "Ġclubs": 8214,
      "Ġconversations": 8215,
      "Ġcontribution": 8216,
      "Ġprovince": 8217,
      "Ġhandful": 8218,
      "Ġrestrictions": 8219,
      "ĠRoman": 8220,
      "ĠBalt": 8221,
      "Ġabsor": 8222,
      "Ġcogn": 8223,
      "ĠEvent": 8224,
      "opp": 8225,
      "Ġ47": 8226,
      "ĠCre": 8227,
      "piracy": 8228,
      "Ġbuff": 8229,
      "era": 8230,
      "Ġwarming": 8231,
      "ĠNBC": 8232,
      "ĠPoint": 8233,
      "Ġbutt": 8234,
      "Ġenorm": 8235,
      "ĠGreg": 8236,
      "riends": 8237,
      "ĠInstagram": 8238,
      "Ġclosing": 8239,
      "Ġkitchen": 8240,
      "Ġcomponent": 8241,
      "bn": 8242,
      "Ġfailing": 8243,
      "Ġhypot": 8244,
      "ĠJason": 8245,
      "ĠSever": 8246,
      "Ġdeserve": 8247,
      "UR": 8248,
      "Ġcha": 8249,
      "ĠCoast": 8250,
      "Ġscrew": 8251,
      "Ġbrowser": 8252,
      "Ġrepresented": 8253,
      "Ġbottle": 8254,
      "ĠReport": 8255,
      "ĠMcG": 8256,
      "ĠCir": 8257,
      "Ġprocessing": 8258,
      "Ġwww": 8259,
      "itionally": 8260,
      "Ġmayor": 8261,
      "Ġrental": 8262,
      "Ġ1999": 8263,
      "))": 8264,
      "These": 8265,
      "Ġyours": 8266,
      "Ġridiculous": 8267,
      "idency": 8268,
      "nders": 8269,
      "ĠSa": 8270,
      "Ġbacked": 8271,
      "Ġlicens": 8272,
      "Ġanger": 8273,
      "Ġslower": 8274,
      "Ġresource": 8275,
      "Ġenable": 8276,
      "found": 8277,
      "ĠRa": 8278,
      "Ġ99": 8279,
      "Ġdefine": 8280,
      "Ġgross": 8281,
      "week": 8282,
      "ĠHa": 8283,
      "Ġsatell": 8284,
      "ĠLittle": 8285,
      "don": 8286,
      "Ġminority": 8287,
      "iate": 8288,
      "ĠFollowing": 8289,
      "Ġlifting": 8290,
      "making": 8291,
      "ĠNob": 8292,
      "Ġresulted": 8293,
      "Ġextrem": 8294,
      "flix": 8295,
      "Ġlying": 8296,
      "Ġcomputers": 8297,
      "umes": 8298,
      "Ġbanned": 8299,
      "ĠPacific": 8300,
      "Ġproport": 8301,
      "Ġaccompan": 8302,
      "Ġhealthcare": 8303,
      "ĠNC": 8304,
      "itter": 8305,
      "ĠTesla": 8306,
      "ĠDemocrat": 8307,
      "Ġgig": 8308,
      "Ġexceed": 8309,
      "onsin": 8310,
      "from": 8311,
      "Ġunfortunately": 8312,
      "Ġuncomfortable": 8313,
      "ĠFoot": 8314,
      "Ġpocket": 8315,
      "Ġairport": 8316,
      "agger": 8317,
      "ĠZeal": 8318,
      "Ġpursue": 8319,
      "Ġclinical": 8320,
      "Ġdozens": 8321,
      "Se": 8322,
      "Ġsuspend": 8323,
      "han": 8324,
      "ĠViet": 8325,
      "Ġthrown": 8326,
      "isconsin": 8327,
      "Ġdescribes": 8328,
      "Ġwise": 8329,
      "ĠDevelopment": 8330,
      "Ġmountain": 8331,
      "Ġbelt": 8332,
      "fr": 8333,
      "Ġholiday": 8334,
      "Ġtone": 8335,
      "Ġrack": 8336,
      "adelphia": 8337,
      "ĠRick": 8338,
      "ĠVery": 8339,
      "Ġfro": 8340,
      "ĠKey": 8341,
      "FF": 8342,
      "eto": 8343,
      "Ġadopted": 8344,
      "Ġshr": 8345,
      "oga": 8346,
      "ria": 8347,
      "Ġlandsc": 8348,
      "ĠJun": 8349,
      "Ġsumm": 8350,
      "uing": 8351,
      "profit": 8352,
      "Ġentering": 8353,
      "Ġindicate": 8354,
      "uan": 8355,
      "Ġreporter": 8356,
      "Ġtransit": 8357,
      "Ġ41": 8358,
      "pel": 8359,
      "ĠLinux": 8360,
      "Ġshirt": 8361,
      "ĠLGBT": 8362,
      "bered": 8363,
      "ĠConstitution": 8364,
      "89": 8365,
      "Ġcoalition": 8366,
      "Ġreddit": 8367,
      "Ġheaded": 8368,
      "yard": 8369,
      "worth": 8370,
      "ĠAmend": 8371,
      "ĠNorthern": 8372,
      "cue": 8373,
      "ifted": 8374,
      "mes": 8375,
      "Ġbehaviour": 8376,
      "Ġscared": 8377,
      "56": 8378,
      "Ġamend": 8379,
      "ĠEp": 8380,
      "mont": 8381,
      "core": 8382,
      "anchester": 8383,
      "ĠEverything": 8384,
      "ĠÃ¨": 8385,
      "ĠFA": 8386,
      "ĠPot": 8387,
      "ĠHit": 8388,
      "Ġ43": 8389,
      "low": 8390,
      "Ġflash": 8391,
      "Ġinner": 8392,
      "Ġtiming": 8393,
      "Ġtransportation": 8394,
      "Ġgirlfriend": 8395,
      "Ġtie": 8396,
      "ĠEastern": 8397,
      "emen": 8398,
      "Ġbasketball": 8399,
      "Ġcorrectly": 8400,
      "Ġstrategies": 8401,
      "Ġsynt": 8402,
      "Ġcomic": 8403,
      "GE": 8404,
      "</": 8405,
      "ĠHarry": 8406,
      "Ġveteran": 8407,
      "Ġcance": 8408,
      "obs": 8409,
      "Ġrational": 8410,
      "Ġcyber": 8411,
      "Ġriver": 8412,
      "Ġtemporary": 8413,
      "By": 8414,
      "ĠFair": 8415,
      ">>": 8416,
      "Ġlowest": 8417,
      "DR": 8418,
      "iscal": 8419,
      "ounce": 8420,
      "ugh": 8421,
      ".\"[": 8422,
      "ologists": 8423,
      "Ġshock": 8424,
      "Ġdrama": 8425,
      "Ġsty": 8426,
      "ĠSnow": 8427,
      "working": 8428,
      "ĠHenry": 8429,
      "Ġtackle": 8430,
      "Ġhanging": 8431,
      "Ġspark": 8432,
      "Ġcameras": 8433,
      "ĠKent": 8434,
      "Ġrepro": 8435,
      "ĠJac": 8436,
      "MS": 8437,
      "Ġswing": 8438,
      "only": 8439,
      "Ġlocked": 8440,
      "ĠArm": 8441,
      "Ġdisorder": 8442,
      "Ġaffordable": 8443,
      "Ġroster": 8444,
      "Ġplain": 8445,
      "Ġgraduate": 8446,
      "Ġprincip": 8447,
      "hh": 8448,
      "ĠHad": 8449,
      "Ġgam": 8450,
      "Ġhook": 8451,
      "ĠPsych": 8452,
      "including": 8453,
      "zing": 8454,
      "ĠMir": 8455,
      "Ġcabin": 8456,
      "ĠMusic": 8457,
      "DDIT": 8458,
      "Ġcarefully": 8459,
      "rett": 8460,
      "Ġinvolves": 8461,
      "Ġscreens": 8462,
      "600": 8463,
      "BREDDIT": 8464,
      "Ġmedicine": 8465,
      "Ġremem": 8466,
      "Ġhiring": 8467,
      "Ġrural": 8468,
      "Ġtables": 8469,
      "usions": 8470,
      "hr": 8471,
      "Ġminds": 8472,
      "Ġlayer": 8473,
      "Ġunemployment": 8474,
      "SUBREDDIT": 8475,
      "Ġprominent": 8476,
      "Ġshame": 8477,
      "ĠMoscow": 8478,
      "Ġchecked": 8479,
      "Ġinterface": 8480,
      "rage": 8481,
      "ĠSO": 8482,
      "aron": 8483,
      "Ġinvestor": 8484,
      "800": 8485,
      "ĠParliament": 8486,
      "========": 8487,
      "Ġloves": 8488,
      "ĠIowa": 8489,
      "Ġhorse": 8490,
      "ĠHT": 8491,
      "Ġcited": 8492,
      "52": 8493,
      "ocolate": 8494,
      "Ġbom": 8495,
      "Ġnervous": 8496,
      "Ġpropag": 8497,
      "Ġawareness": 8498,
      "Ġacid": 8499,
      "Ġhistoric": 8500,
      "esy": 8501,
      "Ġfought": 8502,
      "Ġreliable": 8503,
      "Ġedition": 8504,
      "char": 8505,
      "ĠSat": 8506,
      "ĠNavy": 8507,
      "Ġchildhood": 8508,
      "wered": 8509,
      "âĢĻ,": 8510,
      "Ġmenu": 8511,
      "rets": 8512,
      "Ġelig": 8513,
      "ĠThings": 8514,
      "Ġbail": 8515,
      "pson": 8516,
      "thew": 8517,
      "Ġeggs": 8518,
      "ĠWisconsin": 8519,
      "Ġspaces": 8520,
      "Ġpapers": 8521,
      "Ġcheese": 8522,
      "ĠAlab": 8523,
      "ĠOak": 8524,
      "ĠKir": 8525,
      "ĠVideo": 8526,
      "ito": 8527,
      "Ġregister": 8528,
      "Ġproducing": 8529,
      "page": 8530,
      "ĠJudge": 8531,
      "oured": 8532,
      "ĠPhiladelphia": 8533,
      "Ġsmoking": 8534,
      "inating": 8535,
      "ĠLow": 8536,
      "Ġreplacement": 8537,
      "Ġlawmakers": 8538,
      "Ġrose": 8539,
      "Ġcra": 8540,
      "Ġbehalf": 8541,
      "Ġrecognized": 8542,
      "Ġ_": 8543,
      "Ġmonitor": 8544,
      "ĠNon": 8545,
      "Ġclothing": 8546,
      "Ġdeliber": 8547,
      "ĠEmail": 8548,
      "jo": 8549,
      "Ġnegotiations": 8550,
      "pread": 8551,
      "\")": 8552,
      "pending": 8553,
      "App": 8554,
      "ĠMain": 8555,
      "ĠAtlanta": 8556,
      "Ġ95": 8557,
      "ounced": 8558,
      "Ġstatistics": 8559,
      "reedom": 8560,
      "Ġracial": 8561,
      "Ġentertainment": 8562,
      "ĠZealand": 8563,
      "Ġsilver": 8564,
      "ĠBowl": 8565,
      "86": 8566,
      "Ġrolling": 8567,
      "ca": 8568,
      "world": 8569,
      "yo": 8570,
      "Ġfalls": 8571,
      "ormal": 8572,
      "Ġlanguages": 8573,
      "owned": 8574,
      "Ġshorter": 8575,
      "athered": 8576,
      "Ġcoc": 8577,
      "Ġimplementation": 8578,
      "rical": 8579,
      "Ġjoining": 8580,
      "UL": 8581,
      "Ġsearching": 8582,
      "ĠRemember": 8583,
      "ĠHead": 8584,
      "Ġpossession": 8585,
      "Ġexclusive": 8586,
      "ĠRand": 8587,
      "Ġrapidly": 8588,
      "Ġsteel": 8589,
      "Ġloyal": 8590,
      "HS": 8591,
      "Ġbranch": 8592,
      "ĠLu": 8593,
      "ĠSir": 8594,
      "Ġstrikes": 8595,
      "imm": 8596,
      "Ġstone": 8597,
      "Ġstomach": 8598,
      "Ġcollapse": 8599,
      "Ġpersonnel": 8600,
      "plete": 8601,
      "bro": 8602,
      "ĠMoh": 8603,
      "ĠStat": 8604,
      "Ġrush": 8605,
      "ystem": 8606,
      "teen": 8607,
      "Ġcorruption": 8608,
      "Ġbra": 8609,
      "ĠAvenue": 8610,
      "Ġsessions": 8611,
      "pie": 8612,
      "Ġagric": 8613,
      "ĠâĢĻ": 8614,
      "Ġtaxpay": 8615,
      "ho": 8616,
      "iversary": 8617,
      "BO": 8618,
      "Ġperiods": 8619,
      "Ġmanaging": 8620,
      "Ġaer": 8621,
      "ĠBry": 8622,
      "olen": 8623,
      "Ġdefence": 8624,
      "ĠKurd": 8625,
      "Ġburning": 8626,
      "Ġocean": 8627,
      "ĠAge": 8628,
      "Ġtries": 8629,
      "ĠManchester": 8630,
      "riers": 8631,
      "ĠEducation": 8632,
      "bi": 8633,
      "mann": 8634,
      "Ġcrop": 8635,
      "ĠLy": 8636,
      "RI": 8637,
      "ĠNation": 8638,
      "Ġexpecting": 8639,
      "gun": 8640,
      "alendar": 8641,
      "izza": 8642,
      "Ġcannabis": 8643,
      "ĠProfessor": 8644,
      "Ġassign": 8645,
      "hour": 8646,
      "inding": 8647,
      "osexual": 8648,
      "Ġconcrete": 8649,
      "aska": 8650,
      "Ġ46": 8651,
      "Ġsubstantial": 8652,
      "hot": 8653,
      "quarters": 8654,
      "150": 8655,
      "cal": 8656,
      "Ġmotivated": 8657,
      "ĠIce": 8658,
      "Ġcelebrate": 8659,
      "Ġwing": 8660,
      "Ġtill": 8661,
      "ĠMars": 8662,
      "Ġuniform": 8663,
      "ĠRoyal": 8664,
      "cut": 8665,
      "54": 8666,
      "ĠAlabama": 8667,
      "ĠNic": 8668,
      "ami": 8669,
      "Ġsubjects": 8670,
      "ãĢ": 8671,
      "Ġwages": 8672,
      "ĠRose": 8673,
      "Ġattractive": 8674,
      "Ġfootage": 8675,
      "Ġindependence": 8676,
      "ja": 8677,
      "Ġintake": 8678,
      "Ġdiscour": 8679,
      "ucked": 8680,
      "Ġperpet": 8681,
      "ĠAng": 8682,
      "Ġphotographer": 8683,
      "backs": 8684,
      "Ġemerged": 8685,
      "oen": 8686,
      "ilton": 8687,
      "ĠSeveral": 8688,
      "Ġracing": 8689,
      "ĠNone": 8690,
      "ni": 8691,
      "ĠInde": 8692,
      "plate": 8693,
      "Ġheading": 8694,
      "Ġdivor": 8695,
      "ĠVi": 8696,
      "MP": 8697,
      "asion": 8698,
      "ĠPop": 8699,
      "Ġfits": 8700,
      "Ġbeach": 8701,
      "Ġfarmers": 8702,
      "olis": 8703,
      "gener": 8704,
      "Ġchapter": 8705,
      "ustration": 8706,
      "ĠPrice": 8707,
      "Ġcorporations": 8708,
      "Ġpoly": 8709,
      "53": 8710,
      "Ġcomprehens": 8711,
      "Ġfounded": 8712,
      "Ġultimate": 8713,
      "Ġnotion": 8714,
      "Ġsanctions": 8715,
      "orne": 8716,
      "ested": 8717,
      "cience": 8718,
      "aters": 8719,
      "Ġ52": 8720,
      "Ġattempting": 8721,
      "Ġbirthday": 8722,
      "Ġlegend": 8723,
      "Ġalarm": 8724,
      "Ġcalm": 8725,
      "Ġdecor": 8726,
      "Ġstructures": 8727,
      "Ġsorts": 8728,
      "Ġsettings": 8729,
      "ĠDiego": 8730,
      "Ġbrown": 8731,
      "Ġdomain": 8732,
      "ĠInformation": 8733,
      "amber": 8734,
      "Ġplates": 8735,
      "cuse": 8736,
      "pire": 8737,
      "Ġchecks": 8738,
      "Ġrestaurants": 8739,
      "Ġflexibility": 8740,
      "ĠRos": 8741,
      "aed": 8742,
      "ĠFamily": 8743,
      "Go": 8744,
      "Ġfool": 8745,
      "ateful": 8746,
      "ĠBon": 8747,
      "ĠPack": 8748,
      "ĠHay": 8749,
      "::": 8750,
      "lad": 8751,
      "yes": 8752,
      "ĠBad": 8753,
      "uros": 8754,
      "ĠGi": 8755,
      "illiant": 8756,
      "Ġcomplaints": 8757,
      "Ġlegitimate": 8758,
      "Ġtear": 8759,
      "ĠMayor": 8760,
      "Ġships": 8761,
      "Ġdude": 8762,
      "Ġdrinks": 8763,
      "ĠED": 8764,
      "Ġsuggestion": 8765,
      "Ġ->": 8766,
      "PC": 8767,
      "imore": 8768,
      "Ġprogressive": 8769,
      "hop": 8770,
      "Ġbab": 8771,
      "iti": 8772,
      "Ġcontaining": 8773,
      "Ġbullet": 8774,
      "Ġease": 8775,
      "een": 8776,
      "Ġfears": 8777,
      "thon": 8778,
      "Ġdiscussions": 8779,
      "azy": 8780,
      "ĠRen": 8781,
      "Ġsurf": 8782,
      "elect": 8783,
      "Ġawful": 8784,
      "Ġentr": 8785,
      "bow": 8786,
      "ĠPremier": 8787,
      "ĠVR": 8788,
      "Ġcircle": 8789,
      "Ġscoring": 8790,
      "Ġthrew": 8791,
      "ĠReuters": 8792,
      "Ġscholars": 8793,
      "grad": 8794,
      "ĠLind": 8795,
      "Ġclock": 8796,
      "Ġreven": 8797,
      "ulating": 8798,
      "Ġcarbs": 8799,
      "orie": 8800,
      "twitter": 8801,
      "burgh": 8802,
      "idespread": 8803,
      "Ġsolo": 8804,
      "Ġrobot": 8805,
      "Ġforest": 8806,
      "Ġcampaigns": 8807,
      "Ġstadium": 8808,
      "Ġassociation": 8809,
      "Ġrooms": 8810,
      "Ġbrands": 8811,
      "Ġlad": 8812,
      "ĠOnt": 8813,
      "ĠAustin": 8814,
      "ĠPu": 8815,
      "Ġramp": 8816,
      "Ġfactory": 8817,
      "ĠScient": 8818,
      "Ġblank": 8819,
      "Ġdresses": 8820,
      "ĠAmendment": 8821,
      "Ġreverse": 8822,
      "ht": 8823,
      "Ġmemories": 8824,
      "Ġ1000": 8825,
      "Ġelectronic": 8826,
      "Ġnutrition": 8827,
      "Ġ1960": 8828,
      "Ġgenetic": 8829,
      "Ġgrip": 8830,
      "Ġracist": 8831,
      "ĠTotal": 8832,
      "Ġintellectual": 8833,
      "plus": 8834,
      "kward": 8835,
      "Ġrecognition": 8836,
      "ĠShort": 8837,
      "ĠField": 8838,
      "lbs": 8839,
      "________________": 8840,
      "Me": 8841,
      "~~": 8842,
      "Ġscores": 8843,
      "Ġhorror": 8844,
      "Ġhomeless": 8845,
      "Ġupgrade": 8846,
      "++": 8847,
      "ĠPatrick": 8848,
      "oving": 8849,
      "cks": 8850,
      "lly": 8851,
      "Ġgent": 8852,
      "Ġ120": 8853,
      "amsung": 8854,
      "lan": 8855,
      "Ã³": 8856,
      "rolled": 8857,
      "high": 8858,
      "ĠSeason": 8859,
      "aping": 8860,
      "Ġma": 8861,
      "igen": 8862,
      "Ġlanding": 8863,
      "ĠBattle": 8864,
      "Ġignored": 8865,
      "ĠAdministration": 8866,
      "Ġsmile": 8867,
      "ĠSix": 8868,
      "Ġframework": 8869,
      "Ġ1998": 8870,
      "Ġcouples": 8871,
      "Or": 8872,
      "Ġvacation": 8873,
      "ĠAdv": 8874,
      "arms": 8875,
      "Ġproducer": 8876,
      "ouver": 8877,
      "Ġbridesmaid": 8878,
      "Ġreads": 8879,
      "ĠVegas": 8880,
      "ĠRadio": 8881,
      "oning": 8882,
      "ĠAcademy": 8883,
      "Ġdivers": 8884,
      "51": 8885,
      "case": 8886,
      "ĠMatthew": 8887,
      "Ġsheet": 8888,
      "Ġcontained": 8889,
      "Ġbegun": 8890,
      "Ġhorrible": 8891,
      "ĠNetflix": 8892,
      "ounding": 8893,
      "uties": 8894,
      "Ġestablishment": 8895,
      "Ġexit": 8896,
      "Ġfrag": 8897,
      "98": 8898,
      "ĠABC": 8899,
      "leep": 8900,
      "oked": 8901,
      "ictions": 8902,
      "Ġdying": 8903,
      "ĠPass": 8904,
      "ĠExper": 8905,
      "Ġunclear": 8906,
      "Ġwarrant": 8907,
      "Getty": 8908,
      "ĠEngine": 8909,
      "ĠTurkish": 8910,
      "Ġjournalist": 8911,
      "Ġmeaningful": 8912,
      "comes": 8913,
      "Ġdust": 8914,
      "ĠJay": 8915,
      "Ġbrothers": 8916,
      "ĠCore": 8917,
      "Ġdiscrimination": 8918,
      "Ġexclus": 8919,
      "Ġlux": 8920,
      "Ġ00": 8921,
      "Ġdramatic": 8922,
      "ĠLooking": 8923,
      "Ġwider": 8924,
      "ĠSpring": 8925,
      "omed": 8926,
      "ĠMedical": 8927,
      "ĠMaster": 8928,
      "Ġregulation": 8929,
      "Ġsamples": 8930,
      "Ġsoph": 8931,
      "Ġefficiency": 8932,
      "Ġserves": 8933,
      "fund": 8934,
      "Ġdevast": 8935,
      "Ġstake": 8936,
      "Ġalien": 8937,
      "Ġ250": 8938,
      "otype": 8939,
      "Ġdestruction": 8940,
      "Ġovers": 8941,
      "Ġindicated": 8942,
      "Ġliterature": 8943,
      "ĠExt": 8944,
      "Ġcovering": 8945,
      "Ġassumed": 8946,
      "ĠKat": 8947,
      "ĠBeach": 8948,
      "Ġsubreddit": 8949,
      "ĠRus": 8950,
      "Qu": 8951,
      "Ġrepresentative": 8952,
      "Ġaccomplish": 8953,
      "dem": 8954,
      "Ġdiscipline": 8955,
      "ĠBM": 8956,
      "Ġroof": 8957,
      "Ġcoaches": 8958,
      "Ġrespectively": 8959,
      "umer": 8960,
      "ĠCommunity": 8961,
      "etts": 8962,
      "Ġconventional": 8963,
      "Ġimportantly": 8964,
      "Ġstruggled": 8965,
      "Ġpresum": 8966,
      "Ġwealthy": 8967,
      "Ġflowers": 8968,
      "inge": 8969,
      "ĠLater": 8970,
      "ĠMcCain": 8971,
      "Ġstrategic": 8972,
      "cover": 8973,
      "ĠRelated": 8974,
      "Ġfallen": 8975,
      "ĠUnt": 8976,
      "Ġsupplies": 8977,
      "CS": 8978,
      "CA": 8979,
      "Ġpill": 8980,
      "Ġdelic": 8981,
      "ĠKansas": 8982,
      "stract": 8983,
      "Ġbias": 8984,
      "ĠGov": 8985,
      "ĠiP": 8986,
      "ĠDev": 8987,
      "Ġbuck": 8988,
      "Ġlbs": 8989,
      "ĠiOS": 8990,
      "ĠESPN": 8991,
      "Ġcous": 8992,
      "Ġaddressed": 8993,
      "Ok": 8994,
      "ancouver": 8995,
      "ĠTenn": 8996,
      "ji": 8997,
      "Ġathletes": 8998,
      "Image": 8999,
      "Ġmanagers": 9000,
      "Ġuna": 9001,
      "Ġhandling": 9002,
      "orse": 9003,
      "Ġvital": 9004,
      "Ġsettlement": 9005,
      "Ġhint": 9006,
      "ching": 9007,
      "Ġblast": 9008,
      "ĠKingdom": 9009,
      "ĠExpl": 9010,
      "bec": 9011,
      "ĠObviously": 9012,
      "Ġseemingly": 9013,
      "oval": 9014,
      "Ġyellow": 9015,
      "Int": 9016,
      "Ġcounts": 9017,
      "Ġprev": 9018,
      "ez": 9019,
      "sylv": 9020,
      "Ġwhereas": 9021,
      "Ġmoon": 9022,
      "ĠAud": 9023,
      "Ġconvince": 9024,
      "Ġimplemented": 9025,
      "ï¸": 9026,
      "Ġoccasionally": 9027,
      "aka": 9028,
      "ĠSU": 9029,
      "ĠSomething": 9030,
      "ĠAllen": 9031,
      "Ġstudied": 9032,
      "Ġvirtually": 9033,
      "ĠAnthony": 9034,
      "ĠWW": 9035,
      "Ġarrive": 9036,
      "gins": 9037,
      "Ġbeauty": 9038,
      "ĠConference": 9039,
      "ĠOl": 9040,
      "Ġovert": 9041,
      "ĠBernie": 9042,
      "Ġsemi": 9043,
      "ĠTown": 9044,
      "heast": 9045,
      "Ġmini": 9046,
      "Ġhappiness": 9047,
      "asty": 9048,
      "Ġwidespread": 9049,
      "Ġauthent": 9050,
      "Ġtransactions": 9051,
      "hesis": 9052,
      "Ġunderlying": 9053,
      "Ġdisrupt": 9054,
      "ĠSanta": 9055,
      "ĠNAT": 9056,
      "Ġengineer": 9057,
      "yer": 9058,
      "ĠConsider": 9059,
      "Ġartific": 9060,
      "Ġtopics": 9061,
      "ĠMORE": 9062,
      "Ġwelf": 9063,
      "Ġproductivity": 9064,
      "Ġinvolvement": 9065,
      "iture": 9066,
      "ĠCentre": 9067,
      "Ġtraveling": 9068,
      "Here": 9069,
      "Ġsteady": 9070,
      "Ġpsychological": 9071,
      "Ġinitiative": 9072,
      "ĠDave": 9073,
      "ĠAnyone": 9074,
      "iano": 9075,
      "mal": 9076,
      "ĠLim": 9077,
      "Ġparalle": 9078,
      "ĠBudd": 9079,
      "Ġhanded": 9080,
      "ĠâĤ¬": 9081,
      "Ġperforming": 9082,
      "ĠChristians": 9083,
      "ĠUFC": 9084,
      "arring": 9085,
      "Ġwelfare": 9086,
      "250": 9087,
      "igare": 9088,
      "Ġunexpected": 9089,
      "ï¸ı": 9090,
      "Ġmutual": 9091,
      "Ġcitizen": 9092,
      "Ġinvestigate": 9093,
      "necess": 9094,
      "Ġintervention": 9095,
      "eman": 9096,
      "97": 9097,
      "igate": 9098,
      "Ġspoken": 9099,
      "Ġrings": 9100,
      "rome": 9101,
      "Ġassessment": 9102,
      "ĠSquare": 9103,
      "Ġenormous": 9104,
      "Ġusage": 9105,
      "ĠPolicy": 9106,
      "ĠBall": 9107,
      "after": 9108,
      "Ġfiscal": 9109,
      "rection": 9110,
      "Ġfunded": 9111,
      "Ġbow": 9112,
      "Ġcompe": 9113,
      "sylvania": 9114,
      "Ġchoosing": 9115,
      "Ġans": 9116,
      "Ġawkward": 9117,
      "Ġtonight": 9118,
      "Ġdiscovery": 9119,
      "Ġmeasured": 9120,
      "After": 9121,
      "erted": 9122,
      "ĠMuch": 9123,
      "Ġethnic": 9124,
      "sels": 9125,
      "Ġtu": 9126,
      "ĠGT": 9127,
      "Ġthorough": 9128,
      "Ġproviders": 9129,
      "Ġnominee": 9130,
      "Ġsuck": 9131,
      "ptions": 9132,
      "dri": 9133,
      "iel": 9134,
      "Ġvisitors": 9135,
      "ĠAnton": 9136,
      "Ġwars": 9137,
      "Ġbump": 9138,
      "ĠProv": 9139,
      "Ġconvicted": 9140,
      "WS": 9141,
      "Ġpays": 9142,
      "ĠDivision": 9143,
      "ĠBrother": 9144,
      "iences": 9145,
      "ĠPA": 9146,
      "ĠDesign": 9147,
      "Ġskept": 9148,
      "Ġsleeping": 9149,
      "Ġconsideration": 9150,
      "Ġdish": 9151,
      "atively": 9152,
      "Ġarray": 9153,
      "Ġrice": 9154,
      "Ġrealistic": 9155,
      "Ġbadly": 9156,
      "ammed": 9157,
      "Ġviewers": 9158,
      "?!": 9159,
      "umin": 9160,
      "Ġbacter": 9161,
      "Ġdiam": 9162,
      "Ġcooking": 9163,
      "Ġviewed": 9164,
      "ĠGreece": 9165,
      "Ġstartup": 9166,
      "Ġstops": 9167,
      "IF": 9168,
      "achus": 9169,
      "Ġspots": 9170,
      "ental": 9171,
      "ĠBrew": 9172,
      "Ġstages": 9173,
      "Ġwanna": 9174,
      "abet": 9175,
      "ĠWalker": 9176,
      "Ġhumanity": 9177,
      "dy": 9178,
      "Ġages": 9179,
      "87": 9180,
      "Ġemployed": 9181,
      "Ġmining": 9182,
      "Ġhoney": 9183,
      "Ġwindows": 9184,
      "Ġwra": 9185,
      "ĠUber": 9186,
      "cies": 9187,
      "Ġorient": 9188,
      "estion": 9189,
      "ĠSamsung": 9190,
      "Ġcourses": 9191,
      "Ġtab": 9192,
      "Ġdesigns": 9193,
      "ĠCameron": 9194,
      "Ġcleaning": 9195,
      "ĠAPI": 9196,
      "ĠEqu": 9197,
      "ources": 9198,
      "Ġmechanism": 9199,
      "uming": 9200,
      "Ġlegally": 9201,
      "istically": 9202,
      "ĠAle": 9203,
      "Ġgathered": 9204,
      "Ġfabric": 9205,
      "ĠMah": 9206,
      "Ġdreams": 9207,
      "Ġincom": 9208,
      "Ġshout": 9209,
      "ĠVancouver": 9210,
      "Ġoffices": 9211,
      "ĠNSA": 9212,
      "ĠBaltimore": 9213,
      "Ġbug": 9214,
      "ĠGolden": 9215,
      "aware": 9216,
      "Ġencouraged": 9217,
      "Ġgifts": 9218,
      "Ãł": 9219,
      "Ġcompeting": 9220,
      "Maybe": 9221,
      "igrant": 9222,
      "Ġvirus": 9223,
      "ĠPennsylvania": 9224,
      "Ġstack": 9225,
      "mad": 9226,
      "good": 9227,
      "Ġreplied": 9228,
      "ixed": 9229,
      "ml": 9230,
      "ando": 9231,
      "zed": 9232,
      "Ġtransaction": 9233,
      "Ġhungry": 9234,
      "Ġtent": 9235,
      "Ġmakeup": 9236,
      "Ġtestim": 9237,
      "ĠKnow": 9238,
      "Ġspiritual": 9239,
      "Ġcollective": 9240,
      "ĠBal": 9241,
      "ĠStone": 9242,
      "ĠQueen": 9243,
      "Ġdiversity": 9244,
      "Ġirre": 9245,
      "ĠDeath": 9246,
      "Ġmarks": 9247,
      "Ġgut": 9248,
      "ĠRoss": 9249,
      "mind": 9250,
      "Ġgrav": 9251,
      "ĠSwit": 9252,
      "Ġexplaining": 9253,
      "Ġdiverse": 9254,
      "Ġbulk": 9255,
      "Ġinches": 9256,
      "mill": 9257,
      "Ġexpanded": 9258,
      "holders": 9259,
      "Ġvisiting": 9260,
      "Ġfilter": 9261,
      "Ġmentally": 9262,
      "Ġgro": 9263,
      "mi": 9264,
      "Ġraises": 9265,
      "Ġgrounds": 9266,
      "Ġpron": 9267,
      "âĢ¦.": 9268,
      "Ġprotocol": 9269,
      "ĠEnvironment": 9270,
      "Ġdifficulty": 9271,
      "Ġencounter": 9272,
      "Ġsubur": 9273,
      "Ġlapt": 9274,
      "Ġpreferred": 9275,
      "Ġsurely": 9276,
      "Ġfeaturing": 9277,
      "Ġabroad": 9278,
      "esh": 9279,
      "inois": 9280,
[...]
